. </w>
t o
, </w>
to </w>
u n
r un
s .</w>
s </w>
n </w>
run s.</w>
h a
e </w>
0 </w>
e r
1 </w>
r a
run .</w>
d </w>
r i
a n
i n
t h
a r
J </w>
t </w>
l l
i n</w>
c k
t .</w>
w a
A </w>
o r
a </w>
l e
ck e
M </w>
o n
wa s</w>
er </w>
2 </w>
g h
t ra
S </w>
y </w>
ri cke
e s
m a
h i
: </w>
O U
R .</w>
F OU
FOU R.</w>
e n
c ricke
R </w>
s :</w>
x tra
E xtra
Extra s:</w>
a m
a s
cricke t.</w>
d e
l </w>
D </w>
w i
ha s</w>
a t
L </w>
C </w>
a u
e d</w>
e ,</w>
in g
th e</w>
o w
u r
s ,</w>
a n</w>
c h
o n</w>
P </w>
I </w>
i </w>
G </w>
a g
a l
K </w>
T </w>
r e
a y
au gh
a ,</w>
c augh
caugh t.</w>
a ll
i r
S ha
T 2
f </w>
H </w>
N </w>
y ,</w>
o o
ha m
y e
wi de
wide s.</w>
o u
an d</w>
e s</w>
d ,</w>
er ,</w>
a k
E </w>
i s
b ye
bye s.</w>
e l
e ll
a v
u s
B </w>
n ,</w>
L e
W </w>
ar </w>
o m
t ,</w>
S I
th </w>
u m
h </w>
X .</w>
SI X.</w>
3 </w>
e n</w>
M o
l i
a d
or </w>
t i
R a
ing </w>
b all
o </w>
i l
o f</w>
le g
o s
leg byes.</w>
on ,</w>
d .</w>
s on</w>
K ha
b ow
es t</w>
a i
an ,</w>
an d
M a
i ll
n k
T2 0
T20 I</w>
e e
m </w>
d i
ma d</w>
a ra
s t
k </w>
u e</w>
es ,</w>
run s</w>
ow n</w>
bow le
n g
P at
u l
Mo ham
in gh
bowle d.</w>
a l</w>
r o
n o
th er</w>
M c
h m
F </w>
f i
d e</w>
e t
n own</w>
ha r
t ch
U nk
Unk nown</w>
Le ag
4 </w>
s on,</w>
S ingh
Leag ue</w>
T2 0</w>
V </w>
d u
b </w>
1 9
h e</w>
m i
c on
O ther</w>
a t</w>
s e
ma n</w>
f or</w>
i ,</w>
a in
o l
M u
S h
a z
s i
o t
M J</w>
ha n
s c
S i
A b
ir </w>
Moham mad</w>
e l</w>
t s</w>
s t</w>
s h
i s</w>
en ,</w>
a b
wi cke
S t
A J</w>
A l
ell </w>
a s</w>
t e</w>
A n
2 0
hi s</w>
J A</w>
5 </w>
a p
D J</w>
H as
am </w>
H ar
R o
C o
an g
p l
ball s.</w>
t er
no balls.</w>
D I</w>
p </w>
ar k
ha n</w>
ch </w>
n ing
t er</w>
to n</w>
sc or
B r
J M</w>
o p
e w
O </w>
C J</w>
S mi
v an</w>
th ,</w>
Kha n</w>
ar ,</w>
n e</w>
e v
A hm
ball s</w>
O DI</w>
R i
u t
ay l
d er</w>
C ar
ell ,</w>
u l</w>
a ri
T est</w>
S R</w>
a w
T ayl
C ha
6 </w>
wicke ts</w>
d er
S a
ma tch
g </w>
l b
w .</w>
u b
t ha
in ning
Singh </w>
a d</w>
lb w.</w>
M i
c e</w>
l e</w>
scor ed</w>
ra n</w>
C l
o ,</w>
7 </w>
e m
8 </w>
T h
a in</w>
B ra
to n,</w>
k e</w>
A m
y a</w>
H e</w>
pl ay
e y</w>
ur </w>
s hi
ra </w>
u ll
u </w>
f ir
Sha r
ar d
f o
J J</w>
el ,</w>
m a</w>
i k
S J</w>
inning s</w>
Al i</w>
' s</w>
a y</w>
v er
S M</w>
M or
en t
b y</w>
h ,</w>
r </w>
ck </w>
f or
de d</w>
S A</w>
o d
M ar
i t
s ha
h e
hi gh
wi th</w>
A M</w>
z </w>
le y</w>
Ahm ed</w>
I n
ag e</w>
a f
oo d</w>
ar n
b e
run </w>
os s
c e,</w>
in ,</w>
A f
ag ain
l ,</w>
o h
C h
again st</w>
Singh ,</w>
Pat el</w>
G re
high est</w>
M D</w>
at i
u d
a q
B A</w>
9 </w>
D av
o ll
c l
J L</w>
M A</w>
P er
n e,</w>
m an
le y,</w>
li ,</w>
c e
F er
B J</w>
A r
A R</w>
ur n
J a
o k</w>
ill i
S am
J C</w>
I s
b u
J on
N i
A C</w>
or ,</w>
A k
de e
m ,</w>
ri ng
) </w>
Kha n,</w>
M S</w>
M al
st ri
c ha
u g
an k
R e
d i</w>
l y</w>
ra te</w>
N a
ou t.</w>
is h
m on
K um
E ng
to ok</w>
a h</w>
ma ,</w>
stri ke</w>
Has an</w>
av er
n i
S e
A z
c hi
Eng l
R J</w>
L i
ri </w>
t e
S to
p e
w h
I n</w>
k ,</w>
B e
c o
q u
ra ,</w>
v i
A D</w>
S ou
am p
ra n
j </w>
er s</w>
H oss
D R</w>
ck ,</w>
B ri
fo ur
v e</w>
D M</w>
an a</w>
le ,</w>
M G</w>
A us
o y
om </w>
hi d</w>
L J</w>
ham </w>
A sh
r es
r y</w>
u k
M us
har </w>
Smi th</w>
Pat el,</w>
D A</w>
e p
dee p</w>
Aus tra
Austra li
c i
J ay
fir st</w>
Cl ark
t er,</w>
P ra
th e
B L</w>
S il
O '
Z </w>
Tayl or</w>
th er
aver age</w>
V i
C A</w>
Smi th,</w>
J S</w>
n er</w>
K J</w>
ad av
ck s</w>
er i
In di
d d
en t</w>
u p
i l</w>
G J</w>
N e
M an
Af ri
W hi
am b
t y</w>
ar d</w>
ing ,</w>
S C</w>
Dav i
l d</w>
e y,</w>
ri s</w>
s to
ll </w>
T J</w>
D S</w>
R R</w>
M R</w>
J G</w>
W illi
Tayl or,</w>
play ed</w>
R S</w>
Y adav
four s</w>
Y </w>
R A</w>
J D</w>
ha </w>
M as
C R</w>
Is l
C oo
o v
cricke t</w>
A li,</w>
am ,</w>
J P</w>
con ce
N as
20 1
t ed</w>
p i
S S</w>
H en
M W</w>
i b</w>
Sil v
ring </w>
K A</w>
con om
e conom
S al
ch ,</w>
I m
M P</w>
Shar ma</w>
conce ded</w>
T M</w>
u ri
econom y</w>
J H</w>
Ab b
o g
f f
p p
b at
T S</w>
M e
in son</w>
S an
le s</w>
e d,</w>
M M</w>
A S</w>
si x
P L</w>
S P</w>
Ma hm
ri gh
L A</w>
z a</w>
a ch</w>
P D</w>
ara </w>
C ur
r om</w>
or d
W a
H e
S o
N J</w>
tha t</w>
i b
al ,</w>
P ri
om p
g e</w>
match </w>
v e
J oh
H am
R as
m an,</w>
ara ,</w>
T he</w>
ou gh
Mu ham
W e
ee m</w>
f rom</w>
bu t</w>
b er</w>
us s
M un
20 0
M en
oo d,</w>
i m
g ,</w>
R M</w>
M L</w>
e k
c har
Ro b
Kum ar</w>
ati on
Hoss ain</w>
n and
Fer nand
T ha
Mc C
i m</w>
an n
m ed</w>
A d
M ad
t w
C ricke
az </w>
S u
H aq
all </w>
Per er
l in
K a
B ut
D i
K S</w>
W A</w>
N M</w>
Ra j
W at
o un
i t</w>
a d,</w>
t a
P J</w>
ha d</w>
An der
F in
N or
1 8
du cks</w>
r ,</w>
d w
an i</w>
ot t</w>
ll i
A h
r en
s en</w>
D e
w or
Br oo
A s
fi el
on -
Willi am
W or
Joh n
t ing</w>
Sh o
z ,</w>
am e</w>
R P</w>
Y as
Sha h</w>
w hi
s en,</w>
c ent
G H</w>
P hi
R D</w>
ra f
Muham mad</w>
C H</w>
B M</w>
M ill
D u
c ap
J E</w>
W i
ha n,</w>
J am
se as
Engl and</w>
y a,</w>
c </w>
c to
r e</w>
er e</w>
S W</w>
d re
Ra h
W as
1 0
Si m
T C</w>
C han
C N</w>
Isl am</w>
es h</w>
T G</w>
on e</w>
M K</w>
ar d,</w>
I q
ra j</w>
bow l
ain ,</w>
A g
ham ,</w>
w ,</w>
w </w>
t t</w>
Im ran</w>
S D</w>
du ll
Z e
D P</w>
w e
ai b</w>
cl as
er s,</w>
s h</w>
fi q
A ll
ma de</w>
u s</w>
Yadav </w>
s eri
six es</w>
J W</w>
R av
in s</w>
S and
K er
c om
P an
o f
st -
W al
Ri char
Sha h
s o</w>
T an
G ra
a th
Iq b
Moham med</w>
Sha k
N ew
fir st-
A N</w>
in e</w>
n ation
d a</w>
W ell
s an</w>
R an
ll ,</w>
cap t
H i
M ur
K am
m or
clas s</w>
A L</w>
s e</w>
B arn
Cricke t</w>
T A</w>
u ,</w>
D L</w>
B ar
So ha
Richar d
P M</w>
Shar ma,</w>
st um
K l
as ,</w>
T re
L y
P re
B l
ra n,</w>
F a
b e</w>
A K</w>
Ahm ed,</w>
S y
D o
et t</w>
S T</w>
K D</w>
le s,</w>
H ay
Sh e
F le
f in
te am</w>
first- class</w>
Men di
F ra
s man</w>
U m
de ,</w>
a c
ay ak
C hi
T i
M D
F ar
ra m</w>
A P</w>
is t
A G</w>
k es</w>
J R</w>
S hi
C on
wa n</w>
I PL</w>
R K</w>
K H</w>
an i,</w>
ri s
ou l
d ri
T a
t t,</w>
hi r</w>
e y
H u
et er
ma l</w>
M H</w>
G D</w>
du </w>
l at
t en</w>
f ti
S L</w>
caugh t</w>
K C</w>
N A</w>
ou t</w>
K L</w>
O J</w>
L S</w>
Sho aib</w>
B ai
V in
S ch
th ew
s u
hi m</w>
B BL</w>
H ol
P A</w>
B ur
D el
no t</w>
g g
S K</w>
P i
P oll
E dw
B ha
S c
as k
b ,</w>
e er
K K</w>
nation al</w>
R am
ull ah</w>
t e,</w>
ul -
J un
O ver
B at
Jon es,</w>
ar y</w>
w an,</w>
L am
Y oun
al so</w>
C ra
whi ch</w>
W righ
C S</w>
i s,</w>
A B</w>
du l</w>
A T</w>
ro f
m er</w>
M E</w>
- ul-
Sou th</w>
T T</w>
t -
re e</w>
con d</w>
H M</w>
R L</w>
B al
o ma
p h
ri s,</w>
is h</w>
Bra v
Co ll
B er
M er
L ang
T E</w>
g e,</w>
hi </w>
Edw ard
K oh
B o
en d
z a,</w>
E A</w>
A l</w>
K h
K ul
. 0</w>
in s,</w>
B en
u p</w>
P R</w>
ir ,</w>
S B</w>
pe d.</w>
ai d</w>
Fle tch
G C</w>
B u
l a</w>
match es</w>
P l
stum ped.</w>
e s.</w>
J O</w>
n er,</w>
Fernand o</w>
tw o</w>
J an
G ib
le s
w in</w>
M il
Mahm u
j a</w>
D ev
A A</w>
an d,</w>
ha ,</w>
in son,</w>
D W</w>
B a
J os
L M</w>
W es
on g
M at
S ang
b or
r y
em ber</w>
20 2
M T</w>
A W</w>
ri f
E v
ur y</w>
p or
Z a
D il
Shak ib</w>
wh o</w>
Br ow
N T</w>
K u
Silv a</w>
w ar</w>
Australi a</w>
K M</w>
os t</w>
N R</w>
Th oma
ti m
w ell</w>
L ak
B ro
Sha n
k a</w>
shi re</w>
D en
i d
Mc K
Ma c
ill ,</w>
t ak
p er
Tha k
P ark
p ar
in d
ma l,</w>
w e</w>
B urn
D ha
Has an,</w>
W il
de n</w>
S ar
us h
K ell
e ed</w>
Ras hid</w>
Wor ld</w>
C T</w>
G un
ara t
S w
on d
D aw
K au
seri es</w>
N g
Silv a,</w>
19 9
C ham
A si
n a</w>
ti on</w>
Jon es</w>
Rah man</w>
u s,</w>
W ag
St ev
se cond</w>
C L</w>
r y,</w>
i d</w>
B as
b o
j o
H oll
ill </w>
on ly</w>
H H</w>
ap p
R oo
B W</w>
is s
c es
ra m,</w>
to ri
T e
dull ah</w>
j ee
G K</w>
d h
I ng
K as
r os
th wa
v el
P ar
ing ton</w>
D on
B ab
L aw
S un
d er,</w>
s on-
S N</w>
J K</w>
u v
in e,</w>
e t</w>
ay ,</w>
W est</w>
Cur ran</w>
Afri di</w>
o ak
a ma
New </w>
1 2
D an
Ri z
K e
A t
e .</w>
H og
K an
Mi tch
T D</w>
p re
D al
C D</w>
T L</w>
le d</w>
ter national</w>
K ar
Ander son</w>
S E</w>
as t</w>
G ar
Mor k
E G</w>
Perer a,</w>
N av
e x
R G</w>
w ere</w>
H ow
le n
William s</w>
re c
n am
E J</w>
gh </w>
B op
mor e</w>
um </w>
Afri c
ara n
Sha hid</w>
on g</w>
O' Bri
wh en</w>
H J</w>
ot t,</w>
j a,</w>
W ood</w>
y an
ot t
Mor ris</w>
Mu ll
ar e
T ro
G S</w>
E C</w>
Pat ter
C P</w>
ough </w>
C M</w>
k ar</w>
Whi te</w>
Gre g
O li
B or
Soha il</w>
E l
H C</w>
i a</w>
H K</w>
Phi lli
V D</w>
R uss
19 </w>
c ame</w>
B an
P or
R I</w>
af ter</w>
-ul- Haq
n an</w>
L u
y an</w>
w ood</w>
W ill
T K</w>
h o
f ,</w>
Gre en</w>
H D</w>
H T</w>
ik ,</w>
Hu gh
Abb ott</w>
ck er
C C</w>
Sh or
b ad
j an</w>
fi fti
Clark e,</w>
Um ar</w>
W M</w>
un </w>
D C</w>
T ai
b ha
l and</w>
F J</w>
x </w>
J ord
W P</w>
ra ng
D er
B G</w>
C B</w>
R E</w>
the ir</w>
J T</w>
um m
p er</w>
Har ris</w>
G P</w>
fifti es</w>
C amp
B B</w>
K R</w>
G A</w>
1 0</w>
Jos ep
N o
Jun aid</w>
l a,</w>
di ,</w>
a wa
G e
Yas ir</w>
An dre
Ja de
Greg or
he di</w>
L D</w>
l in</w>
J en
on s</w>
Ab dul</w>
ak k
P ak
G L</w>
John son</w>
19 8
V il
ard en
e g
S G</w>
1 3
2 0</w>
a ch
Sha m
au l</w>
1 2</w>
M N</w>
us se
Perer a</w>
W D</w>
ag e,</w>
a i</w>
R N</w>
du ring</w>
G R</w>
B il
Pak ist
y .</w>
z z
ak </w>
ir d</w>
j i</w>
tha </w>
R u
N az
b ra
i te</w>
P and
T P</w>
ee d,</w>
un k
M ag
U sman</w>
t in
de but</w>
W he
Philli p
W arn
us ha
a th</w>
Si d
Fra nk
Stev en
U n
un ty</w>
B ak
U T</w>
th ree</w>
re t
H ari
Q u
J N</w>
Iqb al</w>
in cl
Am ir</w>
V illi
A i
as uri
G F</w>
H az
A E</w>
i k</w>
scor e</w>
C umm
o k
sh ,</w>
t a</w>
C E</w>
E R</w>
q </w>
C G</w>
R oss
Sha h,</w>
C F</w>
McC ull
ri ,</w>
Ev an
Pre tori
Le wi
Davi es,</w>
Ze al
k es,</w>
Ne es
ball </w>
Over ton</w>
G up
te am
Shah z
1 1</w>
s han</w>
J DS</w>
k ar,</w>
D h
Sou the
R T</w>
T es
wicke t</w>
ha ve</w>
es han</w>
Ra in
om m
r u
O P</w>
Ash win</w>
H op
Ad am
s p
b b
B C</w>
I G</w>
1 4
d is
w on</w>
cent uri
Jam es</w>
ni gh
ee k
S en
as h</w>
thwa ite</w>
t az
re ll</w>
ra z</w>
6 .
K o
a h,</w>
V er
Edward s</w>
I r
S CJ</w>
; </w>
M ay
l k
ra s
7 .
G u
g an</w>
W R</w>
S ai
wa l,</w>
H af
W J</w>
um ,</w>
b et
V a
dd le</w>
H is</w>
k and
19 7
5 .
Q </w>
p ro
p er,</w>
Ma ha
ara n</w>
Mi les</w>
Ah mad</w>
Le ach</w>
Ab d
G h
G ro
v </w>
r um
Gre en,</w>
ar e</w>
G M</w>
Bab ar</w>
Har ris,</w>
t le
all y</w>
B ish
P eter
Th omp
A U
N ari
Asi f</w>
L C</w>
Mork el</w>
E r
in n
Ma thew
T u
Hen ry</w>
D G</w>
S O</w>
L at
Mendi s</w>
Kum ar,</w>
P P</w>
ov er</w>
K le
x ,</w>
L ank
Na wa
l y
b er
Wi es
i f
C har
ai ,</w>
1 4</w>
P ow
g us
capt ain</w>
e e</w>
Fer gus
Mus h
L a
L E</w>
hi m,</w>
B ark
Bro ad</w>
Hoss ain,</w>
L R</w>
" </w>
Ma x
ri sh
San t
ir l
Has san</w>
S ur
es on</w>
b ur
Vi j
o ver
St ey
w ar
Ra hm
is t</w>
p res
B T</w>
Mal ing
oo d
K nigh
19 6
Mc Car
P en
Yadav ,</w>
ow </w>
Iqb al,</w>
T B</w>
ud d
Br es
S n
k e,</w>
we en</w>
Clark e</w>
K ap
B D</w>
Thoma s</w>
AU </w>
1 5</w>
A I</w>
St ar
w ell,</w>
g an,</w>
Brav o</w>
Si kand
St irl
Bil al</w>
M on
1 3</w>
J as
t l
Haf ee
on .</w>
Har m
e di
han a</w>
e -
Sha d
F or
a ir</w>
z i
Ra za</w>
W oak
F H</w>
N D</w>
B R</w>
th y</w>
E lli
Mu k
P e
M C</w>
r oo
L W</w>
A F</w>
4 .
Ker r</w>
Coll ing
Ma h
et z
seas on</w>
S ri</w>
us t</w>
A y
j i
1 8</w>
ub b
Br own</w>
She ik
M ish
Kl a
Australi an</w>
mon d,</w>
H A</w>
Mahm ood</w>
to ur</w>
Ma q
Maq s
arat ne</w>
G ur
T ri
a b</w>
N K</w>
Ze eshan</w>
t ing
C ri
3 .
bet ween</w>
an ayak
bor n</w>
Sikand ar</w>
for d</w>
Indi a</w>
u b</w>
Fin ch,</w>
T am
I S</w>
Richard son</w>
Burn s,</w>
Mendi s,</w>
Wrigh t</w>
K all
e le
fiel d,</w>
D '
Z af
a .</w>
Pra s
G il
19 5
H er
or n
Clark ,</w>
Fernand o,</w>
G o
Sid di
om er
Jord an</w>
R F</w>
m u
1 6</w>
T y
Bur g
W T</w>
rof t,</w>
sc o
D N</w>
v en</w>
T H</w>
Mar sh,</w>
ou ld</w>
m ost</w>
L in
B oul
W y
ma d,</w>
L V</w>
k er</w>
capt ain
ap pe
k ee
w e,</w>
han d
Abb as</w>
G ran
O E</w>
an y</w>
Ku ma
a ck</w>
ye ar
pl ay</w>
ew ell</w>
Bra c
G G</w>
Mal an,</w>
Koh l
i gh
Park inson</w>
Ka run
for e</w>
E L</w>
Cl ar
1 7</w>
shi p</w>
Josep h</w>
T urn
ra h</w>
wor th</w>
wa </w>
g am
f e
t y,</w>
Az har</w>
M ul
H uss
P arn
s e,</w>
O d
19 3
hi ,</w>
an a,</w>
H usse
cent ury</w>
H ill,</w>
D es
il ,</w>
P ren
R au
Ch ris
d ge</w>
Cha t
Hi gg
Sang akk
B h
c c
Chris ti
a ther
S ci
1 5
Su ther
Clar k</w>
K P</w>
Mas h
Mus t
si de</w>
J av
Pan de
w ood,</w>
sha n,</w>
( 2
d s</w>
urn am
A cker
Le e
Ta hir</w>
P ro
d -
fin al</w>
B os
Jay asuri
J B</w>
sto ne</w>
Fletch er</w>
Ra zz
sco ring</w>
y er,</w>
Mu ra
8 .
or d</w>
S F</w>
Me hedi</w>
C AJ</w>
S od
m y</w>
N L</w>
hi r,</w>
om e</w>
Li v
g ro
aw arden
T R</w>
Hol der</w>
Southe e</w>
er -
W ar
H S</w>
fo ll
eer a</w>
at ,</w>
H un
Gup ti
Cri tch
G l
as s
is on</w>
B ee
h eem</w>
s el
Brac ewell</w>
Ge or
Liv ing
u e,</w>
Mill s</w>
E K</w>
centuri es</w>
at ed</w>
th is</w>
Russ ell</w>
ug g
C K</w>
as ek
K al
B oy
ow ing</w>
R ana</w>
ul ,</w>
l and
rif fi
M JJ</w>
p ri
Brow n,</w>
Maling a</w>
B run
it e,</w>
H ai
gh ,</w>
ck s,</w>
Was im</w>
F W</w>
ha l</w>
) .</w>
j ad</w>
S at
bowl ing</w>
ak ad
nam ed</w>
N N</w>
ep h
thwa ite,</w>
Har bha
un ti
Di ck
bat ting</w>
Ra bad
for d,</w>
S ul
Acker man
Du ff
Roo t,</w>
d ra
fiel d</w>
F M</w>
Sam u
ang </w>
Whi te,</w>
Harbha jan</w>
Law ren
be fore</w>
R ol
G riffi
Brav o,</w>
play ing</w>
and -
Gran dh
Grandh omm
F ull
H R</w>
Gregor y</w>
Y uv
Har t
Wrigh t,</w>
Yuv raj</w>
Sc ri
fi ve</w>
K E</w>
Isl am,</w>
K rish
L al
A ar
c ted</w>
Cur ran,</w>
h el
G T</w>
Ak h
g i
D ra
ha b</w>
es s</w>
Jay awarden
W L</w>
C up</w>
) ,</w>
H a
We b
B ang
h u</w>
e k</w>
W aq
I A</w>
de s</w>
W G</w>
J EC</w>
Mal ik</w>
M ark
H il
all ,</w>
Tan v
Mat thew
N ab
s qu
l y,</w>
ve i
ingh e</w>
Hari s</w>
et t,</w>
Boul t</w>
lat er</w>
G ay
Mo or
f an</w>
D um
P u
be en</w>
-ul-Haq ,</w>
to urnam
D B</w>
L TC</w>
N LTC</w>
tim e</w>
T w
D un
Oli vei
K en
g n
R en
Cumm ins</w>
fo ur</w>
Wil son,</w>
P ot
B re
Rol and-
Dum in
N E</w>
Rahm an,</w>
B i
Sha he
But tl
th wi
R ay
d t</w>
Hugh es,</w>
Mash raf
m o
l ad
Mas akad
Vil jo
S PD</w>
I CC</w>
Bor thwi
at ch
Jade ja</w>
au l,</w>
E ll
L N</w>
se le
Do es
Does cha
a 's</w>
Abd ur</w>
Mashraf e</w>
Er v
B ot
v a</w>
Fletch er,</w>
Samu el
D' Olivei
sto ne,</w>
ha ng
H os
I K</w>
Ru ther
in ternational</w>
Mitch ell,</w>
Co etz
K AJ</w>
Cham pi
Kam ran</w>
p os
J AR</w>
Si ddle</w>
H JH</w>
A ra
Don al
St ew
ar t</w>
of f</w>
l oy
H G</w>
H ut
Broo k
K im
ak a</w>
Koh li,</w>
t le</w>
Sto in
ir e</w>
Bri gg
– </w>
Zaf ar</w>
an n</w>
k a,</w>
B AC</w>
taz a</w>
L R
Wa hab</w>
Kha li
O'Bri en,</w>
Sto kes</w>
Bar tle
Mush fiq
ti c
S ol
Zeal and</w>
Mushfiq ur</w>
William s,</w>
1 6
Kha t
Mc Gra
LR PL</w>
K i
E m
er son</w>
Stey n</w>
K B</w>
pre et</w>
s o
Ar ch
L ab
Indi an</w>
R ee
ati on</w>
D JG</w>
wa ,</w>
B K</w>
Rob inson</w>
s k
P op
Br u
R y
end ul
un ,</w>
A j
S ab
to ,</w>
T endul
sha d</w>
1 .
2 4</w>
Kla as
Ir fan</w>
P les
Li yan
Ples si
t ri
Mull an
s ton</w>
Star c</w>
Aar on</w>
D P
Fa heem</w>
Ri az</w>
L H</w>
ew ell,</w>
bat sman</w>
az i,</w>
Sa eed</w>
L WP</w>
C ros
Lab us
Labus cha
ari </w>
em an,</w>
a ch,</w>
Labuscha g
P ay
Villi ers,</w>
i f</w>
2 5</w>
Wes t
f f</w>
But t</w>
ing ton,</w>
Shad ab</w>
Sh ub
Am jad</w>
D AJ</w>
l in,</w>
L ar
Well s,</w>
Y ou
R amp
Ke o
P ara
Daw son</w>
arat ne,</w>
m in
S FM</w>
L an
Shahe en</w>
Sangakk ara,</w>
ma ra
1 7
Ell is</w>
b ab
c are
Dh on
H E</w>
ter s</w>
Ro han</w>
Pl unk
Indi es</w>
ck ra
Nas ir</w>
Pi eter
I bra
Ab hi
be came</w>
b est</w>
Hen dri
Lewi s,</w>
m iss
Pretori us</w>
be ing</w>
Co x,</w>
L loy
Engl ish</w>
Car ter,</w>
m ar
I mad</w>
M and
har ,</w>
B ill
R ub
Gil ch
Sim mon
Pakist an</w>
ak a,</w>
Nari ne</w>
Az i
McCull um,</w>
M B</w>
o d</w>
Pat han</w>
fi z
F lin
dee m</w>
is b
At k
Sy ed</w>
D as,</w>
ath i
Na deem</w>
al a</w>
g u
ph y</w>
Lang e</w>
au lk
Thomp son</w>
2 1</w>
B ell,</w>
Con n
mor e,</w>
Se h
F aulk
Sch ol
Flin to
K HD</w>
b y,</w>
t a,</w>
Hen ri
V et
2 2</w>
d en,</w>
A Z</w>
2 .
at e</w>
dd le
D rum
H amp
v ed</w>
Mur ta
Warn er,</w>
Con wa
o in
hi t</w>
Mish ra</w>
b le</w>
Cha pp
Will ey</w>
R ush
Do ck
Ka le
ak e</w>
B ol
han a,</w>
Bak er</w>
W MH</w>
Ra th
h er</w>
Camp b
Mill er,</w>
G ord
Gay le,</w>
Tam im</w>
hi l</w>
P WA</w>
H ann
Woak es</w>
Ro g
Pro c
Is ma
ee l</w>
Rabad a</w>
ent y
Bop ara,</w>
Coo k,</w>
C JC</w>
Davi d
o ff
Nees ham</w>
t s,</w>
at t
Ba ir
D ow
F A</w>
T AI</w>
on chi
Har mer</w>
rec ord</w>
Wag ner</w>
S ak
ing er</w>
Jen ning
An war</w>
Andre w</w>
3 3</w>
en d</w>
a ck
Bair sto
B E</w>
wa l</w>
al i</w>
Pand ya</w>
Poll ard,</w>
Web st
Le e</w>
Bai ley</w>
c es</w>
Sto n
Ag ar</w>
Co unty</w>
9 .
Bop ara</w>
p ,</w>
th ey</w>
P C</w>
R V</w>
D ou
az ,</w>
Sod hi</w>
Ander son,</w>
Sim p
i j
S ad
Mus ta
Musta fiz
a th,</w>
U d
P oo
su c
Mustafiz ur</w>
Huss ain</w>
Jay ang
Mal ik,</w>
Mor gan,</w>
t z</w>
wh ere</w>
Bres nan</w>
S ana</w>
Afric a</w>
C up
Wies e</w>
B um
Ra ine</w>
wa d</w>
E JG</w>
McCar thy</w>
Vin ce,</w>
M ir</w>
Tw enty
Mar sh</w>
O r
Ak mal,</w>
W all
ur e</w>
Rob inson,</w>
Naz m
Bu ur
B S</w>
s ub
Parn ell</w>
Du cke
Hai der</w>
Seh wa
Hos e
Nazm ul</w>
Tanv ir</w>
Z amp
en e
J oy
play er</w>
D ar
L amb
Champi on
Car l
e en</w>
qu e,</w>
Ha les,</w>
s an,</w>
A am
Coo per,</w>
A ri
2 3</w>
D JM</w>
suc ces
B all</w>
- Drum
ra f</w>
P et
ri e</w>
i ck,</w>
D E</w>
Mer we</w>
en 's</w>
as t,</w>
Buttl er,</w>
Mi ddle
Dha wan,</w>
T op
McK ay</w>
H el
Haq ue,</w>
wicke t-
Gib son</w>
ou s
B ell
cricke ter</w>
u ma,</w>
Fergus on</w>
B oo
bo th</w>
tak ing</w>
T WM</w>
ul y</w>
C ad
de b
J ar
Le an
1 ,</w>
Sant ner</w>
H M
Pot ts</w>
Ro y,</w>
d o
r ul</w>
Sul t
a ce</w>
Henri qu
William son,</w>
Ro ach</w>
q ib</w>
O A</w>
Pat t
Nawa z</w>
ou s</w>
Gupti ll,</w>
Re dd
Sal man</w>
H o
T hi
F re
Mar sha
Wat son</w>
B ad
Coo k</w>
Y S</w>
K ugg
Kugg ele
Kuggele ij
Ash raf
S ub
squ ad</w>
Wi j
Ing ram,</w>
ay y
Ch op
Barn ard</w>
ank a,</w>
han e</w>
19 0
e m</w>
Br y
Hann on-
Hannon- Dal
P on
Del por
Sha fiq
Shahz ad</w>
Thak ur</w>
Kell y</w>
Ly on</w>
m i</w>
S au
We ather
Mc Lar
e e,</w>
Stirl ing,</w>
q ue</w>
K G</w>
Riz wan</w>
S um
ee t</w>
B ir
aq </w>
Kar th
ot to
ab le</w>
2 9</w>
In ternational</w>
Fin n</w>
Gib b
t ing,</w>
19 4
ug ten</w>
G ugten</w>
Lam b</w>
al a,</w>
G le
B all
Bee k</w>
Pri ce</w>
seas on,</w>
t u
Bill ing
D ay</w>
th en</w>
2 7</w>
an t</w>
V as
der p
d ay</w>
Edward s,</w>
Poll o
Shor t,</w>
e ar
O n</w>
Rav i</w>
Az am,</w>
Car ter</w>
Z ai
n ayak
re g
Am la,</w>
DP MD</w>
Well s</w>
Mitch ell</w>
i ch
J MR</w>
Steven s</w>
An s
Mun ro
Haz le
Plessi s,</w>
S tra
k er,</w>
Jayawarden e,</w>
U s
Phillip s,</w>
bat s
k ing</w>
Dav ey</w>
N ak
S omer
Bell -Drum
Arch er</w>
" .</w>
um b
S ark
Od hi
Odhi amb
ingh e,</w>
Whi te
J F</w>
Bang lad
18 9
B ell</w>
Evan s,</w>
Sham s
Co les</w>
Sam i</w>
Griffi th
8 ,</w>
Bum rah</w>
M y
V S</w>
N ai
MD N</w>
Holl and</w>
W H</w>
ag g
Am in
L K</w>
P WH</w>
W in
Ruther ford,</w>
Ko ck,</w>
O'Bri en</w>
B is
G au
ma i
A v
D ut
Husse y,</w>
th ird</w>
un d</w>
Ramp aul</w>
Cha p
di d</w>
2 ,</w>
N at
P I</w>
N G</w>
G ang
2 8</w>
is on,</w>
H od
d in,</w>
H and
2 6</w>
O D
Twenty 20</w>
R ank
Ra za,</w>
ud har
Suther land</w>
H em
ra j
Kul deep</w>
Munro ,</w>
to ri</w>
Cl ay
vi cto
c ed</w>
bowl er</w>
ces ter
t n
But t,</w>
Viljo en</w>
re m
Den ly,</w>
T his</w>
th ough</w>
Ra him,</w>
Dil shan,</w>
Kohl er-
Kohler- Cad
t in</w>
Qu in
v ing</w>
Nav e
Phi land
Mura li
ur ,</w>
G a
Af ter</w>
Fra s
Gord on</w>
R AS</w>
A ug
Ross ou
o d,</w>
B RM</w>
u a</w>
H ud
Ni ch
ath il
M all
Dhon i,</w>
Max well,</w>
Moham ed</w>
3 0</w>
F ry
Frank lin</w>
Murali tha
Rav ind
Sham i</w>
han e,</w>
ing er,</w>
wa y
Bra thwaite</w>
Maqs ood</w>
ev er</w>
H W</w>
Mo s
Knigh t,</w>
W B</w>
al s</w>
A H</w>
Kha wa
J o
Wor ra
um p
D K</w>
om in
Dil shan</w>
D ott
San deep</w>
Bai ley,</w>
Kul asek
T ask
r e,</w>
ir ed</w>
D JS</w>
Tre g
c ,</w>
c ti
play ers</w>
ull </w>
Pay ne</w>
n an,</w>
Murta gh</w>
Task in</w>
Rush worth</w>
Fry lin
H aw
Mc Bri
Nas eem</w>
Kle in
Klein vel
Must af
en t,</w>
t t
es s,</w>
V R</w>
Bairsto w,</w>
Lat ham,</w>
c omp
os e</w>
r ow
I fti
Ifti k
Ly n
foll owing</w>
Hog an</w>
h ra</w>
az i</w>
C ap
dis miss
er k</w>
OD I
Sand erson</w>
Has ting
C AK</w>
w ould</w>
Lam ich
sc om
Hand scom
l ast</w>
in j
C ough
M RJ</w>
McK en
Cra i
v er</w>
0 .</w>
F ish
Roland- Jones</w>
S op
Adam s</w>
c roft,</w>
b and
care er</w>
Sar f
Rau f</w>
Tu ck
appe aran
dull ah,</w>
Wy at
Ham za</w>
ni e,</w>
Bat es</w>
s in
H an
W ak
Z J</w>
ver si
O bu
al i
P SP</w>
Max well</w>
per for
A Y</w>
K W</w>
Si deb
Sideb otto
Mu z
Plunk ett</w>
Af z
Zamp a</w>
A raf
an th</w>
Broo kes</w>
G ill
es pi
R ev
b ir
5 ,</w>
Wat son,</w>
sha w</w>
n es</w>
Ducke tt,</w>
Sha fi
E h
Higg ins</w>
Co b
v en
John son,</w>
H ill</w>
C orn
th y,</w>
F S</w>
Hut ton</w>
A nk
Full er</w>
Ma ri
n es,</w>
Turn er</w>
Sun d
Jon as
Lank a</w>
Per ry</w>
t y
Brigg s</w>
Nor t
shi re
Mahmu dullah,</w>
Pren ti
s a</w>
en y
Har ri
0 0</w>
We er
Pow ell,</w>
Iftik har</w>
P od
an s</w>
' </w>
4 ,</w>
6 7</w>
w an
Ku h
Hud son-
Hudson- Prenti
ag han</w>
e b
R H</w>
usha nk
Ben n
Duff y</w>
K V</w>
H or
a chi
wicket- kee
eek er
Mor taza</w>
M eeker
h od
Afri di,</w>
El g
eph er
hi m
G amb
es ch
K MDN</w>
H F</w>
Kh ur
O B</w>
Te cto
Phillip s</w>
Sa mara
ud ing</w>
Ak ash</w>
Sh epher
Gh ul
Sha ri
T W</w>
Al am</w>
G urn
ha d
S ay
Chan di
P ring
in ed</w>
M F</w>
3 ,</w>
G ul</w>
Nor the
D KH</w>
Ham eed,</w>
Sand hu</w>
six </w>
mon d</w>
B TJ</w>
St an
Hazle wood</w>
L it
S el
Poll ard</w>
ari ,</w>
ur ed</w>
a ard
op en
incl uding</w>
L ist</w>
E N</w>
Mad ushank
R JW</w>
ew </w>
E cc
Si ri
You su
W ai
o ther</w>
el y</w>
1 .</w>
Lamb ,</w>
Siri w
Khur ram</w>
Ecc le
er .</w>
B ou
C os
ish ed</w>
Ng o
E ras
Hannon-Dal by</w>
Eras m
Evan s</w>
jee t</w>
Brac ewell,</w>
C omp
P res
b as
McC len
Por ter</w>
z az</w>
0 ,</w>
Eh san</w>
B and
H V</w>
Billing s,</w>
match ,</w>
Le v
Sa ad</w>
M JG</w>
es t,</w>
e er</w>
De c
au g
Youn g</w>
O ne</w>
K aran</w>
ann a</w>
c ri
di l</w>
g ame</w>
Jan u
Riz wan,</w>
wicke t
P aul</w>
Kell y,</w>
Pat han,</w>
A st
an n,</w>
Maha raj</w>
Adam s,</w>
Erv ine,</w>
A SS</w>
Sh uk
p e</w>
3 1</w>
b ir</w>
A de
-ul-Haq </w>
Aj mal</w>
Ash raf</w>
s a,</w>
as t
c ar
Jayasuri ya</w>
I JL</w>
Kas hi
P he
ek et
Bl ack
G ill,</w>
Was h
Sto kes,</w>
Car ey,</w>
Chan derp
P av
S ain
Youn is</w>
ha t</w>
Chi g
Bark er</w>
Ibra him</w>
K is
Ra w
p an
(2 )</w>
M V</w>
Kohler-Cad more,</w>
Brun t</w>
T al
se t</w>
Youn g,</w>
Mil ne</w>
j it</w>
G B</w>
B FW</w>
v in
Bry ce,</w>
Janu ary</w>
Cha se</w>
Richard son,</w>
Z im
I yer,</w>
unti l</w>
se y,</w>
w in
Hop e,</w>
Roo t</w>
en ded</w>
Raw lin
Isma il</w>
D MW</w>
S omp
Somp al</w>
Hafee z,</w>
G ubb
N RT</w>
w ar,</w>
i y
am a</w>
McGra th</w>
ak e,</w>
ak er</w>
Christi an</w>
u j</w>
An uj</w>
un g
Khali d</w>
Cha hal</w>
How ell</w>
un d
Ch o
ev er,</w>
p o
S ma
Cha w
s ch
Araf at</w>
S H</w>
W is
Colling wood,</w>
F C</w>
P VD</w>
Wash ington</w>
ch chi
co unty</w>
Ab dullah</w>
Muralitha ran</w>
D ub
R ud
Rossou w,</w>
B WM</w>
Mathew s,</w>
re pres
B O</w>
Mad sen,</w>
Ag ar
Rain a,</w>
Ber g</w>
Cra w
Over ton,</w>
P all
j id</w>
j ul</w>
Chop ra,</w>
Shor t</w>
Ti ck
rang a,</w>
Hart ley</w>
um bu
Ran a,</w>
S V</w>
Brook s</w>
Kall is</w>
Mar tin</w>
athi ran
on al</w>
Vet tori</w>
k at
lat er,</w>
b i
Car ey</w>
Por ter
s ton,</w>
3 6</w>
Faulk ner</w>
Gurn ey</w>
Ra hane,</w>
T ry
p u
b an
d on</w>
Gro ene
Groene wa
K ing</w>
R hod
Za man</w>
Lamich hane</w>
Tai jul</w>
Jam i
L P</w>
Rub el</w>
Th om
HM R
HMR KB</w>
Sha f
to n
6 ,</w>
D D</w>
Karth ik,</w>
p t
McKen zi
Tre v
Del any</w>
F oo
j e</w>
Abhi sh
Critch ley</w>
Stew art</w>
W SA</w>
rof t</w>
D war
sh u
Dwar shu
um ar</w>
Shi v
ara b
D ur
Sheik h,</w>
Sn at
Dec ember</w>
Sheik h</w>
Top ley</w>
K ir
R um
Z y
Muz arab
Cl ub</w>
m m
Hafee z</w>
W TS</w>
7 ,</w>
f e</w>
Ai zaz</w>
om en's</w>
v is
v is</w>
He ad,</w>
Sou m
Soum ya</w>
V en
I ly
Pu j
V ar
year s</w>
E M</w>
rif ul</w>
B P</w>
Davi es</w>
Handscom b,</w>
en i
Dav is</w>
C ach
Mul der</w>
udd in</w>
Rob son,</w>
l and,</w>
F ak
in to</w>
ning ,</w>
to t
Rank in</w>
Wes sel
Hugh es</w>
ha l
C O</w>
Jar vis</w>
Chig umbu
O ni
A qib</w>
Jenning s,</w>
er a,</w>
Sam m
Gill espi
T MJ</w>
D Y</w>
Pen ning
Le es,</w>
Chapp ell</w>
ma king</w>
H ad
Lak mal</w>
or k
c as
w ell
C DJ</w>
Raj i
A AP</w>
G od
Ad air</w>
cricke t,</w>
M EK</w>
R ho
ra is
Kashi f</w>
er a</w>
5 .</w>
Worra ll</w>
Meeker en</w>
C ro
b e,</w>
C roo
Living stone,</w>
Am in</w>
Simp son,</w>
G ab
2 .</w>
ad k
Pieter sen,</w>
Bra d
F eb
L B</w>
Ni ek
St y
han i</w>
Cur rie</w>
Feb ru
Patt inson</w>
Pl oo
k i
wi s
ur es</w>
Mu g
Colling wood</w>
Rho des</w>
Ro dri
es s
V ik
Abhish ek</w>
ol d
Ing li
Joy ce,</w>
ol p
N ov
O cto
inn ing</w>
s hana</w>
Patter son</w>
Re d
L BK</w>
P W</w>
Sy mon
B on
Grandhomm e</w>
K y
Li ton</w>
Na hi
ma t
B KG</w>
Rhod es,</w>
F az
Ker r,</w>
a ji</w>
Ander s
jee b</w>
Bal der
Bat es,</w>
De x
fi g
l ost</w>
5 0</w>
Pand ya,</w>
Dra vi
Jade ja,</w>
Jav ed</w>
K ing,</w>
Mi raz</w>
Sha n</w>
j ay
c t</w>
Al dri
wi ckra
K ari
B av
tha ,</w>
O l
Rud olp
Bell-Drum mond,</w>
Doescha te,</w>
Re han</w>
Vin ay</w>
W ood,</w>
Z ul
an d.</w>
Fak har</w>
J uly</w>
Kuggeleij n</w>
Crai g</w>
F i
J DP</w>
p el
G ayl
Northe ast,</w>
l ow
match es,</w>
Russ ell,</w>
an deep</w>
K ay
L MP</w>
B in</w>
am an,</w>
D U
K N</w>
Febru ary</w>
Gra ham</w>
Y K</w>
Th eek
Daw son,</w>
N P</w>
DU </w>
Fin ch</w>
O j
Ar shad</w>
Pande y</w>
Flinto ff</w>
h l
B amb
Khawa ja,</w>
Aug ust</w>
ond o</w>
Conwa y,</w>
Gayl e</w>
McClen aghan</w>
M ir
Poo ran,</w>
i on</w>
le f
Patter son-
U t
Ngo ch
Trev ask
ter -
L L</w>
le ad
seas on.</w>
Octo ber</w>
Sam my</w>
Sidebotto m</w>
Dock rell</w>
Fish er</w>
H L</w>
Krish na</w>
F o
N ur
Marsha ll,</w>
Ackerman n,</w>
Frank lin,</w>
Griffith s</w>
Pri n
ard ner</w>
G ardner</w>
whi le</w>
con c
Si raj</w>
( born</w>
Be au
O n
I re
e ma
perfor man
Sto ne</w>
T ong
3 .</w>
Be h
in d</w>
ff ,</w>
Dumin y,</w>
Nov ember</w>
han n
Bal bir
j i,</w>
Mar ch</w>
Se pt
West ley,</w>
U ni
Pande y,</w>
C ut
Pat erson</w>
18 8
bowle d</w>
Hog g</w>
Coo per</w>
H ain,</w>
um ber</w>
All en,</w>
Me h
G CH</w>
co ck</w>
co un
Jan sen</w>
R W</w>
Coo ke,</w>
Chandi mal,</w>
Kha d
b ro
Shan t
Bra thwaite,</w>
Whe al</w>
Beau mon
ra m
ver -
f en
Car se</w>
Ban croft,</w>
Sal t,</w>
Der n
Dern b
Quin n</w>
app oin
As l
Ly th,</w>
Afz al</w>
Nees ham,</w>
match .</w>
sk in
Karun aratne,</w>
wa ri</w>
C le
Mc Der
McDer m
th ir
St eket
H B</w>
8 .</w>
R os
n umber</w>
Champion ship</w>
E skin
Bartle tt</w>
l o
Az har
Un adk
Kha led</w>
re y
V an
raj ,</w>
B ird</w>
oo l</w>
righ t-
had at</w>
wor th,</w>
Sha w</w>
Bot ha</w>
Hay nes,</w>
Lit tle</w>
Odhiamb o</w>
Se if
Seif er
Azi z</w>
B ess</w>
C B
Sat ter
Patter son,</w>
par t</w>
Mas ood,</w>
Ng i
sha w,</w>
ti ,</w>
Ty e</w>
match es.</w>
shi </w>
Gab ri
M isb
and 's</w>
h z
l er</w>
b y
H et
em ,</w>
v e,</w>
Car son</w>
Cha udhar
Y ork
en g
El wis
Y at
Mathew s</w>
P G</w>
es si
ti c</w>
Fa wad</w>
Lawren ce,</w>
Wat t</w>
al e</w>
Porter field,</w>
Tre dw
Z i
r o</w>
D har
d har
j ust</w>
H all</w>
P ari
ol e</w>
Gamb hir,</w>
Ri pp
Don n
4 2</w>
F oak
B F</w>
J DM</w>
Kleinvel dt</w>
C oul
Wa de,</w>
Kall is,</w>
Nich oll
Nab i</w>
Phe hl
Phehl uk
Phehluk way
Sept ember</w>
r ug
Mahmu dullah</w>
d g
Del an
Oli vi
Bro ad,</w>
Kulasek ara</w>
6 .</w>
Sch ut
e z,</w>
m en</w>
Bish no
Mahmu d</w>
Shari f</w>
Re h
man a</w>
inning s,</w>
e u
de li
ev er
ul a</w>
0 .
4 .</w>
G HS</w>
19 2
An j
Ston eman,</w>
Tan z
ent ed</w>
um pi
M SM</w>
f ul</w>
Thoma s,</w>
t ham</w>
G ou
g o
N tin
as inghe</w>
at a</w>
s er
P oy
anayak e</w>
Muzarab ani</w>
As ad</w>
f er
M esch
Mesch e
re ma
in der</w>
7 .</w>
P athiran
O' Donn
Zim bab
e igh
Shams i</w>
- Barn
No ema
Noema -Barn
o cc
op ,</w>
Khat un</w>
MD E</w>
Misb a
Misba h
3 4</w>
Mac Le
Burn s</w>
Stoin is</w>
sele cted</w>
3 8</w>
Simmon s,</w>
Villi ers</w>
A DS</w>
Mer edi
L ill
un der
B ow
Philand er</w>
Cham eera</w>
Peter son</w>
Elli ott</w>
n y</w>
McLar en</w>
Puj ara,</w>
S later,</w>
3 2</w>
N y
Bas il</w>
Labuschag ne,</w>
Hasting s</w>
il e</w>
Be d
Ni da</w>
um a</w>
Cra ne</w>
ra g</w>
Abb ott,</w>
S re
b od
3 5</w>
th i</w>
Hel m</w>
S m
Ball an
K em
Mi th
Jun e</w>
N is
us u
W ol
Ak ter</w>
Was eem</w>
Tendul kar,</w>
Shub man</w>
7 5</w>
B GF</w>
team .</w>
B CJ</w>
G i
Tro tt,</w>
I t</w>
Lean ing,</w>
Matthew s</w>
ri st</w>
Hol der,</w>
Ra fiq
Gh os
She hz
Samuel s,</w>
D e</w>
Geor ge</w>
Sha mi
All en</w>
L is
All en
ter .</w>
3 7</w>
b ley,</w>
Chanderp aul,</w>
Mc Andrew</w>
Si bley,</w>
ag ar</w>
b re
D as</w>
ad a</w>
as i
Tick ner</w>
com m
om ,</w>
Broo k,</w>
B oll
J I</w>
Rah ul,</w>
V aug
Ab ell,</w>
D in
Ghul am</w>
F G</w>
ver y</w>
Az am</w>
Sam s</w>
P E</w>
inning s.</w>
B ud
9 ,</w>
am an
han ded</w>
ra t
4 3</w>
Gregor y,</w>
Ber ring
Hose in</w>
b oo
Her ath</w>
Gle eson</w>
Car tw
Cartw righ
H oo
Wessel s,</w>
Har di
Lewi s</w>
Bha ti
D uss
Wal ker</w>
H ur
Pretori us,</w>
b a</w>
P U
th r
N W</w>
ret urn
Le ach,</w>
Den ly</w>
Living stone</w>
Masakad za,</w>
Per ry,</w>
L MM</w>
tha pp
MD KJ</w>
Akh t
H WR</w>
W S</w>
4 8</w>
Borthwi ck</w>
Ch ou
a ir,</w>
Sw ep
h ome</w>
D a
J NT</w>
Ray u
Shiv am</w>
Cha har</w>
D'Olivei ra,</w>
d ing</w>
K MA</w>
Ro der
U thapp
r ed</w>
Ch ee
ad in
st e
mi t
Dernb ach</w>
Mullan ey</w>
con tin
O C</w>
S ut
w ent</w>
W U
H atch
Mi ke</w>
WU </w>
Elg ar,</w>
Bh u
Ingli s,</w>
W PU
Barn ard,</w>
Ma y</w>
k o
E T</w>
par tn
tak e</w>
Bo hann
T res
Ackerman n</w>
Masakad za</w>
Tres co
Tresco th
au ,</w>
en t.</w>
er s
st r
Bat ty</w>
Pall adin
Atk inson</w>
Borthwi ck,</w>
Het m
Siddi que</w>
fig ures</w>
F DM</w>
aw eera</w>
Cup .</w>
or e</w>
K on
Ma har
4 4</w>
Ro y</w>
incl u
Eccle stone</w>
T LW</w>
Sehwa g,</w>
Cach op
Well ington</w>
s ing
9 .</w>
Craw ley,</w>
Vil as,</w>
captain ed</w>
c ol
20 19
ib ul</w>
Ta h
Tah u
li a</w>
D og
Uni versi
h ou
F ati
Mer we,</w>
Ngi di</w>
Maqs ood,</w>
Chaw la</w>
Gre en
V and
aard t,</w>
Cros s</w>
sha y</w>
Knigh t</w>
Le as
Oni ons</w>
Gubb ins,</w>
in s
bb y,</w>
le man,</w>
Haq ue</w>
Peter sen,</w>
2 –
D'Olivei ra</w>
Tes ts</w>
Li bby,</w>
N B</w>
Kap p</w>
Redd y</w>
4 1</w>
s ame</w>
Fergus on,</w>
Ker ri
T o
v a,</w>
5 4</w>
b at</w>
Al s
G len
Kh us
Steven s,</w>
w inning</w>
c an</w>
Meredi th</w>
Shahz ad,</w>
Eskin azi,</w>
Madushank a</w>
Unadk at</w>
Mark ram,</w>
Richard s</w>
sh or
t est</w>
Has san,</w>
Clay don</w>
How ever,</w>
Ja co
Z aman,</w>
a j</w>
re ll,</w>
C V</w>
Mor ris,</w>
Comp ton,</w>
hi d,</w>
ing ham,</w>
Du ring</w>
A pri
Bou ch
G ill</w>
c atch
Keo gh</w>
Mil nes</w>
Will ey,</w>
d es
d ge,</w>
t wi
ol d</w>
Ross ington,</w>
d ay
tra v
Balbir nie,</w>
Char les,</w>
Proc ter</w>
aw </w>
ing ham</w>
L o
3 9</w>
P A
Penning ton</w>
Pri ce,</w>
Coul ter-
li ya</w>
Reh man</w>
Theek shana</w>
ou t
oo f</w>
Dev ine</w>
Gun athil
Dick well
Benn ett</w>
ye ar</w>
Chi rag</w>
Hendri cks,</w>
M ous
Ver ma,</w>
David son-
Harri son</w>
rang a</w>
F ai
G os
us ed</w>
Samuel s</w>
ad i
k ins,</w>
v er,</w>
Cough lin</w>
Seifer t,</w>
Wies e,</w>
oo l
Als op,</w>
P o
G old
s wor
G id
Gabri el</w>
Hil dre
Jayasuri ya,</w>
S cha
n ex
succes s
D unk
Gos wa
Mad d
Wol v
Kle in</w>
all ed</w>
Agar wal,</w>
Kam i</w>
Sci ver-
Za ho
4 0</w>
CB R
CBR LS</w>
Groenewa ld</w>
Tro phy</w>
Ab u</w>
i z
ur y,</w>
K ing
Ree ce</w>
se c
tot al</w>
Co ad</w>
c han
Foak es,</w>
Gold swor
McCull um</w>
cester shire</w>
C roft,</w>
Waq ar</w>
Gilch rist</w>
Nas h,</w>
Pra deep</w>
Shafi ul</w>
d s,</w>
es e</w>
sh deep</w>
Apri l</w>
Ar shdeep</w>
Mahm ood,</w>
o s,</w>
pl e</w>
Ja cks,</w>
Jami eson</w>
Fa is
du ,</w>
N ay
el y,</w>
he ad</w>
Jonas sen</w>
Schut t</w>
achi ev
Gillespi e</w>
Lee de</w>
Shepher d</w>
Tha ranga,</w>
t en
Bry ce</w>
Le hm
Tong ue</w>
nex t</w>
Dwarshu is</w>
Kale em</w>
4 5</w>
J at
Jayang ani,</w>
S ri
er k,</w>
Frylin ck</w>
Ja ck
Lloy d</w>
M omin
Momin ul</w>
F L</w>
Stirl ing</w>
Liyan age,</w>
Ry der,</w>
X C</w>
N k
Lam mon
jay a</w>
Kau sha
Nor well</w>
Tecto r,</w>
ar t,</w>
ask aran</w>
Vi ran
Viran deep</w>
stum p
A JA</w>
Grandhomm e,</w>
Nawa z,</w>
fi f
Sh in
band a,</w>
5 5</w>
L I</w>
Mar t
No or</w>
Beaumon t,</w>
Webst er</w>
Dev ine,</w>
Fati ma</w>
m -ul-Haq,</w>
WPU JC</w>
Rath nayak
der g
th us
A it
C ol
Beh ren
d or
Behren dor
Ntin i</w>
Pren derg
W K</w>
Sab bir</w>
A s</w>
B AW</w>
Boll inger</w>
P F</w>
H al
May ers,</w>
1 –
Turn er,</w>
Zaho or</w>
Den t,</w>
, 0
Be th
Delan y,</w>
A V</w>
L CN</w>
ama ge</w>
over s</w>
Keo gh,</w>
d n
ak aratne</w>
re s</w>
Foo ti
Q ad
Bol and</w>
Critch ley,</w>
M HA</w>
Misbah -ul-Haq,</w>
de fe
B hand
Banglad esh</w>
Kuma ra</w>
McC onchi
7 1</w>
Mu jeeb</w>
er g
U r</w>
Wyat t,</w>
Whi t
pos i
Snat er</w>
re ti
Ma hedi</w>
Christi an,</w>
D ar</w>
Ree ce,</w>
ag ed</w>
White ley,</w>
B V</w>
Rodri gu
se ven</w>
De an</w>
Char les
Pon ting,</w>
W are
Dan an
Whe at
T AR</w>
Sant ner,</w>
G an
H AM</w>
Pop e,</w>
ap i
Bamb er</w>
Nave en
. "</w>
Bark er,</w>
b az</w>
Mad h
Nicholl s,</w>
Pl ay
Shuk la</w>
er ship</w>
B N</w>
Mullan ey,</w>
SI R</w>
i ts</w>
f a
Nahi da</w>
- wicket</w>
Stoin is,</w>
ta b</w>
Hil fen
Hilfen ha
My bur
V og
Lan cas
Ploo y,</w>
z ai</w>
Ah ma
Se a
s he</w>
ag ain</w>
Boo cha
Pring le</w>
Rog ers,</w>
K no
Karun aratne</w>
M p
se y</w>
4 6</w>
Duss en,</w>
Sai m</w>
Nort je</w>
Lloy d,</w>
Im rul</w>
Wij es
al y,</w>
ar ed</w>
S he</w>
Schol tz</w>
victo ry</w>
Bos ch</w>
Hendri cks</w>
T N</w>
ve z</w>
Henriqu es,</w>
Burg er</w>
N iss
Olivi er</w>
i c
H y
Hos e,</w>
M el
tournam ent</w>
Aam ir</w>
j n
ni e</w>
M in
ti k</w>
C W</w>
Davi d,</w>
Wag g</w>
K ot
ear ly</w>
pl ac
R TM</w>
5 7</w>
Chat ter
Mo lin
at i</w>
G ul
av e</w>
M ET</w>
Cro com
O m
Pow ell</w>
Sarf raz</w>
sin ce</w>
ter s
H A
Roder ick,</w>
Th usha
ee q</w>
Lyn n,</w>
Carl son,</w>
of fi
Fais al</w>
v es</w>
Ballan ce,</w>
Cros s,</w>
P au
Razz ak</w>
W ood
Tuck er,</w>
Kell awa
Sa i</w>
Thomp son,</w>
Vas conc
Vasconc el
5 6</w>
Dick son,</w>
Jam es,</w>
Pan es
Z S</w>
c re
Ank it</w>
appoin ted</w>
T sh
g re
F os
Gilch ris
Hol den,</w>
John ston</w>
K hi
Kas ey</w>
R and
I k
N S</w>
Sark ar,</w>
m edi
4 7</w>
Muham mad,</w>
man n</w>
5 2</w>
C JA</w>
Sh r
3 )</w>
Wis den</w>
McDerm ott,</w>
pi tch
Kohl i</w>
Ti ri
Tiri pan
C an
M O</w>
Ab ey
Engl and's</w>
Lee de,</w>
Sain i</w>
co ach</w>
p ha
Steket ee</w>
O G</w>
Sal ter</w>
Sho riful</w>
T GR</w>
5 3</w>
c au
As al
Dravi d,</w>
Obu ya,</w>
Uthapp a,</w>
ha ri</w>
Rudolp h,</w>
es t
Cos gro
Gilchris t,</w>
Lancas hi
Ban ton,</w>
Dumin y</w>
P ad
Wal ter</w>
Mun ro</w>
N api
ard ner,</w>
G ardner,</w>
f oo
fi ve
7 8</w>
a ar</w>
Mork el,</w>
Higg ins,</w>
C ow
Ni z
6 2</w>
Ah mad,</w>
O' Dow
Bu ck</w>
Far oo
a le,</w>
L en
S in
Waq as</w>
open ing</w>
Mustaf a</w>
k en
ha v</w>
Molin eu
A ro
on y</w>
6 0</w>
Moor es,</w>
We igh
es h,</w>
a de
Matthew s,</w>
Ut se
Sw ann</w>
ti ve</w>
Le e,</w>
ough ,</w>
C C
U </w>
en ce</w>
6 4</w>
un de
Holl and,</w>
Klaas sen</w>
T om
Joh n</w>
pe ti
qu i
shi re,</w>
wa ll</w>
Ag ha</w>
Ngoch e</w>
v in</w>
B im
Bim eny
Bimeny i
h un
t ro
Bres nan,</w>
Hetm yer,</w>
Sun ny</w>
ha ving</w>
Jaco b
Tai t</w>
cl ub</w>
3 –
Brow ne,</w>
God leman,</w>
Ri az,</w>
ar m</w>
y er</w>
Ren shaw,</w>
Ans ari</w>
Davi d</w>
N ur</w>
Shr ub
Donal d,</w>
wi th
ci al</w>
l i</w>
Aldri dge</w>
St re
ub ,</w>
Har v
ank a</w>
Gib son,</w>
G ha
st at
Buur en,</w>
Ti war
Labuschag ne</w>
T F</w>
T as
Tiwar y,</w>
Harm er,</w>
Tre ma
tak en</w>
ce y,</w>
ff er
Bra cey,</w>
Mall a,</w>
R onchi
lead ing</w>
Ng ara
Bartle tt,</w>
N LJ</w>
d ass
Mu dass
e i
ma h</w>
4 9</w>
Behrendor ff</w>
P ill
Rayu du,</w>
C RD</w>
D oh
H ind
Hen ry,</w>
R ow
Sim i</w>
Josep h,</w>
Shah baz</w>
Wil der
Kau r,</w>
Ne hra</w>
X I</w>
C ott
Co les,</w>
Prin ce,</w>
Ven kat
ham p
Delpor t,</w>
H Z</w>
Nari ne,</w>
Pau de
Wilder mu
Fle m
V is
v ill
Doescha te</w>
N ik
Sc ott</w>
Sha w,</w>
ar ded</w>
For tu
D F</w>
Sre es
Kum ble</w>
w in,</w>
Ad nan</w>
He ad</w>
c y</w>
Dev ci
Kha war</w>
ad de
A fi
Ham mond,</w>
Samm y,</w>
Lan ning,</w>
Mc Man
Sam son,</w>
Tendul kar</w>
Thak or</w>
Sha hadat</w>
M ak
Na eem</w>
5 9</w>
Mi y
Ch ow
Go har</w>
I E
Gibb s,</w>
Cob b,</w>
D ab
ar e,</w>
Shub ham</w>
Bis mah</w>
Af tab</w>
Smi t</w>
Stra us
h y
IE CM</w>
Jat inder</w>
s ti
oo f,</w>
B MJ</w>
Kl inger,</w>
ha v
Gre av
ak at</w>
Si eg
Bru ce,</w>
b ul
C a
l os
Buur en</w>
seri es,</w>
ul ar</w>
M wa
Mil ind</w>
R is
Hildre th,</w>
Sut thir
Sutthir u
6 6</w>
Klaas en,</w>
Webst er,</w>
s on
L ou
Mos adde
Mosadde k</w>
Sh uv
A le
hi sto
return ed</w>
Bl ake,</w>
Is han</w>
en k
ran i</w>
Wai te</w>
Dou thwaite</w>
St e
Yousu f</w>
Bas hir</w>
Swep son</w>
seri es.</w>
Afi f</w>
Ch et
All ey
5 1</w>
McBri ne</w>
b ack</w>
Al -
Sau d</w>
A HT</w>
M A
el d
Footi tt</w>
di ed</w>
taz a,</w>
K T</w>
d ue</w>
F ran
O w
com peti
oo </w>
D LR</w>
Ra ine,</w>
T rum
Rog ers</w>
Wolv aardt,</w>
ump ire</w>
a ar,</w>
four th</w>
B li
I l
Proc ter,</w>
Tredw ell</w>
Zai b,</w>
ish n
Ast le</w>
Brun t,</w>
D ee
u z
Me hm
Sund ar</w>
is h,</w>
Re if
Dickwell a,</w>
cker s
man a,</w>
K av
Thom son</w>
unti es</w>
H all
Re g
in a</w>
Ash es</w>
B M
E ckers
ra y</w>
C han</w>
Lawren ce</w>
Niz akat</w>
7 2</w>
Mal an</w>
Pod more</w>
S usse
Suther land,</w>
Ne trav
Netrav al
sha nk
Coetz ee</w>
H NK</w>
Ry der</w>
al .</w>
ur t
partn ership</w>
Barn es</w>
Hudson-Prenti ce</w>
Ram din,</w>
fin ished</w>
r ou
Pollo ck</w>
Ja cks</w>
pl ace</w>
5 8</w>
Jord an,</w>
Naveen -ul-Haq</w>
I shi
Ud ana</w>
Bai g</w>
Se ar
Ara vin
T ill
u ra
Rain a</w>
b ros
Mag off
or der</w>
E JH</w>
Wat l
Azhar ullah</w>
Jayang ani</w>
O ram</w>
5 0
Rob er
ent ly</w>
s por
st ar
e z</w>
h s
in ter
Aam er</w>
Vij ay,</w>
Bh urt
uk a</w>
6 5</w>
MacLe od,</w>
Sea les</w>
ch in</w>
Am bros
D RL</w>
Ri mm
BM AJ</w>
Brow n
K un
Wil son</w>
om es
rais ing
Lev i,</w>
Ma ck
Nav eed</w>
Pan t,</w>
Hay at</w>
Thusha ra</w>
li a,</w>
3 0
Pra k
Kau r</w>
Pras anna</w>
K ee
Pollo ck,</w>
c tion</w>
W omen's</w>
Delpor t</w>
Bl unde
contin u
un i
G W</w>
e man</w>
Andre w,</w>
Soha il,</w>
Lin to
Raj ap
Rajap ak
eigh t</w>
Chan d
Ire land</w>
ret ired</w>
Cachop a,</w>
Mul der,</w>
Bav uma,</w>
MD K</w>
N ile</w>
May ers</w>
Siriw arden
to m
Ag ark
Coulter- Nile</w>
R ML</w>
oo ri
Ar mit
Harm eet</w>
ra z,</w>
How ell,</w>
Be er</w>
Mu t
Patterson- White</w>
Chap man,</w>
Lin de</w>
ow ter</w>
S owter</w>
Kay es,</w>
Mo ri
Tahu hu</w>
an e</w>
H um
re y</w>
Ah san</w>
K ab
Sa chin</w>
shire .</w>
be at
h u,</w>
Ne g
fi c
Hay at,</w>
Vasconcel os,</w>
Burg ess,</w>
el aar</w>
it ed</w>
p rof
8 3</w>
As har</w>
Broo kes,</w>
Pathiran a</w>
Tan ve
e- E
M GK</w>
B inn
Gar ton</w>
Kas per
Le i
PA DLR</w>
Sand ak
d eni
occ asi
s ole</w>
G or
6 1</w>
Sw an
Vij ay</w>
W AT</w>
d ou
18 7
H agg
h ol
u o
Bishno i</w>
Mill er</w>
s ome</w>
Dott in</w>
Weer akk
Weerakk od
8 6</w>
Kul k
Kulk arn
6 3</w>
Phi li
Bohann on,</w>
Chan dra
Far had</w>
Yas h</w>
Bed ingham,</w>
War ri
e ach</w>
be com
Mori ar
dismiss ed</w>
Hod ge,</w>
Phehlukway o</w>
co ck,</w>
ri dge</w>
Geor g
Mwa ti
Pre ez,</w>
S TR</w>
ce .</w>
Fer n
Kl erk</w>
ai s</w>
h ur
Haw k
y e,</w>
Hilfenha us</w>
J ad
K rug
Shehz ad,</w>
es on,</w>
on e-
Glen n</w>
Si dd
Trescoth ick,</w>
Dog g
St eel</w>
d omes
for m</w>
Woak es,</w>
Shafiq ,</w>
l ov
H KD</w>
Henriqu es</w>
P HKD</w>
Kerri gan</w>
mi ,</w>
Ar l
O F</w>
Mand hana,</w>
pp ed</w>
8 4</w>
Elli ott,</w>
Mi les,</w>
New ton,</w>
ra t</w>
repres ented</w>
char d</w>
Australi a's</w>
sing le</w>
Al- Amin</w>
M ang
Ri az
U l</w>
ph y,</w>
Chat ara</w>
D H</w>
F R</w>
Sult ana,</w>
Treg o</w>
Ben n</w>
L F</w>
O s
T ow
Ai ree</w>
Ait chi
He y
as inghe,</w>
er on</w>
C am
Dha wan</w>
Mar y
Mu p
N d
Tro tt</w>
Zy l,</w>
Ak shay</w>
Harm ison</w>
Man s
ik a,</w>
Sh re
Akht ar</w>
Gun asek
Khi z
Ishi m
Pri yan
the m</w>
Panes ar</w>
Treg o,</w>
s pe
P un
Raji tha</w>
Bouch er,</w>
Car ber
Riaz at</w>
Z ad
Mi raz,</w>
P ain
in v
it y</w>
ul y,</w>
6 9</w>
An war,</w>
isb ury</w>
b ar
p al</w>
u ma
Ash win,</w>
Asl am</w>
Ily as</w>
Mudass ar</w>
O v
Oj ha</w>
res ul
right- handed</w>
Har preet</w>
K usha
Ro ur
Sal isbury</w>
Sci ver</w>
o on</w>
Danan jaya</w>
I ma
O' Rour
Shan aka</w>
P y
mi er</w>
to p</w>
Sha nk
uri ,</w>
A t</w>
Chi bha
foll ow
mi t</w>
Chibha b
Balder son</w>
An am
Anam ul</w>
Gar th</w>
K Y</w>
O' Ne
vi s,</w>
Du raising
F ayy
ari q</w>
T ariq</w>
Co ck
Me aker</w>
cricke ter.</w>
es h
Mon t
b h</w>
p eri
8 8</w>
Stew art,</w>
C ou
Sa le
E k
Fayy az</w>
N au
Cott rell</w>
H ab
L PJ</w>
McMan us,</w>
N H</w>
Z ub
n a,</w>
n em
Erasm us,</w>
K app
S I</w>
Srees anth</w>
Wheat er,</w>
Zul fiq
p ath
Azi z,</w>
k nown</w>
Cock b
F oul
Palladin o</w>
Chow dh
Co y</w>
Mc Coy</w>
Ngara va</w>
s ed</w>
u y
Sand ar
Shan to,</w>
domes tic</w>
g er</w>
Dott in,</w>
Kuh nem
Min or</w>
St eph
6 8</w>
8 –
f am
V T</w>
M VT</w>
au ri
k ar
An shu
Anshu man</w>
Camp her</w>
4 –
Kusha l</w>
L ord
Wal ter,</w>
team s</w>
Cha u
to u
Conn ers</w>
Rah ul</w>
Ronchi ,</w>
V ill
War ne</w>
G E</w>
V ir
Z GF</w>
c ould</w>
si d
wicket s.</w>
O x
man n,</w>
Be har
Ki tch
Mun sey,</w>
Chaudhar y</w>
Ni el
Kh ush
hi ma</w>
Co y
Holl man</w>
Khush dil</w>
Netraval kar</w>
inclu ded</w>
L G</w>
e a</w>
ti on
Va as</w>
York shire</w>
Behar di
La x
T il
7 3</w>
Cha se,</w>
William son</w>
Fras er</w>
G ood
Had din,</w>
amp i
au </w>
Shrub sole</w>
g od
Brook s,</w>
Ja is
Razz aq</w>
ck n
Vi cto
K ai
hel d</w>
f -
New ton</w>
Shant ry</w>
T at
Tes t,</w>
t i</w>
10 0</w>
7 4</w>
Raj a</w>
m ent</w>
em p
C ot
O'Donn ell,</w>
el a</w>
S ing
y e</w>
en n
success ful</w>
Sh et
Trevask is</w>
Wi ckra
Rav al,</w>
on ey</w>
Ni g
Siddi qu
Pre mier</w>
Wickra ma
Ste el,</w>
il a</w>
Ravind ra,</w>
Av esh</w>
He aly,</w>
Mc Mull
prof essi
Di x
Husse y</w>
Be ard</w>
A liya</w>
Ras hid,</w>
Sa jid</w>
b ed</w>
s or
Trum pel
Anders son</w>
Rawlin s</w>
Broo m,</w>
E bra
appearan ces</w>
Al ok</w>
Erv ine</w>
U ma
Elli s,</w>
F K</w>
m ov
& </w>
N af
Crocom be</w>
Hey li
R AJ</w>
Ripp on</w>
Campb ell
F MK</w>
Phili pp
h on
hi a</w>
ri man
Mish ra,</w>
B az
Mesche de</w>
Mur phy</w>
Thi riman
Ne th
Kulkarn i</w>
Mp of
Q ais</w>
ha ra</w>
il y</w>
H DRL</w>
Jas deep</w>
O'Dow d,</w>
Sehwa g</w>
Za hid</w>
f uddin</w>
Sai fuddin</w>
ain ed</w>
av a</w>
ha ri,</w>
7 7</w>
O' Kee
Try on</w>
tim es</w>
Dex ter</w>
Kis han,</w>
en ts</w>
ar g
K aran
Mush t
Us ama</w>
ol i</w>
um b,</w>
5 –
S on
wicket-kee per</w>
Ar n
Va run</w>
en g</w>
l ain</w>
B est</w>
Bou chi
Full er,</w>
b er,</w>
cke d</w>
C as
ri n
Ca ir
W RS</w>
2 9
Niek erk</w>
Afric an</w>
Ing ram</w>
P ut
S av
St ubb
7 6</w>
7 9</w>
Gang uly,</w>
Hem an
K ati
S NJ</w>
Engl and.</w>
Niss anka,</w>
Shi p
cke l
Engl and,</w>
L umb,</w>
e d.</w>
Hay den,</w>
Ni p
Vi m
Poy n
Sa ha,</w>
Eckers ley,</w>
Kal is,</w>
Ri ckel
Trema in</w>
al though</w>
Flem ing,</w>
Mont g
P hang
Phang is
sh u</w>
N sub
Nsub ug
B AD</w>
Park inson,</w>
Smi t,</w>
ad e</w>
ri g
a to
ur ther</w>
8 9</w>
F ul
Pra sid
Prasid h</w>
ing .</w>
s ur
A mit</w>
J askaran</w>
Mc Cl
ak ,</w>
Montg omer
comp le
Mahar oof</w>
Somer vill
1 )</w>
E B</w>
Jan ak</w>
m ed,</w>
C amb
Cartwrigh t,</w>
G ay,</w>
Rum ana</w>
Sad ia</w>
Tat ters
s t,</w>
E li
Berring ton,</w>
L augh
Madd inson,</w>
Sa q
Dha li
In ter
Man ent
Manent i</w>
W ER</w>
Yat es,</w>
Watl ing,</w>
Par vez</w>
P ep
Shin wari</w>
gam es</w>
Napi er</w>
Saq lain</w>
Khat un,</w>
Sark ar</w>
Van ua</w>
Se cond</w>
B ag
Middle se
l ist</w>
Hose in,</w>
J ag
Mybur gh,</w>
Stey n,</w>
Z al
O'Rour ke</w>
s aid</w>
M is
Scri ven
Shan aka,</w>
J ak
Mor gan</w>
sto od</w>
B I</w>
el i
Has s
n ain</w>
Sar wan,</w>
en a</w>
wi ll
Ravind ra</w>
Shaf ali</w>
Sid ra</w>
ach ed</w>
te am,</w>
Chou dhar
Na j
8 1</w>
8 2</w>
P aul,</w>
a ard</w>
D am
McGra th,</w>
an no
ing ham
Th orn
Y BK</w>
Bal aji</w>
re plac
ug e</w>
F ir
Krish nam
Nk om
Redd y,</w>
Far ran
mat ullah</w>
reti rem
Ag ar,</w>
Rodrigu es,</w>
Vim uk
five -wicket</w>
Coetz er,</w>
cl ai
f urther</w>
J HK</w>
Pakist an
run s,</w>
Mac Donal
Moriar ty</w>
Dan ish</w>
continu ed</w>
McKenzi e</w>
Parn ell,</w>
d own</w>
eer a,</w>
f a</w>
Na ir,</w>
Ol uo
an other</w>
anno un
es w
6 –
8 5</w>
Universi ty</w>
West ley</w>
Gl ou
Sang ha</w>
Nip ik
Gu est,</w>
D ar,</w>
All ison</w>
S p
Wa is
A yan</w>
Man preet</w>
9 6</w>
Kha di
Victo ri
catch es</w>
C re
Must ard,</w>
Pop e</w>
But ler</w>
Conwa y</w>
Cosgro ve,</w>
Ja ck</w>
Lis ter</w>
t ly</w>
Rev is</w>
Shi ll
op al</w>
f ast</w>
B el
z e</w>
H in
Sau ra
Ashraf ,</w>
S HA</w>
he er</w>
ough t</w>
ry .</w>
A w
Australi a.</w>
Blunde ll,</w>
L of
M NM</w>
hel p
H auri
Mo hs
Flinto ff,</w>
H ri
S agar</w>
ma y</w>
2019 ,</w>
Ran de
bor ne</w>
cha n,</w>
S up
Sol e</w>
con tra
gn au
Ambros e,</w>
Bri t
Muk esh</w>
Tri path
Dogg ett</w>
Stan l
ab a</w>
ann on</w>
C us
Dut ta</w>
G annon</w>
Mart in,</w>
Gul san</w>
Magoff in</w>
Shi raz</w>
aw ar</w>
ill on</w>
Erasm us</w>
Sandak an</w>
Zimbab we</w>
Lof ti
Lofti e-E
Loftie-E a
P N</w>
Ra e</w>
Ver ma</w>
deli ver
Ray ner</w>
A as
Hamp shire</w>
Ware ham</w>
Gl as
Lehm ann,</w>
P ank
Pank aj</w>
Weather ley,</w>
e ar</w>
Bee k,</w>
gn ed</w>
Cockb ain,</w>
Dock rell,</w>
Em bul
Embul deni
Sn y
au r</w>
Ima m-ul-Haq,</w>
Ken ji
Til ak</w>
Weigh ell</w>
Wy k,</w>
an ya</w>
J aver
Javer ia</w>
Sy dn
em ent</w>
Bli gnau
Till akaratne</w>
Sol ank
beat en</w>
m in</w>
Cut ting</w>
Fo x
c ci
man y</w>
A ti
Sn e
Soha g</w>
Weather al
w y
Sci ver,</w>
C roft</w>
Elwis s</w>
Noema-Barn ett</w>
m ember</w>
si ve</w>
S we
d y</w>
an ullah</w>
Cho han</w>
Daw ood</w>
Sum it</w>
Tre m
Vas tra
Vog es,</w>
ew ,</w>
G oo
J WA</w>
ara jan</w>
N ag
Has nain</w>
O mar
E god
K KN</w>
Pe ir
Well al
d ro
e t,</w>
B y
Moor e</w>
a ce,</w>
oo ,</w>
s l
Lu us</w>
Ara chchi
Bru ce</w>
Mel bo
Mu thus
Na de
Scri ven</w>
Sty ris</w>
Symon ds</w>
an e,</w>
Chigumbu ra,</w>
K ent</w>
Linto tt</w>
c al</w>
Wak ely,</w>
Y usu
n ew</w>
Moham med,</w>
Y ard
Huss ain,</w>
R yan</w>
Rimm ington</w>
anayak e,</w>
el d</w>
,0 00</w>
Lang ev
bowl ers</w>
Ak hil</w>
Chigumbu ra</w>
Gu th
Richard s,</w>
Te wa
righ t</w>
st and
Dunk ley,</w>
Ev ison</w>
Aas if</w>
C ari
Pieter sen</w>
les s</w>
s g
Dal e</w>
Din da</w>
Dun n</w>
HA SD</w>
S later</w>
Southe e,</w>
A ari
A di
Aari f</w>
K DU</w>
Pra bod
Ra hat</w>
Straus s,</w>
7 –
O ti
is u
rif ,</w>
Australi a,</w>
D att
Le vi
Satter thwaite,</w>
Zal ma
y oun
Nab i,</w>
ik a</w>
8 7</w>
ul a,</w>
- 19</w>
W ong</w>
d on
k pe</w>
O kpe</w>
ur n</w>
wi ck</w>
Carber ry,</w>
Cre mer</w>
Kapp ,</w>
Rawlin s,</w>
A u
McKenzi e,</w>
Pras ad</w>
Pri y
Tewa ti
Th eron</w>
Z aib</w>
g ra
en i</w>
pre vi
Mah esh</w>
Mc Kerr</w>
chi </w>
m e
E s
Bu ck
Cow dre
han i,</w>
20 20
I J</w>
an k</w>
g ood</w>
Ad air,</w>
Di ana</w>
Kau l</w>
c alled</w>
Hudson-Prenti ce,</w>
Mpof u</w>
all -
un der</w>
Agark ar</w>
Kha ka</w>
Lean ing</w>
Paude l,</w>
R RS</w>
Yas im</w>
ang ,</w>
shi t</w>
G ai
Lak shan</w>
si de
Ashraf ul,</w>
O H</w>
W IA</w>
is ed</w>
De an,</w>
Oti en
Roland- Jones,</w>
F il
J DF</w>
Vand ers
Ben j
Gai k
Mustaf a,</w>
h eed,</w>
Kan c
hav ,</w>
ther e</w>
Benj am
C or
l ing</w>
Laugh lin</w>
Mohs in</w>
Mun ee
R B</w>
b ers</w>
s aw</w>
Sma le,</w>
b oun
con si
ra ck</w>
A ay
Aay an</w>
th u
Man o
leg </w>
M av
i li
lef t</w>
A dil</w>
Des h
and e</w>
D ay
Hardi e</w>
Fa hima</w>
Nave d
Naved -ul-
Nor th</w>
O K</w>
W ard,</w>
car eer
er i,</w>
7 0</w>
Wall er</w>
ain es,</w>
Bot ha,</w>
Co unties</w>
H aines,</w>
b s
es ha</w>
ov a</w>
K ol
G ug
se ver
Cup ,</w>
Kuh n,</w>
Sop er</w>
E AJ</w>
Naf e
Nas hra</w>
Ra ma
B ac
n ine</w>
thr ough</w>
Mark ram</w>
Warn er</w>
boo b</w>
W har
Z will
Le ver
Scha lk
Schalk wy
in de
p r
Atk inson,</w>
N C</w>
Cha k
Choudhar y</w>
p e,</w>
su ch</w>
Lever o
Nas sor
B uk
Ni j
Sty ris,</w>
z i,</w>
J ab
Mur taza</w>
Rickel ton,</w>
D or
F ell,</w>
Ra z
Siriw ard
be gan</w>
him sel
A un
Band ara,</w>
Sandar u
Mu ye
Stev en</w>
ev i
Cumm ins,</w>
J JG</w>
Kuhnem ann</w>
Mith un,</w>
Campb ell</w>
Stanl ake</w>
c roft</w>
Ma jid</w>
Ro c
a man</w>
on g,</w>
Lancashi re</w>
Khiz ar</w>
cau se</w>
le v
Ro y
Nor ris</w>
ank ar</w>
Lammon by,</w>
p en
de d
tori ,</w>
Bra cke
Hay ,</w>
Trem le
Al am,</w>
Shah ri
Somer set</w>
Try on,</w>
4 )</w>
Man deep</w>
Hall id
La eg
Laeg sg
Mc Pe
S MSM</w>
Utse ya</w>
Vaug han,</w>
B DH</w>
Krishnam ur
cha el</w>
Chee ma</w>
Sal ma</w>
Tri be,</w>
p on
posi tion</w>
tou ring</w>
Asal anka,</w>
B od
Hri do
J im
M ond
Ni y
Symon ds,</w>
Tow hid</w>
announ ced</w>
G ow
K OK</w>
S incl
fiel d-
4 0
0 .0</w>
9 2</w>
Cob b</w>
Sop hia</w>
Tatters all,</w>
in i
ond o,</w>
Gunathil aka,</w>
Li tch
Ver rey
Verrey n
W it
Samara wickra
Shafiq </w>
q ,</w>
T GD</w>
K TGD</w>
ard s</w>
Langev el
Langevel dt</w>
V al
Win field-
ara chchi
Al ber
Charles worth,</w>
Bl ather
Wal sh</w>
for ma
re .</w>
201 8,</w>
Ahma d
Coy te</w>
Leas k</w>
t en,</w>
Boy ce,</w>
Brigg s,</w>
F ly
Mc Swe
McSwe en
Pep per,</w>
aq ,</w>
Philipp e,</w>
shi p
R at
l er,</w>
re i
(2 ),</w>
9 0</w>
Zulfiq ar</w>
ar s
wa d,</w>
N ott
H NA</w>
Kar vel
M bab
Molineu x</w>
du c
q i</w>
J ewell,</w>
Bon d</w>
u a,</w>
Nij j
V ala,</w>
consi der
S s
vi a</w>
Mat au
Matau ta
Ss eny
Ty ag
MacDonal d-
Per chard</w>
s up
K od
Ki esw
Kiesw et
Mc E
V VS</w>
Le on
Sat ish,</w>
Sur rey</w>
T aran
tournam ent.</w>
C MW</w>
N ann
Thiriman ne,</w>
Brown li
D ris
Dris s
G I</w>
be h
Inter nation
Ly th</w>
Mor taza,</w>
Faulk ner,</w>
Jais wal,</w>
Aitchi son</w>
S wa
shi sh</w>
A shish</w>
I JR</w>
Kasper ek</w>
Nas um</w>
jo ined</w>
p ass
Kan eri
Pari s</w>
Roc chi
Rocchi cci
S SB</w>
Tanz im</w>
Whit eman,</w>
R ew,</w>
ep o
J EK</w>
Jen sen</w>
McCar thy,</w>
Un der
ari a</w>
Z ak
Cap sey</w>
Hor ton,</w>
V B</w>
R M
ab out</w>
e der
Pain e,</w>
Siddi que,</w>
k h
Foul kes</w>
N ut
ri ed</w>
us b
9 5</w>
B ess,</w>
Pav andeep</w>
Swan epo
ull ah,</w>
Phangis o</w>
Prak ash</w>
high </w>
Bimenyi mana</w>
Shak eel</w>
z e,</w>
Andre w
Az eem</w>
Nd lov
Ta hir,</w>
Dra kes</w>
Fly n
Hu tch
N anayak
Nanayak k
z i</w>
Mad sen</w>
N al
Croo k</w>
Pres twi
V ai
m en
Ran j
Tuck er</w>
Allen by</w>
Bha tt
P BB</w>
al i,</w>
hal f-
Cle av
Coll e
Fortu in</w>
Kale em
N RD</w>
Nas h</w>
Nut t
Par ry</w>
as i</w>
Ber g,</w>
Nig ar</w>
Em ri
G LS</w>
Scri m
d ar,</w>
Raj ban
Sidd le,</w>
Wildermu th</w>
m s</w>
Chan t
Gun n</w>
Jon g
Pan y
Pany ang
v i</w>
Bak er,</w>
Kim min
Kuma ri</w>
O ded
es an,</w>
K ad
Cam e,</w>
Car ly
Sam p
i dullah</w>
Sch mu
Schmu li
bat ter</w>
McLar en,</w>
Nur ul</w>
Vet tori,</w>
9 9</w>
S Z</w>
un beaten</w>
D al</w>
Doh er
sti ll</w>
F it
Fir st</w>
appe ared</w>
r s</w>
" ,</w>
G ri
de c
W h
Sod hi,</w>
Der by
E bad
Ghos h,</w>
Gug ten,</w>
Sub ra
Youn gh
Youngh usb
Yousu f,</w>
Ebad at</w>
Heyli ger</w>
ODI s</w>
Shre ck</w>
foo t
Boocha tham</w>
By r
des cri
N it
8 0</w>
C he
dra w
Arl ott</w>
Jenning s</w>
O'Kee fe</w>
Sc ott,</w>
Fer rei
N V</w>
Vi ve
Bish oo</w>
G ay</w>
Ham eed</w>
L in</w>
se qu
ti ons</w>
Ay ub,</w>
Od oy
en s
S A
R C</w>
H RC</w>
k ed</w>
sp in</w>
Dav ey,</w>
Vill ani,</w>
professi onal</w>
s et
Mar oof,</w>
Sarf ara
Wor ker,</w>
beh ind</w>
performan ce</w>
se con
E O</w>
Ma z
Sieg ers</w>
han ara</w>
Ja hanara</w>
on s,</w>
Ham idullah</w>
N G
N el</w>
Sto b
ha q</w>
tra </w>
W ad
San to
Bouchi er,</w>
Row e</w>
T s
Gid man,</w>
Sum er
Sumer au
Yusu f</w>
li t
Sil k,</w>
Frylin ck,</w>
I O</w>
Po on
i a,</w>
N am
M CC</w>
Mun i
el er</w>
0 –
9 1</w>
9 3</w>
Fos ter,</w>
Kar tik</w>
Whe eler</w>
Niek erk,</w>
Nsubug a</w>
J ay</w>
Nann es</w>
one- day</w>
Gaik wad,</w>
Kem p,</w>
Z ain
bats men</w>
wi </w>
An and</w>
W ain
cto r</w>
Bhati a</w>
Embuldeni ya</w>
Stubb s,</w>
T om</w>
Hop es</w>
S or
o t</w>
Ra wa
th i
gro un
Kap ug
Kapug eder
ar ly</w>
ati on,</w>
on t
re e,</w>
Ai ree,</w>
shi ,</w>
Ast le,</w>
Sc ot
it a</w>
t u</w>
Ran aweera</w>
ann ing</w>
d o</w>
R O</w>
cricke ters</w>
gro und</w>
mai den</w>
Man is
E MD
EMD Y</w>
Nak isu
Nakisu uy
Rat nayak
Shuv ag
Shuvag ata</w>
Akh ter</w>
Campb ell,</w>
aw arded</w>
9 7</w>
Li ddle</w>
Reg mi</w>
Wag ner,</w>
an th,</w>
sever al</w>
A wa
Wi th</w>
Zain -ul-
Am ir,</w>
Muni and
N and
Pat il</w>
Ran ce</w>
Sseny ondo</w>
o b
J JS</w>
Kab ir</w>
Mir za</w>
Muk as
N F</w>
h os
Cap sey,</w>
Jad hav,</w>
N ND</w>
Sciver- Brunt</w>
Shahri ar</w>
c oll
u e.</w>
cre as
Gur b
Kem p</w>
Melbo ur
Weatheral d,</w>
follow ed</w>
t ham,</w>
Mous ley,</w>
Viljo en,</w>
re n</w>
to ured</w>
A hir</w>
Dun k,</w>
John ston,</w>
S k
Bru y
Conn ell</w>
Sel man,</w>
Si aka,</w>
ra nk
Kim ber,</w>
O R</w>
9 8</w>
Prenderg ast</w>
Si banda,</w>
Trumpel mann</w>
achiev ed</w>
L ond
Levi ck</w>
Mehm ood</w>
Rajapak sa,</w>
202 1,</w>
Susse x</w>
at ta
Alley ne</w>
B MSM</w>
Wall ace,</w>
coun t
ng </w>
wi ck
Nott ingham
Star c,</w>
himsel f</w>
Bel bas
G et
Ri tu</w>
ur e,</w>
D od
San j
Guth rie</w>
Khad ka,</w>
Satter thwaite</w>
Lax man,</w>
Neg i</w>
Ra th,</w>
W CF</w>
Wyat t</w>
Hagg ett</w>
Ily as,</w>
Im ti
Lang e,</w>
Bre etz
H ood
Hog g
Hood a,</w>
Hut ton,</w>
Khus hi,</w>
Zy l</w>
Bi p
Davidson- Richards</w>
Ghos h</w>
Goswa mi</w>
Muthus am
e 's</w>
Bhati a,</w>
Sak ari
Vi y
h er,</w>
Arn el</w>
Behardi en,</w>
Lill ey</w>
Neth ula</w>
e ff
er s.</w>
Bracke n</w>
gi ven</w>
A .</w>
Band ara</w>
G ough</w>
Mc Mill
N O</w>
OU </w>
S en</w>
f ull</w>
S ull
Shami m</w>
T ik
ol o</w>
Hauri tz</w>
K TH</w>
dull a</w>
Ab dulla</w>
retirem ent</w>
f ac
Fras er-
Mo oney</w>
Fraser- Mc
Fraser-Mc Gur
Goldswor thy,</w>
T ou
por t
F B</w>
Khad ka</w>
Qu e
ha ul</w>
Amin i</w>
Harv ey</w>
Scrim shaw</w>
War wick
de cl
in ing</w>
es hi</w>
o s</w>
rec ord
Sal man,</w>
er k
May ank</w>
Sutthiru ang</w>
Tu ff
p oin
Hind s</w>
Za hir</w>
st an
to ur
Verreyn ne,</w>
b roo
with out</w>
B ank
Kenji ge</w>
Nutt all</w>
Sha raf
Vanders ay</w>
20 19</w>
Day al</w>
J TA</w>
Bos ch,</w>
La om
O'Ne ill</w>
Rob son</w>
vis ion</w>
Ak if</w>
Gra y</w>
Hrido y,</w>
Miy aji</w>
Wal ton,</w>
tha w
hal f</w>
he ed</w>
ot e</w>
Cha i
Re ill
Sal ter,</w>
Samara we
Sear s</w>
han t</w>
ut a</w>
Beth ell,</w>
Camp her,</w>
D BL</w>
Re ad,</w>
r est</w>
All ison,</w>
Dex ter,</w>
Law es</w>
Ow en</w>
ov a,</w>
G om
Ma rang
ti es</w>
Bar res
G ayak
Per ma
ama ge,</w>
Ful ton,</w>
Mah boob</w>
Rajban shi</w>
Var ma,</w>
on al
k umar</w>
Allen by,</w>
Armit age,</w>
K ub
N di
Oluo ch</w>
Somervill e</w>
Sur y
d r
s w
Campbell e,</w>
Mill s,</w>
Nade em,</w>
Sch o
Desh p
Deshp ande</w>
Or gan</w>
ti on.</w>
Mur ray</w>
T20 I
U p
Ev ison,</w>
Holl man,</w>
Put thaw
ac c
ou </w>
n ess
ri l</w>
Elwis s,</w>
Litch field,</w>
Akh ter,</w>
Byr om,</w>
Tripath i,</w>
Davi s,</w>
NG RP</w>
A GH</w>
D al,</w>
Jacob s,</w>
Peir son,</w>
Ris had</w>
Sha ik
Zi aur</w>
ken ste
Ben kenste
Ham il
Obu ya</w>
S SJ</w>
W augh
le man</w>
ur y.</w>
Af g
shank </w>
Chai wa
Hamp ton</w>
J KH</w>
Red ma
Redma y
ar t
captain cy</w>
Abb as,</w>
E ranga</w>
Kari m,</w>
ra i
Far g
Farg ana</w>
Gor vin</w>
Tai bu
Mag u
ir e,</w>
sec u
Car se,</w>
G O</w>
er i</w>
Sak ib</w>
to -
Mas ters</w>
Nau man</w>
Saura bh</w>
Chak ab
Ram ha
T oo
Taibu ,</w>
Co pel
G S
Jav ed,</w>
Sen evi
Z E</w>
n ever</w>
p ub
Kati ch,</w>
Prabod hani</w>
R ag
uk h</w>
Shah r
E dg
M I</w>
Wh en</w>
Winfield- Hill,</w>
i er
Boy ce</w>
Cough lin,</w>
S SD</w>
Wag g,</w>
Dev d
Donal d</w>
Lal ch
Santo ki
asuri ya</w>
i el</w>
re qu
Bud inger,</w>
H DJ</w>
Sha rif,</w>
Vimuk thi</w>
be cause</w>
es er,</w>
N eser,</w>
Bhurt el,</w>
Poon am</w>
Re hm
Vir di</w>
Bra g
Mith un</w>
d ar</w>
dro pped</w>
ra y,</w>
Anders son,</w>
Mall a</w>
Pon ting</w>
T r
ag od
7 )</w>
Kam ch
Kamch omp
Sel man</w>
Tyag i</w>
v ast
Bhand ari,</w>
Carl son</w>
Mar ty
Steph en</w>
Shar min</w>
G azi</w>
Il ro
Lu us,</w>
Mc Ilro
McConchi e</w>
U ra,</w>
of ten</w>
tim e,</w>
9 –
Gun aratne,</w>
H all,</w>
I yer</w>
Indi a,</w>
Mac Be
Pring le,</w>
Rathnayak e,</w>
sha d,</w>
0 )</w>
D up
Dhali wal,</w>
F or</w>
Kaleem ullah</w>
Khadi ja</w>
S as
Z ain</w>
ce i
Az matullah</w>
Gro bb
Samarawickra ma,</w>
ull a</w>
M umb
Nik hil</w>
S mu
Sha shank</w>
Smu ts</w>
Ts ot
Tsot so
Wa les</w>
hou se</w>
Pri or,</w>
Rande ll</w>
ali fi
Fil er</w>
M an</w>
Solank i,</w>
c at
wicke t.</w>
Shet ty</w>
at i,</w>
f ull
Jonas sen,</w>
Pi er
Simmon s</w>
Wit t
Dup av
Rahm anullah</w>
S eri
i c</w>
in i</w>
ad ar
lef t-
m em
6 )</w>
Chet ty,</w>
f ar</w>
om b
Cra ckn
Naved-ul- Hasan</w>
Sam ar
Sw inde
Swinde ll
Tri ve
ap </w>
Cleav er,</w>
McBri ne,</w>
Men nie</w>
Th or
ur u,</w>
A RI</w>
Ho que,</w>
Ma chan,</w>
Mun aweera</w>
Th eer
Theer tha</w>
X J</w>
el a,</w>
Bur l,</w>
Hart ley,</w>
Kaneri a</w>
Mus ama
Mwati le</w>
g en
Ch in
K os
Nak rani</w>
Ri j
T U</w>
Trevask is,</w>
Vij ay
a wickra
Jay awickra
ret urn</w>
band a</w>
fif th</w>
5 )</w>
E S</w>
M TC</w>
McK ier
Sam s,</w>
U mai
Umai ma</w>
ari a,</w>
con s
t s.</w>
Lak shan,</w>
Rathnayak e</w>
c hand
ser ved</w>
Camb ridge</w>
Tiripan o,</w>
Yas in</w>
l ington</w>
w omen's</w>
Chau han,</w>
G FB</w>
Kla as</w>
Pet tin
Sund ar,</w>
Tan wi
Tanwi r</w>
cha ng
er 's</w>
A GS</w>
Gayak wad</w>
K DC</w>
Lalch et
Mor ley</w>
Ship ley</w>
Sma le</w>
mov ed</w>
ap u
th i,</w>
Bha ra
th re
wa y</w>
Muye ye,</w>
Otien o</w>
li ke</w>
rec or
ve z
Noema-Barn ett,</w>
Rafiq </w>
m een</w>
B ev
Bha v
I K
J .</w>
Ker vez
Se elaar</w>
Yas meen</w>
th ish</w>
ull en</w>
Dh r
az e,</w>
ci a</w>
So lia</w>
Wai te,</w>
scor er</w>
b ri
h ow
bats man,</w>
Brownli e,</w>
D ul
P a
R Y</w>
app a</w>
e z
ph y.</w>
M adav
Mar u
Ruther ford</w>
Tremle tt</w>
b by</w>
ck y</w>
to w
Bad ree</w>
Fai z</w>
Mag ala</w>
Mc In
to sh</w>
P ush
j an,</w>
R ak
Sur ya</w>
Un n
p in
Bow es,</w>
C ullen</w>
H T
inv ol
HT RY</w>
P app
Sull i
Vin c
Ab ul</w>
Hun t</w>
Sult an</w>
pu t</w>
A man</w>
Gang uly</w>
Hen ness
Kellawa y,</w>
McConchi e,</w>
Mous ley</w>
Push p
reg ular</w>
J ang
Rafiq ue</w>
by es,</w>
wi ll</w>
B au,</w>
Goswa mi,</w>
Greav es</w>
St at
Goldswor thy</w>
L un
Ro ach,</w>
Schalkwy k</w>
Tecto r</w>
offi ci
ut s,</w>
G ough,</w>
Har oon</w>
M eet</w>
Me gh
e f
Ak mal</w>
Re za</w>
202 2,</w>
Abd ul
Kuggeleij n,</w>
Marsha ll</w>
Pen f
V ala</w>
C row
Liyan age</w>
Maha raj,</w>
Sen anayake</w>
Sm eed,</w>
T AM</w>
cri tic
8 )</w>
Lun gam
Bish t</w>
Gra ham,</w>
H udd
Indi a's</w>
Jay ed</w>
Middle broo
appearan ce</w>
re y,</w>
201 8</w>
Hudd les
MA DI</w>
Ra o</w>
J af
Munee ba</w>
N RM</w>
Panyang ara</w>
Zai di</w>
ak a
A TE</w>
Chowdh ury,</w>
Farran t</w>
Haz eld
Jack son</w>
P al
a o</w>
fi x
Balder son,</w>
Han cock</w>
inj ury</w>
ram ullah</w>
Hum ph
Leon ard</w>
Mup achi
Mupachi k
Ram ee
Sm uts,</w>
Vaug han</w>
9 )</w>
Bo ard</w>
Jack son,</w>
M WR</w>
Far rell</w>
Ab ell</w>
on ce</w>
re ached</w>
Faz al
H P</w>
Ro hit</w>
T av
Th ey</w>
eff e
re co
Des pi
Despi te</w>
Gau ra
Joy ce</w>
Naz ir,</w>
S U</w>
d han</w>
on s.</w>
z an
Kieswet ter,</w>
Odhiamb o,</w>
Pra dhan</w>
Tanve er</w>
G ond
Gaura v</w>
Ox ford</w>
aver ag
B BA</w>
B un
Flyn n,</w>
Si bo
Un ited</w>
descri bed</w>
Ar chi
Doher ty</w>
Mur phy,</w>
Ramee z</w>
Ari f</w>
K arn
Pres t,</w>
Sciver- Brunt,</w>
W el
r d</w>
Blather wick</w>
Fazal haq</w>
I ll
ik k
Jen ner,</w>
Oj ha,</w>
Yat es</w>
Cot ton</w>
D AS</w>
H at
ou ,</w>
Har per,</w>
I sh
Pad ikk
Sen am
Senam ont
Sha bb
Ros s,</w>
con secu
gi et
5 .0</w>
Ham mad</w>
Ik ramullah</w>
N ev
u k</w>
W ang
Duff y,</w>
per .</w>
Ag b
Aro ra</w>
Des ai,</w>
F D</w>
Geor ge,</w>
Rub ub
Rubub ag
Rububag um
l is
Dal a</w>
El y
Gun aratne</w>
Leag ue.</w>
Philand er,</w>
Ston e
Thom son,</w>
cha ro
Kon charo
Koncharo enk
hol ds</w>
Rand i
so ci
As ma
Asma via</w>
Emri t</w>
F oll
Hun ter</w>
Ma s</w>
Razz aq,</w>
Rocchicci oli</w>
Vin ce</w>
de bu
m is
Binn y</w>
Cut ting,</w>
Ir shad</w>
Kellawa y</w>
T amb
str ong</w>
th ese</w>
Ak ram</w>
Duraising am</w>
Nijj ar</w>
Sydn ey</w>
uk i
Chant am,</w>
Shepher d,</w>
Thorn ton</w>
Viy ask
Y ear</w>
st art</w>
Ak ay
Akay ez
Breetz ke,</w>
Jan sen,</w>
Pat id
ai led</w>
Beth ell</w>
Bri n
Chapp ell,</w>
Karvel as</w>
P ott
Hun ter,</w>
K ish
M HC</w>
I MHC</w>
Pott s,</w>
Tsotso be</w>
al y</w>
Brin d
J LB</w>
ot ha
GS N
GSN FG</w>
Uma ir</w>
le -
C all
Amin i,</w>
Black well,</w>
Jos hi</w>
Nkom o</w>
as h,</w>
wor ld</w>
Kau shi
V J</w>
W o
consecu tive</w>
es ter</w>
Ma ck,</w>
Sult ana</w>
aw eera,</w>
Hoo da</w>
Devd har,</w>
H is
A EN</w>
Bhatt i</w>
Gid man</w>
N ir
P KD</w>
g l
Ad am</w>
Con no
Conno ll
Lank an</w>
McPe ake</w>
Sang ha,</w>
Siriwarden e</w>
av </w>
Char les</w>
Om ar</w>
Ra bb
T JG</w>
ang a</w>
in di
( 3)</w>
Bhav s
K OA</w>
Vastra kar</w>
Ly on,</w>
P TM</w>
Sam an
end ra</w>
ol o,</w>
Ja wa
T ham
for d
Ahma di</w>
Aj ay</w>
Sim ran</w>
consider ed</w>
run -
av ing</w>
ti on,</w>
Goo dw
Harri son,</w>
McK ay,</w>
el d,</w>
Am in,</w>
Hatch er</w>
Nafe es,</w>
O banda,</w>
Poyn ter,</w>
Pri est,</w>
Afg han
Dub e,</w>
T er
Wo erk
l ai
o ur
In z
Inz ama
Prestwi dge</w>
S is
Vik ram
el aar,</w>
om e
Adi t
Foll owing</w>
Or r,</w>
Vikram jit</w>
as oori
star ted</w>
C JL</w>
Car son,</w>
MacDonald- Gay</w>
o ur</w>
wicket kee
200 7</w>
Bre vis,</w>
Chaiwa i,</w>
Faroo qi</w>
Khus hi</w>
Mi chael</w>
Nai k</w>
Nat arajan</w>
Sup er</w>
wi c
Redmay ne,</w>
Thi l
2 )</w>
Afghan ist
Dut ta,</w>
Kno tt</w>
Soha ib</w>
b l
us h</w>
dee p,</w>
f ew</w>
hi t
li gh
m ar</w>
Sai f</w>
V oll
l inson</w>
ro le</w>
ul arly</w>
Jay athil
Leas k,</w>
Shafi que,</w>
Shill ing
Sul ai
Andrew s</w>
Dou thwaite,</w>
Haz ell</w>
Middle ton,</w>
Tom linson</w>
Wain w
Benjam in,</w>
Krug er,</w>
S udhar
ation s</w>
g an
e f</w>
B OP</w>
Blignau t</w>
L ati
Prenderg ast,</w>
R onal
10 .
9 4</w>
Se le
Tiripan o</w>
g at</w>
histo ry</w>
Devci ch,</w>
Devci ch</w>
Kam un
Mi ke,</w>
p o</w>
T au
Gre w
Santoki e</w>
Par gat</w>
Zaf ar,</w>
bat ted</w>
Benn ett,</w>
Taran jeet</w>
is ya</w>
t sh
Dupav illon</w>
Lal it</w>
W ard</w>
Whar ton,</w>
performan ces</w>
scor es</w>
Di erg
I an</w>
Lungam eni</w>
M ai
Melbour ne</w>
Roy al</w>
all- ro
ma l
ni l</w>
M CC
ce p
Abb asi</w>
Ren uka</w>
lat e</w>
su ffer
vi c</w>
Adit ya</w>
s den</w>
An y
Bur l</w>
Hardi e,</w>
V P</w>
d den</w>
help ed</w>
man .</w>
Humph rey
Kl erk,</w>
Montgomer y,</w>
Sangakk ara</w>
Sarfara z</w>
Va ishn
Vaishn ave</w>
az a</w>
in na</w>
Ra fi
Rev is,</w>
Weerakkod y,</w>
comm ent
s um
Fraser-McGur k,</w>
H ull</w>
Sharaf u,</w>
U r
Wellal age</w>
at ing</w>
ation al</w>
A tha
Alber t,</w>
Mat si
Matsi k
Matsik eny
McIlro y</w>
Peter son,</w>
Ripp on,</w>
wicke ts,</w>
Boy le,</w>
Chibhab ha,</w>
Crackn ell,</w>
F ari
on ari
p oo
Ay esha</w>
McE wan</w>
Plunk ett,</w>
i d,</w>
V ara
De onari
Jawa dullah</w>
P aran
av it
Paran avit
Swindell s,</w>
Trive di</w>
Wickrama s
L ok
Tham otha
Tro phy.</w>
W .</w>
Ati f</w>
I E</w>
J er
K U</w>
Siddiqu i</w>
bur n</w>
p ace</w>
Ba ard,</w>
Coll y
D EM</w>
Shi k
dec is
e duc
g o</w>
h or
k in</w>
sha </w>
Ans ari,</w>
Bri ts,</w>
Gl over</w>
M l
Nich ol
Us man,</w>
ach ing</w>
Os borne</w>
Perma ul</w>
Rawa t,</w>
re cei
un t
At han
Gurb az,</w>
O ram,</w>
B AM</w>
Chakab va,</w>
Kimmin ce</w>
V oh
200 9</w>
Ar shad,</w>
Do rig
Fern s</w>
O g
Pill ans</w>
g e
As soci
a len
ev en</w>
Ahmad zai</w>
Gupti ll</w>
Hawk ins
- K
Hawkins -K
Reif er,</w>
Reif er</w>
She at</w>
l ished</w>
Dur ston</w>
Gou s,</w>
Hogg ard</w>
Niel sen,</w>
Samar th</w>
Si banda</w>
gre at
mu ch</w>
o -
sha ,</w>
Ken n
Za heer</w>
jn r</w>
oma d
to r</w>
N es
Nes er</w>
5 /
Agb omad
Agbomad zi
Mull er</w>
Shank ar,</w>
Thak ur,</w>
ra l</w>
sp in
sub sequ
Nay eem</w>
Pra ti
ha ul
Brit ish</w>
J al
Sibo to</w>
Black wood,</w>
Cos ker</w>
L PC</w>
Mo tl
care er,</w>
dou ble</w>
Hop e</w>
L ord</w>
Mas car
Mascar en
V es
pr om
Ball inger</w>
Hun t,</w>
Pettin i,</w>
St adi
Tanz id</w>
ati ve</w>
j ad,</w>
Sa j
ur el,</w>
A O</w>
Kapugeder a,</w>
Lin de,</w>
Pet er</w>
l ong
Barres i,</w>
F I
I DR</w>
Aravin d,</w>
G .</w>
Kausha l
Sor en
Thak or,</w>
rema ined</w>
team 's</w>
ee m,</w>
ong o</w>
Bac on</w>
Bo hara</w>
Car ty,</w>
Chaudhar y,</w>
Gunathil aka</w>
Mc Andrew,</w>
S ud
Wall er,</w>
d on,</w>
po or</w>
Mur do
Ramha rack</w>
Ratnayak e</w>
Sumerau er</w>
2020 ,</w>
K ib
M ir,</w>
Patterson- White,</w>
at ne,</w>
d in</w>
en ti
uri n
Corn wall</w>
Mesche de,</w>
O' Ri
O'Ri ord
W W</w>
capt ain,</w>
in f
Raj poo
mara t
Cus ack</w>
Kenn e
Pre marat
ran i,</w>
rish nan</w>
A run</w>
Aw ek
Dhar ni
Dharni dhar
E V</w>
F O</w>
Kib as
Laom i</w>
Niy om
R MS</w>
Well ington,</w>
A inna</w>
Ham iz
Hamiz ah</w>
Sto v
f fic
ing s</w>
rou p</w>
si on</w>
Bhu di
King ma</w>
Kish ore</w>
tournam ent,</w>
Burg ess</w>
Tanv ir,</w>
c ur
Bol ton,</w>
Kot ze,</w>
Mupachik wa,</w>
Ri ley</w>
S uk
Sand er
Sander son,</w>
Nur se</w>
Th re
Ves aw
con tri
ord er,</w>
Maling a,</w>
V ishn
ab ili
Indi a.</w>
Kamchomp hu</w>
Ma ir</w>
Nipik o</w>
Vishn u</w>
and er</w>
ball ,</w>
B all,</w>
Ba art
Jayawickra ma</w>
O EG</w>
a ck,</w>
bow l</w>
Driss ell</w>
P V</w>
di j
o l</w>
t able</w>
Arch er,</w>
Bruy n,</w>
Co di</w>
O' Reill
Putthaw ong</w>
U wa
Wes ter
ar y,</w>
cent ury,</w>
ji c</w>
los ing</w>
le as
lev el</w>
ow ed</w>
ye n</w>
Ashraf ul</w>
C ai
Lill ey,</w>
S uri,</w>
Wester n</w>
Ash u
Griffith s,</w>
K A
Nai m,</w>
Zalma i</w>
previ ous</w>
s ing</w>
side .</w>
umpi re.</w>
Ashu tosh</w>
Buck ingham</w>
on e,</w>
Green wood,</w>
Kulasek ara,</w>
Madav i,</w>
Rabad a,</w>
Tha p
y al</w>
Z h
og l
succes s</w>
ur -
Ni d
Sang wan</w>
Z or
en aar,</w>
mi ted</w>
v ari
Al though</w>
D oo
P ok
Too le</w>
W HM</w>
G WHM</w>
s tra
te en</w>
Croo k,</w>
Dhr uv
Hum e</w>
I AA</w>
J aker</w>
Vara i
Ni col
Zwill ing</w>
mar ried</w>
201 1</w>
Cha ya</w>
Dhruv </w>
Hasting s,</w>
O k
S BN</w>
Sk el
as wa
becom ing</w>
p ara
I SBN</w>
Madushank a,</w>
n d</w>
ter s,</w>
Has ee
Samarawe era,</w>
Steven son</w>
Thre lk
en a,</w>
4 /
At ap
Atap att
Griffi th,</w>
Kari m</w>
Lo ck
Lord 's</w>
' t</w>
Hat z
Hutch inson</w>
Y A</w>
ap ati,</w>
clai med</w>
ol ,</w>
Br yan
Dar lington</w>
Hatz ogl
Or gan,</w>
wi ck,</w>
z ai,</w>
Davidson- Richards,</w>
Derby shire</w>
Padikk al,</w>
Stra n
Stran o</w>
av a,</w>
ot i</w>
ous ly</w>
- ur-
Bhand ari</w>
M CD</w>
Sandaru wan,</w>
al ong</w>
d y
Ale x
Koncharoenk ai,</w>
O'Donn ell</w>
Simp son</w>
Bell-Drum mond</w>
E nam
Enam ul</w>
Har shit</w>
Mor ea</w>
Mug hal</w>
Patid ar,</w>
Sny man</w>
Swa p
Swap nil</w>
a ji,</w>
e j
h um
uk i</w>
Ak ter,</w>
Car mi
E d
Elg ar</w>
Kam rul</w>
T I</w>
Wa i</w>
ak uma
3 /
Ade lai
Ar no
l d,</w>
B ull</w>
Boo th</w>
FI N</w>
Jav id</w>
Cai res</w>
Kis han</w>
Ni gh
Pier re</w>
Ra e
Si aka</w>
con tro
il -
l am
Lis ter,</w>
Man en
O D</w>
O za</w>
T ari
Jayawarden e</w>
Manen ti,</w>
om r
L omr
s '</w>
wic z</w>
Tamb e</w>
Tes ts,</w>
Wij er
gen er
Cair n
Hi man
Himan shu</w>
Pop li,</w>
Samm u</w>
Zad ran,</w>
no -
Dut t</w>
G av
Moor e,</w>
Shar jee
Sharjee l</w>
ann a,</w>
Ebra him,</w>
Ge dd
Ishim we</w>
Oded ra</w>
Plessi s</w>
career .</w>
Che at
Hal amb
J i
Par k</w>
Philli p</w>
Qad ri</w>
X A</w>
deliver i
ha l,</w>
ha ra,</w>
Greav es,</w>
Rum man</w>
est ab
f ailed</w>
Bur row
Gedd es,</w>
Si p
aard t</w>
w hat</w>
Rav ic
Ravic hand
T hamp
pass ed</w>
Go har,</w>
Man z
o or</w>
Nigh ting
O za,</w>
Pras anna,</w>
Sip am
Sulli van</w>
T MM</w>
Jong we</w>
Poy sden</w>
hi rah</w>
G A
Mo or,</w>
N AT</w>
Penf old</w>
Swanepo el</w>
fa ther</w>
202 2</w>
J ha</w>
Jacob s</w>
Jon as</w>
L ing
Para g,</w>
Pushp akuma
an de,</w>
en tra
p ing</w>
Ar m
Baart man</w>
Brag g,</w>
Rajpoo t</w>
ha s,</w>
le ag
Berring ton</w>
Magu ire</w>
So lia,</w>
Chan de
E H</w>
G aman
Gaman ti
Kleinvel d
Kleinveld t,</w>
R un
Far han</w>
Marty n,</w>
McMull en</w>
Thak er</w>
espi te</w>
pi cked</w>
pitch </w>
Brad man</w>
Vive k</w>
d espite</w>
D V</w>
Mag ar</w>
dd in</w>
w ard</w>
201 5</w>
As pin
Boocha tham,</w>
Middlese x</w>
Buk hari</w>
Haw o
Ja hang
S ara
Um eed,</w>
re tt</w>
Asl am,</w>
Ja mal</w>
a head</w>
at ung
gam e.</w>
Gup ta,</w>
McSween ey,</w>
Tas man
b ar</w>
contra ct</w>
min ut
sele cto
shor t</w>
t es
umpi res</w>
Co pp
Gu run
Laegsg aard</w>
White ley</w>
por t</w>
udd in,</w>
Cartwrigh t</w>
Ishim we,</w>
Say ed</w>
Senamont ree</w>
Younghusb and</w>
day s</w>
r on
te en
wa la</w>
A riful</w>
Ab o
D a</w>
Kitch en</w>
RM MP</w>
Shik ongo</w>
Sudhar san,</w>
Sun il</w>
V raj</w>
Ven ug
Nas eer</w>
am or
ha t,</w>
ma t</w>
st er
Afric a.</w>
H ot
Ibra him,</w>
Sanj ay</w>
ye ar,</w>
G al
G amage</w>
Han s
K ye
Kye w
Su chi
m on</w>
wa s
Be an,</w>
Dur ston,</w>
I D</w>
Lammon by</w>
e c
ha t-
hat- tri
20 .
Chatter ji</w>
Gl amor
Cowdre y</w>
Internation als</w>
Mus a</w>
Musht aq</w>
Zad ran</w>
ra h,</w>
Dub e</w>
Gan esh</w>
Gibb on</w>
Matauta ava</w>
N ampi
Ra be
w ri
Ml aba</w>
Rabe ya</w>
Sne dden</w>
wa ri,</w>
Egod age,</w>
Nas r
Nasr ulla</w>
18 .
Dan lad
Mc Glas
Voh ra,</w>
Z N</w>
Zimbab we
all y,</w>
an o,</w>
fix t
Eccle stone,</w>
G all
Mahmu dul</w>
str ugg
Ferrei ra,</w>
Hoo per</w>
M LL</w>
Ni thish</w>
Viyask anth</w>
st ru
Ja hur
Jahur ul</w>
Kausha l</w>
Tsh uma</w>
an ag
lin e</w>
w ro
Awa is</w>
U BT</w>
V an</w>
f field</w>
t y.</w>
Dhon i</w>
F low
Glou cestershire</w>
Mal ho
bowl er,</w>
har e</w>
Ch ri
Cle ary</w>
He ath,</w>
Zak ir</w>
ha ib</w>
Z u
B han
Bai g,</w>
KA DA</w>
Nav deep</w>
Over dij
Pra j
Shahr ukh</w>
ev ent
un a
urin der</w>
y n
Ja ars
Jaars vel
ship .</w>
201 0</w>
M HW</w>
Ma j
Stob o</w>
ain es</w>
gam e,</w>
res pe
Hi der</w>
K and
18 6
Far hat,</w>
Kan son
Kanson kh
Kl ok
Pan cha
Sa les,</w>
Senevi rat
ri e,</w>
Afric a,</w>
Bl ampi
Hod ge</w>
S MA</w>
awa y</w>
c ham
D ool
Dee p</w>
Gil kes,</w>
Kitch en,</w>
O ng
Vai d
cl ub
Colly more</w>
Nicol ,</w>
V u
Weerakkod y</w>
di ffer
le .</w>
to ur,</w>
Bos is
Dou gl
F ri
t z,</w>
Ma tom
202 1</w>
Megh na</w>
Mun ir</w>
fe at
E le
I ra
Levero ck</w>
M ank
Me iy
Meiy app
Sh er
Wa fiq
to p
Ab el</w>
Di vision</w>
Kap ali</w>
Lu ff,</w>
Rehm an,</w>
cha el,</w>
end ing</w>
v en,</w>
Coetz ee,</w>
K a</w>
Ky cia</w>
Nor th,</w>
replac ed</w>
Bra r</w>
Chandra mo
Dee p
Ham mond</w>
Hatzogl ou</w>
N AJ</w>
N ational</w>
Wat t,</w>
hang </w>
I dre
Schol field,</w>
Vi rat</w>
l oo
Baz ley</w>
Odoy o</w>
Qad ir</w>
ag han,</w>
becom e</w>
Chap man</w>
Gar th,</w>
K DA</w>
Kervez ee,</w>
a t.</w>
cham pi
par tic
z e
Ak hi
H aines</w>
Harv ey,</w>
Hur st,</w>
J PA</w>
L ara,</w>
M ood
Thamp i</w>
e dt</w>
Pi edt</w>
l o</w>
wa ll,</w>
Awek o</w>
B CA</w>
D lam
U W
Wa heed,</w>
ad di
com e</w>
du ced</w>
fam ily</w>
tim e.</w>
Kim ote</w>
Mang al</w>
Mu cha
Scriven s,</w>
am s</w>
c al
t arg
Cricke t
Faroo q</w>
I g
Isma il,</w>
Karth ik</w>
Mo hit</w>
deli very</w>
6 /
At har
Athar va</w>
Charles worth</w>
Clark son</w>
Marang e</w>
Sipam la</w>
Su h
ra wa
man ag
repres ent
Hazeld ine</w>
Jam sh
Willi am</w>
hel p</w>
th ur</w>
um be</w>
vel y</w>
Gar rett</w>
McC one</w>
Pakist ani</w>
Que ens
as im</w>
leg e
lege d
u t</w>
z ada</w>
Bar s
M BCA</w>
Mans ale</w>
Rae es</w>
UW MBCA</w>
We leged
se mi
v ent
e en,</w>
Am een,</w>
1 ,
Buttl er</w>
Di pp
Kam i,</w>
Phehlukway o,</w>
Raj ,</w>
Ran asinghe</w>
am ong</w>
ee ded</w>
Bir d,</w>
Q ayy
Z hang</w>
cti ve</w>
in au
3 3.
Ay ub</w>
Boul t,</w>
But ler,</w>
Patt inson,</w>
Wal ker,</w>
defe at</w>
ffic ul
h t
play s</w>
- run</w>
Fer ra
Gri m
a ard,</w>
g ham</w>
Ber n
Fos ter</w>
M AA</w>
Pot giet
b ay
di fficul
g up
jee w
San jeew
l ong</w>
ump ired</w>
Datt ani</w>
He az
Heaz le
Shilling ford</w>
Subra yen</w>
Tari q,</w>
b ird</w>
ei ther</w>
inau gu
Burn ham,</w>
Mil nes,</w>
W an</w>
sele ction</w>
Pri m
T aka
Taka ha
Tam oor</w>
Gau r</w>
Ma thi
P as
Sun z
Sunz am
Sunzam ul</w>
de vel
er n
e th</w>
Cl ub
Dil hari</w>
J CT</w>
Rain bird</w>
k i</w>
li mited</w>
o ra
19 .
Aldri dge,</w>
Am na</w>
Anj um</w>
Lal or</w>
Mack ay</w>
Mad us
Pat il,</w>
Ti wari</w>
hi b
on a</w>
Asi a</w>
Gi les</w>
Kim ber</w>
Len no
Meh ran</w>
Tal uk
year s.</w>
Aun g</w>
Bip ul</w>
J OA</w>
R ony</w>
Randi v</w>
Ren shaw</w>
Wais wa</w>
st and</w>
Cou ch</w>
Hi gham</w>
Krug er</w>
Murta gh,</w>
Om ar,</w>
Run se
Sulai mon</w>
y aman</w>
Ar yaman</w>
An am</w>
Hind s,</w>
Mark ande</w>
Sa mad</w>
Zi mon
li m</w>
re fer
Mu j
a il
c t
Bishno i,</w>
Len ham</w>
Naz ir</w>
Sain i,</w>
ura l</w>
Az ad,</w>
Banglad esh
Burg er,</w>
H N</w>
Vinc ent,</w>
dismiss als</w>
im pres
p ut
K ev
Ne hon
O'Reill y</w>
Ro el
shi p,</w>
Bat ty,</w>
Bi ch
McMull en,</w>
Rau t,</w>
Roel of
Sch ool</w>
Var e,</w>
eer at</w>
li c</w>
0 8</w>
D re
I I</w>
de ci
f e,</w>
stand ing</w>
Eli as</w>
Sand hu,</w>
Shams ur</w>
W AR</w>
com ing</w>
i an</w>
I zz
d a,</w>
ji da</w>
o di
ros s</w>
A c
c a</w>
seas ons</w>
Aravin d</w>
H .</w>
Mar um
Mun d
Ne il-
S aran
Shaik h,</w>
le ad</w>
ur k
Chi lia</w>
Pay ne,</w>
ast est</w>
j am</w>
Abo ag
David son</w>
Huddles ton</w>
Nort hamp
Per ri
Snat er,</w>
der s</w>
ent le
sch ool</w>
Cheat le</w>
Gur k
st y
Mary am</w>
u ra</w>
z g
Ga le,</w>
Humphrey s</w>
Kanc hana</w>
Man j
Sh res
Su z
V ak
ball .</w>
il i</w>
ini ti
ull en,</w>
1 6.
Am ar</w>
Binn y,</w>
Clark son,</w>
D y
l an,</w>
Gar ton,</w>
S CG</w>
Threlk eld,</w>
ou t,</w>
Fin n,</w>
Gurk eerat</w>
Har ry</w>
Kha n
Lev it
Li ver
Mug eri
Tal at,</w>
Heman tha</w>
Manis ankar</w>
Mbab azi</w>
Mu ras
Muras ingh
Na hid</w>
Nassor o</w>
No or,</w>
Ok pe,</w>
Se kh
Shank ar</w>
2 2.
An ur
Arachchi ge</w>
Mugeri -
Play er</w>
Ro h
Sekh uk
Sekhuk hun
W ard
g roup</w>
ti ci
A ng
Ab id</w>
Anur eet</w>
Copel and</w>
E JB</w>
Hab ibul</w>
M cke
N ation,</w>
Y M</w>
li ff
Mur shi
Murshi da</w>
Ne ther
Rush worth,</w>
Sis odi
Tanve er,</w>
k he
201 4</w>
Sa qib</w>
Waugh </w>
hit ting</w>
rish nan,</w>
201 6</w>
C ullen,</w>
Con te
Sh er</w>
right- arm</w>
10 2</w>
Dan iel</w>
Gha zan
Ira ko
Para s
Seri es</w>
Shuk la,</w>
suffer ed</w>
0 9</w>
Agar wal</w>
E di
Indi es.</w>
Madh ever
Madhever e,</w>
Rob i
X M</w>
Cra ne,</w>
Kev in</w>
Ndlov u</w>
Robi ul</w>
Zor zi,</w>
Chibhab ha</w>
Fox croft</w>
Hel m,</w>
MacBe th</w>
Muthusam y</w>
Sutthiru ang,</w>
Warwick shire</w>
k i,</w>
Akayez u</w>
Ov al</w>
Pre ez</w>
Ra q
Venug opal</w>
event u
Abey ra
Abeyra th
Co x</w>
Di vi
F ou
For de</w>
Loftie-Ea ton</w>
M om
Mc Le
Raq ibul</w>
man aged</w>
David s,</w>
Mukas a,</w>
Pakistan 's</w>
Sakari ya</w>
Sto ne,</w>
Zai di,</w>
v i,</w>
A ins
li e</w>
J u
Ebra him</w>
Mary le
b one</w>
Nether land
Shak e
se e</w>
Shake el,</w>
Vi hari,</w>
victo ry.</w>
year s,</w>
Ban una
H ank
He ad
M eri
Scriven s</w>
W rai
foot ball</w>
mon th
re leas
A CR</w>
Chan d,</w>
K NM</w>
Karan bir</w>
Rak ibul</w>
S t</w>
Sal am
Salam khe
Under -19</w>
an ce</w>
inaugu ral</w>
Karn ew
Omar zai</w>
ab and
bor n,</w>
Fre e
cur r
h er
Ma b
uk a,</w>
th ose</w>
200 8</w>
Bryan t,</w>
Cha n,</w>
Ham id</w>
K ain
Was heem</w>
2 4.
Del awar</w>
Hari s,</w>
He k
Kan war</w>
Khawa ja</w>
P Z</w>
Sa hib
Tes t.</w>
Y a</w>
shire 's</w>
C li
D udd
G EB</w>
Hallid ay,</w>
Kno tt,</w>
Lalchet a</w>
Mus lim</w>
Sa x
W ang</w>
i ao</w>
Mag ar,</w>
Pe i
Tu y
Y anag
b ury</w>
cent ury.</w>
Bo je</w>
G opal</w>
Gur uge</w>
Mac le
Maryle bone</w>
Ras ang
Sha yan</w>
Wang ch
wa ll
Bhurt el</w>
Dorig a,</w>
Jim my</w>
Lei cestershire</w>
Mas ood</w>
Rabb i</w>
Sy a
an shi,</w>
ap ash</w>
T apash</w>
id ent</w>
H MD</w>
K ush
Mun aweera,</w>
Par th</w>
Tuff ey</w>
ib ,</w>
M NK</w>
Ma pha
Mu hum
Muhum u
Um ran</w>
201 2</w>
A ma
Shi eld</w>
Yard y</w>
2 5.
Goodw in,</w>
M et
Na ir</w>
0 6</w>
Brad shaw</w>
Harm ison,</w>
Rudolp h</w>
Stre ak</w>
spe ci
Bol ton</w>
Free born,</w>
Lehm ann</w>
Priy ada</w>
V l
Y H</w>
app ro
le nk
Bor ren</w>
Dwarshu is,</w>
G ali
Ik uz
Loftie-Ea ton,</w>
Samp ath</w>
Thak er,</w>
haul s</w>
0 7</w>
B ib
F et
Indi es,</w>
Mano j</w>
Niel sen</w>
Qu alifi
R ang
Schol field</w>
Zain-ul- Hassan</w>
awa </w>
f il
C WJ</w>
Co h
Ma is
Murdo ch,</w>
Na th,</w>
Sou th
Su har
Suhar ril</w>
V y
e di,</w>
p ur
Dhar m
Fre eman</w>
G and
Izz ati</w>
Ma hirah</w>
Tewati a,</w>
educ ated</w>
recor ded</w>
t urn
1 7.
Broo k</w>
Grobb elaar</w>
Im ma
K NA</w>
Nichol as</w>
P esch
al s.</w>
arachchi </w>
K ur
e k,</w>
ex peri
Hasee b</w>
Inzama m-ul-Haq,</w>
Lang ston</w>
Rober t
Sa mad,</w>
U de
f astest</w>
us e</w>
re f
Bal asoori
Chandramo han,</w>
Do ran,</w>
Li bby</w>
M PM</w>
Mahmu d,</w>
Pat wa,</w>
Stone house</w>
U DU</w>
Wijes inghe</w>
Zeal and.</w>
oun d</w>
2 1.
B NJ</w>
Kyew uta</w>
Lock ros
S l
Sincl air</w>
Soren sen</w>
b son,</w>
m ark
m y,</w>
tic s</w>
Dar shan</w>
Groenewa ld,</w>
Jar vis,</w>
Ngoch e,</w>
Whit ting
c an
st af
A hir,</w>
Hot chand
Ma p
S SM</w>
Wafiq </w>
A pp
Atapatt u,</w>
Mut re
R WT</w>
att emp
g ni
i el,</w>
wor ked</w>
Boy c
Gubb ins</w>
Sa han</w>
v es,</w>
D uk
Eng el
GA KK</w>
Ga jn
Gajn ab
I sha
Kale em,</w>
Kum b
P R
Sahib zada</w>
She ffield</w>
W GAKK</w>
Ar thur</w>
Bimenyi mana,</w>
Bl ake</w>
Bur ke</w>
G entle
Lank a,</w>
Sp ring
Thor pe</w>
es azi,</w>
S esazi,</w>
ht ar</w>
j un</w>
Muk htar</w>
Per kins,</w>
Sam son</w>
2 3.
Engel bre
Engelbre ch
Kan e</w>
Nid aman
Pushpakuma ra</w>
Salamkhe il</w>
Thil akaratne</w>
Wood cock</w>
ard en,</w>
h ru
st er</w>
200 3</w>
Aj mal,</w>
Bad rin
G RD</w>
Li m
l ow</w>
RM VD</w>
Ras el</w>
Wor ker</w>
Bak i
Baki we
Bakiwe ye
Call um</w>
De arden,</w>
Mura d</w>
Scri ven,</w>
Dunk ley</w>
Hart shor
vast ava</w>
1 /
Ba ch
c han</w>
Cair es,</w>
D ent</w>
F al
Her ath,</w>
Lee ch</w>
Muk k
Mukk ama
Mukkama ll
competi tion</w>
wa y,</w>
Asal anka</w>
D O</w>
Gau chan</w>
He ma
His ham</w>
Lak mal,</w>
Ran ji</w>
ish ing</w>
G q
G ul,</w>
Jag ade
Ploo y</w>
Raj at</w>
Doh en
Jas preet</w>
Northamp ton
Say ers</w>
V M</w>
bre ak
reg arded</w>
s eni
u d,</w>
w oy
Be ams</w>
Chop ra</w>
Shehz ad</w>
Wal all
a wi
Walall awi
Warri can</w>
bre ak</w>
um ar,</w>
wicket-kee per.</w>
Ade de
Ade el</w>
Ar jun</w>
Hatch ett</w>
Hema lat
K azi</w>
Lord '
Ng eg
b a,</w>
Woerk om</w>
c or
en j
re qui
( 200
* </w>
( 3
Co leman</w>
D us
Mo on
Moon ey,</w>
E .</w>
Kas pro
Liyan ag
Molineu x,</w>
Roelof sen,</w>
Schmuli an,</w>
Shaf eeq</w>
Varai ya</w>
medi um</w>
to sh,</w>
Am la</w>
B ush
Has him</w>
L ark
Mil ne,</w>
b eli
le sh</w>
K uk
h el</w>
Kir ton,</w>
Ky sh
Kysh ona</w>
Papp s,</w>
S .</w>
Um ar,</w>
Web b,</w>
fin a</w>
oo k
s i</w>
Duk e,</w>
Middlebroo k</w>
Niyom ug
Niyomug ab
Tredw ell,</w>
w ary</w>
Amin ata</w>
Ari tra</w>
Colle ge,</w>
Coo ke</w>
Gau t
Gow tham</w>
Gunasek era,</w>
W ind
k al</w>
Bha t
secon d-
201 7</w>
Alley ne,</w>
Bhavs ar,</w>
Jos hi,</w>
Lak ov
McC aug
Nav ai
Pu ja</w>
Ramp aul,</w>
Rav al</w>
Vin od</w>
an tha,</w>
b el
id en
z u
200 6</w>
H and</w>
L ind
Lu q
Mans ale,</w>
gre at</w>
oo b</w>
202 3,</w>
Chaw la,</w>
Sh ri
Siddiqu i,</w>
Vin od,</w>
W an
Wood cock,</w>
b ut
ti e</w>
Mo tie</w>
( ODI
B ara
Duraising am,</w>
Fras er,</w>
Mar oof</w>
McCl ure,</w>
Shor na</w>
Ut kar
Wa chi
us en
D as
w ani</w>
H ir
Har sh</w>
Sa les</w>
Sya hadat</w>
Utkar sh</w>
im pro
ver s
Ch ud
Chud as
Mucha ll,</w>
abili ty</w>
ama te
an sh</w>
em in
recei ved</w>
tak er</w>
201 3</w>
D agar</w>
Fox croft,</w>
J ha,</w>
Kap ali,</w>
Man an</w>
N CR</w>
Pok ana</w>
s ;</w>
sum mer</w>
1 1.
Corn well</w>
G ony</w>
Mac Gill</w>
Tav are,</w>
arat n
2 6.
201 7,</w>
202 3</w>
Abdul kar
F rom</w>
Hop es,</w>
Jam tsh
Van ua,</w>
14 .
Ch od
Chod en,</w>
Georg eson</w>
Luq man</w>
Mwati le,</w>
e qu
go t</w>
how ever,</w>
s )</w>
top -
sk i,</w>
th u</w>
2 /
Anj ar</w>
Carly on,</w>
T adar
Zeal and,</w>
way s</w>
Hamp ton,</w>
Hog an,</w>
Mahar oof,</w>
Mascaren has</w>
Nai k,</w>
Raj in</w>
Wa th</w>
Ware ham,</w>
Wildermu th,</w>
di ck</w>
ma te</w>
Champi ons</w>
Gro und</w>
P WS</w>
Sury aw
fo und</w>
us ha</w>
y 's</w>
A PR</w>
Australi ans</w>
Lati f,</w>
Ray ner,</w>
a c</w>
o i
Aspin wall</w>
Athan aze,</w>
Bank s</w>
Des ai</w>
On to
ib ullah</w>
semi -
ther n</w>
v an,</w>
Men 's</w>
Na o</w>
Nottingham shire</w>
San a,</w>
Th u
Zh u
o wa
s ome
Belbas hi</w>
Cricke ter</w>
Er d
Jaarsvel d,</w>
L av
Nahi dul</w>
boun d
invol ved</w>
Bairsto w</w>
Hab ib</w>
L T</w>
M LD</w>
Ow en,</w>
Ra o,</w>
S MLD</w>
Samara ko
Suchi th</w>
b ank
ma in
t ain</w>
Si b
s us
on i,</w>
te ch
usu ally</w>
0 5</w>
Bir ch</w>
Dravi d</w>
Frank </w>
K g
O ld</w>
Wijes under
cricke ter,</w>
devel op
id a,</w>
M b
x ton,</w>
Cur ti
Dh ing
Gibb s</w>
J agg
J ain</w>
Jami eson,</w>
Kad owa
Sanjeew ani,</w>
Utse ya,</w>
Venkat ara
Wor cestershire</w>
al ist</w>
in i,</w>
2 7.
Fortu in,</w>
IK EG</w>
Marum ani,</w>
Qayy um</w>
in da</w>
k ett</w>
si de,</w>
st ate</w>
u wan
) ;</w>
Ash ok</w>
Car l</w>
Hay nes</w>
Lal hru
Ling en,</w>
Ma ra
McGlas han,</w>
No man</w>
Prin ce</w>
Siriwarden e,</w>
Am andeep</w>
Be a
Ghazan far</w>
Gou d</w>
Kai f,</w>
Pri and
Warri er</w>
centuri es.</w>
D iss
Fra ine,</w>
MacLe od</w>
Mari a</w>
Sekhukhun e</w>
Sieg ers,</w>
ot ed</w>
wro te</w>
Mar tin
k ins</w>
Wat kins</w>
Mo sc
Palladin o,</w>
Z o
com mit
B au</w>
Bar bad
Tewati a</w>
bowl er.</w>
lit tle</w>
o or,</w>
ra p
k s</w>
ser vi
H om</w>
Jamsh ed,</w>
M BA</w>
Mapha ka</w>
Mon i</w>
Sc an
agod a</w>
bur y,</w>
i g
ond a,</w>
Akht ar,</w>
Copp ack</w>
Gurun g</w>
Rav in
Rav u</w>
seni or</w>
y -
l u
202 4,</w>
Nakisuuy i,</w>
P li
Raj esh</w>
Taluk dar,</w>
Tan iy
Weleged ara</w>
es an</w>
se x</w>
Armit age</w>
C omm
Dha kal</w>
Lam pl
McKier nan</w>
Naj ibullah</w>
Pi o
Pio le
Sa the
San jida</w>
offi cial</w>
12 .
200 4</w>
200 5</w>
Gord on,</w>
Mugeri- Tiripano,</w>
c ell
ev ed</w>
1 5.
Cam er
Co ad,</w>
HA PW</w>
Kal ug
Sha fina</w>
ac ross</w>
f as
ough out</w>
twi ce</w>
Coll ins</w>
Muniand y</w>
Ag at
Get k
Getk ate</w>
Jahang ir,</w>
Mos we
N RJ</w>
Ra gh
St ha
Stha le
ak o,</w>
cricke ting</w>
year .</w>
Es sex</w>
Fi az</w>
Hawkins-K ay</w>
Para g</w>
S pri
Su f
bats man.</w>
D K
Edi ris
K im</w>
M NW</w>
Madh ev
Madhev ere</w>
Praj apati,</w>
Spri eg
Z ondo,</w>
por ts</w>
si m
2 8.
C ran
Tau f
draw n</w>
v an
(ODI )</w>
Heazle tt,</w>
Wind s
ing era</w>
R ingera</w>
Meiyapp an</w>
Runse we,</w>
Suh rawa
Suhrawa di</w>
Vesaw kar,</w>
Wainw right</w>
awa z</w>
Ber m
Club .</w>
Gillespi e,</w>
Kaushi k,</w>
Ong ondo</w>
Por ter,</w>
Se bar
em e</w>
Suf yan</w>
Ducke tt</w>
Gq aman
T are,</w>
Vl a
Vla emin
hi r
Ah u
Chowdh ury</w>
Jak ati</w>
Mi lenk
N ain</w>
Shi he
en der</w>
ist ri
2 9.
Be ard,</w>
Croo sp
Croosp ull
For res
J it
Q am
Sar wan</w>
Vog es</w>
Wad h
2 3
6 .0</w>
Afric a's</w>
Fish er,</w>
H ep
Hor ne,</w>
Iq ra</w>
Mc Coll
Skel ton</w>
Sma ll</w>
captain .</w>
10 8</w>
Fai z,</w>
HM CM</w>
Ha les</w>
con di
Ko ck</w>
Manj ural</w>
Moham mad,</w>
Mood y</w>
Nal is
Ravin derp
Ravinderp al</w>
Whi le</w>
Win field,</w>
es '</w>
0 4</w>
2 nd</w>
A AS</w>
targ et</w>
Hari n
Nak rani,</w>
es a</w>
ong side</w>
un ye
7 /
8 .0</w>
Hal d</w>
Motl anka,</w>
Nev ill,</w>
Sisodi ya</w>
Wa heed</w>
Worra ll,</w>
3 1.
Bush n
La ce,</w>
Unn i</w>
V G</w>
W ar</w>
Whitting ham</w>
Y ama
ari ng</w>
l aw</w>
0 3</w>
Ghul am,</w>
Kle in,</w>
Row e,</w>
S mar
Venkat esh</w>
Y aq
sha ng
Coll ins,</w>
Hannon-Dal by,</w>
Roh r
Va gh
Vin u</w>
Wrai th,</w>
ll ah</w>
Hass un</w>
Na jeeb</w>
R uki
Ruki ri
V it
ber g,</w>
L and
c ou
ra g
cl ose</w>
eventu ally</w>
fiel ding</w>
ha i</w>
t 's</w>
vi du
( MCC
Musama li,</w>
Sidebotto m,</w>
Victori a</w>
W C</w>
Az yan</w>
Good man</w>
Pesch el</w>
Pod more,</w>
Sto k
aq u
thre e-
B askaran</w>
Bo order,</w>
Bri an</w>
C oss
Conn or</w>
Datt ani,</w>
Dharnidhar ka</w>
F eld
Jon ker,</w>
Say er</w>
W ade</w>
ce -
ow n
s har
up ,</w>
youn g
B ul
Chee ma,</w>
E I</w>
O st
Rank in,</w>
SI P</w>
St alen
c ul
eer ap
s d
subsequ ently</w>
Ra j</w>
Shah n
bro ther</w>
d )</w>
si ri</w>
Ab id
Chat ur
G ES</w>
Gup ta</w>
H WA</w>
Pakist an,</w>
Shahn awaz</w>
Simmon ds</w>
Sincl air,</w>
Th ere</w>
Va as,</w>
Chri st
P HT</w>
Tes ts.</w>
Zamp a,</w>
Zub air</w>
m ol
Ay y
D is
miss ed</w>
Mon ib</w>
Ost erg
Abey s
Bars by</w>
Kenne dy</w>
Mo i
Mun asinghe</w>
ab a,</w>
comple ted</w>
ep t</w>
inj ured</w>
k n
res pon
Dan iel,</w>
Kam ea</w>
Mus onda,</w>
Pow ar</w>
SA CA</w>
t an</w>
1 -
K C
Tal ha</w>
ck ing</w>
1 st</w>
A wi
Kadowa ki
Kadowaki -
Pi par
Sw ann,</w>
Wais wa,</w>
record s</w>
s is
G urinder</w>
Hallid ay</w>
La hir
Maj um
Nassor o,</w>
Nat s
W A
an ch
10 0.0</w>
3 0.
Ahm er</w>
How ,</w>
Ra him</w>
Se elaar,</w>
Tha ranga</w>
V eerap
Veerap athi
Benkenste in</w>
Dudd ing</w>
Fer ling</w>
Mar k</w>
Mat ch</w>
R al
S er
Sa ha</w>
Tik olo</w>
c le
j az</w>
ok o
po li
2 4
202 0</w>
C anning</w>
Egod age</w>
Glas g
Has him,</w>
Lomr or,</w>
Maha to</w>
McC all
Sha sh
Tauf eeq</w>
ad y</w>
Bas har,</w>
Dam iao</w>
Edw ard</w>
Kaspro wicz</w>
Lenno x</w>
Mari am
Mariam ma</w>
Ras ool</w>
Razz ak,</w>
edi tion</w>
ri p
Afghanist an</w>
Chap ple</w>
Law l
Rij ke,</w>
St af
Win ter</w>
shire )</w>
Hel dre
Heldre i
L ov
Montgomer y</w>
Mup ari
ad ded</w>
Badrin ath,</w>
E bank
E ti
Mukkamall a,</w>
Corn wall,</w>
Far han,</w>
Ud ana,</w>
Wat kin</w>
] </w>
chi l
f ri
0 2</w>
Arachchi ge,</w>
Black well</w>
Carly on</w>
Imti az,</w>
Jav id,</w>
ball s,</w>
en e</w>
t ti
o p</w>
1 .0</w>
10 4</w>
D hani</w>
M .</w>
indi vidu
stump s</w>
8 /
Archi ve</w>
D ol
awa t
Gun n,</w>
Le y
Meri wala</w>
N aq
Ras heed,</w>
Tahu hu,</w>
Uma id</w>
Vas hi
al ongside</w>
j e,</w>
m -
ord ing</w>
tour .</w>
Alex ander</w>
Bich el</w>
Gamb hir</w>
Gay an</w>
I CC
Red mond,</w>
Ru chi
pos si
Chau han</w>
J aqu
Matsikeny eri,</w>
Neg i,</w>
Nipik o,</w>
Tha in</w>
Thi rd</w>
co l</w>
Dab eng
E n
Lak shay</w>
Te ja,</w>
Trescoth i
b g
b r
ter ed</w>
15 0</w>
Aug us
Bamb er,</w>
Bev an,</w>
Bha raj,</w>
Gond aria,</w>
Hawo e</w>
McCaug han,</w>
Queens land</w>
Sib ley</w>
Sim el
Steket ee,</w>
Green wood</w>
I f</w>
Ni col</w>
an s,</w>
estab lished</w>
A n</w>
Bern ard</w>
Bil awa
Bilawa l</w>
Ish ti
Ishti aq</w>
KC ,</w>
Nighting ale,</w>
Q asim</w>
Ruchi tha</w>
Vis hal</w>
d augh
resul t</w>
tic al</w>
0 -
201 6,</w>
Cham bers</w>
K il
M ook
McMill an,</w>
Mook et
S az
Sho hi
Shohi dul</w>
amb o</w>
is en
Adelai de</w>
Chatter j
Hank ins,</w>
Hem ph
Tuy isen
al ag
arn ed</w>
go ing</w>
Dar shi
Der ck
Ig alag
K ey,</w>
L U</w>
Pakistan .</w>
Pan ay
dra w</w>
er al
er ed</w>
es hi
g ave</w>
great est</w>
o vi
Lark in,</w>
Par mar</w>
Play ers</w>
R KS</w>
Shami ma</w>
She th</w>
Te am</w>
Thoma son</w>
W RKS</w>
ar ound</w>
com b
m ing</w>
min is
1 14</w>
An mol
Colle ge</w>
Dool an,</w>
Lyn ch</w>
N I
Sher az</w>
Vlaemin ck</w>
b le
n in
w er</w>
Bohann on</w>
McMill an</w>
Pancha l,</w>
Shahz aib</w>
aw ard</w>
ci l</w>
Co un
m o</w>
oy sa</w>
s ford</w>
t ain
th .</w>
C om
tra ,</w>
Aun g,</w>
Be er,</w>
Gra ng
J umbe</w>
Penning ton,</w>
Schol tz,</w>
Scot land</w>
ac tion</w>
defe ated</w>
Brow ne</w>
Champion ship.</w>
Dick son</w>
Imti az</w>
Mur taza,</w>
Sny man,</w>
Vi tori</w>
K JS</w>
Kuma ri
Kumari ham
Lat a</w>
Ma in</w>
PR CS</w>
Schmuli an</w>
V A</w>
Wes tw
re j
teen -
un able</w>
A RJ</w>
Associ ation</w>
Henness y</w>
Hod d,</w>
Maru fa</w>
Mo han
ara ng
Ra i</w>
V ish
ara j</w>
Vik as</w>
ak i,</w>
o th</w>
spin ner</w>
-ur- Rehman</w>
. .</w>
X I
Bab y,</w>
Bu ck,</w>
Ely sa,</w>
Hai der,</w>
Rububagum ya</w>
amb a</w>
differ ent</w>
man i,</w>
10 3</w>
Asi f,</w>
C AH</w>
G SM</w>
Hartshor n</w>
Kibas u,</w>
Man ley</w>
McDerm ott</w>
Su wan
Th in
igh t</w>
win .</w>
J AD</w>
Moham eed</w>
Perri n,</w>
Ra wal,</w>
S ir</w>
Warn apu
ele ven</w>
n on-
p op
rig in
Bil j
C rem
Carmi chael,</w>
Lank a.</w>
Mak han
McCar ter</w>
Mo lk
Molk en
Molken bo
Mybur gh</w>
Pen na,</w>
Red fer
Wangch uk</w>
ag o</w>
jay a,</w>
Crem er,</w>
K WR</w>
Kha k
L KWR</w>
N LKWR</w>
Pei ris</w>
Sur enk
han ush
D hanush
selecto rs</w>
Billing s</w>
J FA</w>
Mais uri
S KS</w>
Shan z
Shanz een</w>
Su rang
ang a,</w>
run n
tch </w>
Bri s
Dow ri
MA DD</w>
comment ato
h ud
Pra b
ou se,</w>
Ari anna</w>
B B
C .</w>
Bris ban
D' Sou
Dohen y,</w>
Liyanag amage</w>
Prab hud
Rag hav</w>
Sub oth</w>
To ur
h und
s umm
th ing</w>
D ayy
a an</w>
Sa f
Dayy aan</w>
Lu xton,</w>
Nag av
am eer</w>
Z ameer</w>
for ced</w>
han d</w>
hund red</w>
k ept</w>
se k
Cumm ing,</w>
Kul asuriya</w>
Mo pha
Mopha k
Prabhud ess
Sas ik
Se ban
hun dre
le ast</w>
( 195
12 0</w>
Hay ward</w>
Mbab azi,</w>
N ep
Sab er</w>
Stov ell</w>
ot e,</w>
s ons</w>
Ak it
Bakiweye m</w>
Banuna ek</w>
Cl ari
Mathew </w>
You hana,</w>
bor ne,</w>
ir o</w>
po or
Bav an
Bavan aka</w>
Brind le</w>
Sav age</w>
Ti wary</w>
Vak are
ex pe
sl ow</w>
ton -
Di v
Ja mai
Premarat ne</w>
Sa hani,</w>
Shami ,</w>
Tik olo,</w>
Tro phy,</w>
l an</w>
over s.</w>
ran s
wi mana,</w>
13 .
Grew cock</w>
L az
N Y</w>
Nakisuuy i</w>
O' Connor</w>
Say an</w>
m o,</w>
qu al
ry m
stat is
wicke t,</w>
F ara
Henri k
Idre es</w>
Jen sen,</w>
Kansonkh o,</w>
M P
Muniand y,</w>
Nis ar,</w>
ever y</w>
los s</w>
20 0</w>
8 -
Car d
Crai g,</w>
Dal rym
Dow n,</w>
H om,</w>
Heldrei ch</w>
Kod ali</w>
L es
th o
T han
Wel ch,</w>
al most</w>
all i</w>
difficul t</w>
is si
re as
si gned</w>
Az im</w>
Ba isya</w>
Cl o
et e</w>
Gentle men</w>
Shuv o</w>
To urnam
Wak i
Waki m,</w>
Walallawi ta</w>
. ..</w>
B ill</w>
Dipp enaar,</w>
Ja ck,</w>
Levero ck,</w>
Quin n,</w>
Than ik
Thanik ai
Thanikai tha
Witt mann,</w>
c er
partic ularly</w>
thr oughout</w>
uk w
Bl ack</w>
Cho den</w>
Fa ck
Ras u,</w>
b al
mi ddle</w>
w ani,</w>
0 s</w>
Ash ok
Cas tle</w>
Chou dh
Coh en</w>
Jo y,</w>
Madh wal</w>
Mav i</w>
Rodrigu es</w>
cons ist
individu al</w>
k no
m es</w>
x .</w>
re l
Bouch er</w>
Krishnamur thy,</w>
Kuma ra,</w>
Ra hane</w>
op port
ro und</w>
( 18
An and,</w>
Ash f
Dhar mi
Dharmi chan
Hog g,</w>
Hur t</w>
J ani</w>
Li on-
Lion- Cach
d ay,</w>
ve en</w>
Ashf aq</w>
Bai d
Baid wan</w>
Card os
H om
as e</w>
Kon st
Lat er</w>
Mutre ja,</w>
Ndi k
Paude l</w>
Rober t</w>
Th y
a de,</w>
Sar g
ation .</w>
ear li
han ia</w>
jo y</w>
( 196
199 9</w>
Ar ud
Duff in,</w>
Haf ej
Mu jee
Rav ik
Tal at</w>
Trescothi ck</w>
Uwa se,</w>
Weer asinghe,</w>
Weigh ell,</w>
op i
open ed</w>
rug by</w>
w and
Champion ship,</w>
Cosgro ve</w>
DP S</w>
Mand ers,</w>
R ose</w>
Tri ni
ad .</w>
h in
mm er,</w>
s en
50 .0</w>
A te
Fa had</w>
Met cal
Pli mmer,</w>
Shad man</w>
Trini d
V E</w>
ak ul
p s</w>
th ers</w>
Aro ra,</w>
Kain at</w>
P hy
Phi ri</w>
Sha ma
Sri har
T urk
ak o</w>
comple te</w>
ent al</w>
ci d
over n
Akit eng</w>
Au ck
C FK</w>
Kadowaki- Fleming,</w>
May a</w>
Mon i,</w>
Ndlov u,</w>
R PN</w>
S P
Voll ,</w>
Wes thu
Westhu iz
a le
ar d.</w>
10 1</w>
B et
i m,</w>
Was im,</w>
H ak
Bag ab
Cricket Archive</w>
Kamun ya</w>
M ta
Ma il
Mumb ai</w>
Shari z</w>
Shet ty,</w>
Stre et,</w>
Vijay kumar</w>
l and.</w>
B y</w>
Blampi ed</w>
Clay ton,</w>
Cur rie,</w>
F ab
S ank
T HS</w>
Tour s:</w>
av ail
bro ke</w>
sh ould</w>
ud de
3 2.
Chandra gup
Ho ey</w>
L .</w>
Mah esh,</w>
Mosc a,</w>
P anna</w>
Whe al,</w>
c o</w>
e a,</w>
hi ya</w>
10 7</w>
Ari n
Clay don,</w>
G og
H ath
ing ha</w>
Sub as
Madd inson</w>
Mon aghan</w>
Neil- Smith</w>
Pav ely</w>
Sa hel</w>
att ended</w>
in a,</w>
mar g
requi re
ug e,</w>
v in,</w>
Arin ai
Arinai tw
D emp
Feld man</w>
Kerri gan,</w>
M ong
O sin
Sa hir</w>
Wijesunder a</w>
at ely</w>
l er
no ted</w>
ret ained</w>
D au
Dul shan</w>
Liver a,</w>
Shant ry,</w>
Ti wari,</w>
ber g</w>
har raf</w>
t ur
O z
( 192
Anmol preet</w>
At eeq</w>
Co vent
Den n
Dix on</w>
Gar g</w>
Hop kins,</w>
Jad hav</w>
Per vez</w>
Wal dr
Yard y,</w>
ri sh</w>
ton .</w>
vi ce-
Ben n,</w>
Carl is
De ol,</w>
Erd ene
Gra ves</w>
Mus hang
Sab ir</w>
Zub ai
Zubai di</w>
Zul k
Zulk if
entra l</w>
et e,</w>
ford shire</w>
win der</w>
Bon ner,</w>
Dub ey</w>
Gro ves</w>
J WM</w>
Su raj</w>
Subas ingha</w>
a -
bat ,</w>
2 5
7 .0</w>
200 9,</w>
Cor teen-
Dierg aardt</w>
Gav ask
Pri or</w>
Priyan k</w>
Siriward ana,</w>
b ack
Afz al,</w>
I DM</w>
L ubb
Mujee b
Nanayakk ara</w>
Ndik ub
S ran</w>
T ul</w>
Witt mann</w>
Y ar</w>
hat-tri ck</w>
i yan</w>
ma j
rais ed</w>
se ven
Dlam ini</w>
G ull
Heman and
Lat ham</w>
Laz ar
Mos harraf</w>
Nau shad</w>
Wijer atne,</w>
Y ear
centuri es,</w>
Aboag ye</w>
Hi ra</w>
Malho tra,</w>
McC ann,</w>
P rest</w>
Pe der
Peter sen</w>
Sat y
Winds or,</w>
coll e
groun ds</w>
ve er</w>
A win
Ab in
Cl ub,</w>
In dra
M omm
Mo se
Mor ton,</w>
Nidaman uru,</w>
Richar d</w>
S ports</w>
Tick ner,</w>
Wa ji</w>
Zimon jic</w>
leag ue</w>
rema ining</w>
up ath
0 1</w>
Cowdre y,</w>
Pra t
on kar,</w>
sp ent</w>
young est</w>
201 5,</w>
Dur ham</w>
Get kat
Getkat e,</w>
Pras hant</w>
Z ang
ag a</w>
f ell</w>
in creas
man 's</w>
s y
tw o-
wor k</w>
( 190
3 -
Dil hari,</w>
Halamb age</w>
Hy at
Jayathil ake</w>
K it
Nit sch
Pu ri</w>
Saty a
Se th</w>
Si pp
le vel
Chanderp aul</w>
Curti s,</w>
Karnew ar</w>
Sa th
Sam i
Satya jeet</w>
Sh ut
Up ad
am i,</w>
Ar yan</w>
Ke ene</w>
Kod a</w>
Mur ek
Murek at
Raj ee
Tsh ose</w>
ce s.</w>
decis ion</w>
ha k</w>
ta c
wh om</w>
Belbas hi,</w>
Cha ll
Chudas ama</w>
Lubb e,</w>
Rohr er,</w>
S JC</w>
Z B</w>
b ar,</w>
ch os
ex t
he av
sin h
strugg led</w>
ti tle</w>
Benkenste in,</w>
Land heer</w>
Mac Greg
Muk t
Mukt ar</w>
Nor th
Oli ver,</w>
Ren wick,</w>
Sop er,</w>
Sy az
cat ch</w>
umpi ring</w>
Agbomadzi e</w>
Ai man</w>
All an</w>
Chand ana</w>
I jaz</w>
J ard
Lank a's</w>
Mull er,</w>
Qualifi er</w>
Sad a
Zalma i,</w>
bet ter</w>
p air</w>
A q
Akhi lesh</w>
Cachop a</w>
Camp opi
Cha it
Fran ce</w>
Jaf f
McK inn
Nor well,</w>
P ai</w>
en ough</w>
ow ,</w>
sc rip
202 4</w>
Chait anya</w>
Comp ton</w>
Kun war</w>
Mooket si</w>
Ran pu
Sak ura
Sakura no-
Zeal and's</w>
he k</w>
is hek</w>
k ha
ti ll
w esh</w>
Di wesh</w>
Burrow s</w>
Lond on</w>
P PM</w>
Prak ash,</w>
T au,</w>
c row
du ck</w>
fin al.</w>
in h</w>
is e</w>
par e</w>
C NI
CNI M</w>
Ch u,</w>
I ram</w>
Mis hara,</w>
Nkom o,</w>
R ouse,</w>
Rossou w</w>
Stalen berg,</w>
Bha tt</w>
Fin an</w>
May es</w>
Sa har</w>
Shan to</w>
Siriward ana</w>
Um er</w>
W ong,</w>
end ras
endras inh</w>
g ran
p ac
s ay
Bha ti</w>
Boyc ott</w>
E mi
McCl ure</w>
N adi
g ot
Mo k
Mok got
Mokgot l
ol d,</w>
Ains worth</w>
Cari appa</w>
Dharm endrasinh</w>
Nal kand
Nalkand e</w>
Pipar o,</w>
Z M</w>
c es,</w>
d an
deliveri es</w>
peri od</w>
pre v
th li,</w>
Cha thli,</w>
ti onal</w>
Aw ana</w>
Chi sor
Fi eld</w>
K oma
ar u</w>
Paras har</w>
Saz ib</w>
br ought</w>
d on-
e esh</w>
Cricke ters</w>
E P</w>
He bb
Ka mal</w>
L og
Maz vis
Mazvis ha
Shabb ir</w>
Takaha shi</w>
Ty e,</w>
cha </w>
1 10</w>
Bar tra
C MA</w>
O L</w>
Pro vin
Rev a</w>
Sai f
Wickrama sek
a e</w>
a ma,</w>
i e</w>
F an
or gan
tow ards</w>
Fab id</w>
Hep burn</w>
Jit in</w>
Ley don-
Mupari wa</w>
Overdij k</w>
Py rah</w>
minut es</w>
poin t</w>
s ugg
y ing</w>
Bhu iyan</w>
Cham eera,</w>
Gle n</w>
Mas aba,</w>
Qam ar</w>
R ad
au ddin</w>
co aching</w>
deci ded</w>
m en's</w>
off -
s li
Div y
Ill ing
Imma di</w>
Irako ze</w>
Jay as
Mcke on,</w>
Mehm ood,</w>
Ndi ra
Pet ers,</w>
S ever
Te chi</w>
arachchi ,</w>
1 ,000</w>
A ley</w>
Coo ray,</w>
Croospull e,</w>
Dav in,</w>
Macle od,</w>
Nat West</w>
O uma,</w>
Rau f,</w>
Va len
g k
Bish t,</w>
Fit ri</w>
K AR</w>
Mc N
On w
Poo ran</w>
Ran atung
Ru ma,</w>
Tan may</w>
aswa my</w>
y u</w>
Asi m</w>
Dab are,</w>
Fern an
Fernan des</w>
Georg eson,</w>
H GK</w>
Nalis a</w>
Onw uz
Onwuz u
Sha ng
half- century</w>
ll -
k en</w>
off ,</w>
p ow
wi ,</w>
Bea ton</w>
Bhudi a,</w>
Bilj on,</w>
Connoll y,</w>
Laegsg aard,</w>
M ri
Ram don
Rob b
S ong</w>
ap h
l on
le aving</w>
sty le</w>
10 6</w>
Connoll y</w>
D .</w>
G ov
Ny au
P ai,</w>
Stev e</w>
Tom lin
Vakare wa</w>
az ing
b den</w>
Kir st
Kl azing
O'Riord an</w>
Pad ung
Padung ler
Ty son</w>
ara k,</w>
Mu b
Mub arak,</w>
chi ,</w>
sd ale</w>
th em
Am eri
Atha rag
Atharag all
Barn well</w>
Bhan uka,</w>
Bis t,</w>
Ga j
Ham unye
He aly</w>
Murasingh </w>
Nam ib
Senevirat na</w>
Si u</w>
Ston eman</w>
Tomlin son,</w>
Wa hi
Wahi dullah</w>
ab ly</w>
j ,</w>
d wa
th er,</w>
" the</w>
Bod en
Coetz er</w>
Corteen- Coleman</w>
E F</w>
Griffi th</w>
Klok ker,</w>
M ell
ODI s.</w>
San deep,</w>
Vaid ya</w>
fin ishing</w>
l or
left- handed</w>
ot a</w>
out side</w>
st age</w>
(3 ),</w>
2 .0</w>
Ah o</w>
An ir
Chandi mal</w>
Dab are</w>
Har te,</w>
Ho bden</w>
K ara
Pra tik</w>
R up
er t</w>
T raf
cl os
tha nk
201 1,</w>
Ban ner</w>
Coun cil</w>
Gom ez</w>
Lockros e</w>
Maisuri a</w>
McColl um,</w>
Straus s</w>
Wat kins,</w>
ho ur
it ing</w>
v it
z ai
Boden ste
Gou d,</w>
Harin ath,</w>
Mug hal,</w>
Para am,</w>
Rukiri za</w>
Sami ullah</w>
Sen ever
W ank
Y SD</w>
f av
initi ally</w>
3 7.
Abhi raj</w>
Bra ng
D illon</w>
Kaushal ya</w>
Zain-ul- Hassan,</w>
p ing,</w>
p ra
six th</w>
z am</w>
202 5,</w>
Bad oni,</w>
Dog ra,</w>
E ast</w>
Glamor gan</w>
Grim mond</w>
Sal t</w>
Sele mani,</w>
debu t.</w>
ha th,</w>
ub a</w>
(MCC )</w>
An il</w>
D ew
Fit zg
Fitzg eral
Le es</w>
Mack ay,</w>
Mophak edi,</w>
Saif uddin,</w>
Sipp el</w>
Stok ell,</w>
Tong ue,</w>
aw an,</w>
co unties</w>
du wa
gni fic
maj or</w>
ra ck,</w>
scrip tion</w>
so p</w>
tech ni
201 2,</w>
Am jad,</w>
B augh
D im
Gupti ll-
Guptill- Bun
Hek ure</w>
Khak urel,</w>
Kub ra</w>
Mash ud,</w>
Nur se,</w>
Prati ka</w>
Sam eer</w>
Smar tt</w>
W ot
ati g
him .</w>
qui ck
s ee
201 4,</w>
A CF</w>
Dod d
Dodd a
Dodda ball
Doddaball ap
Handscom b</w>
Niss anka</w>
Pathiran a,</w>
SA DU</w>
Sen ara
Senara th
Swep son,</w>
V C</w>
V RV</w>
Vit han
Wellal age,</w>
ak umar</w>
asuri ya,</w>
full y</w>
n ew
oy ed</w>
ti e,</w>
12 6</w>
201 0,</w>
Am eer</w>
Cairn s</w>
K rej
Mose h
Og borne</w>
Sing ye</w>
Yaq oob</w>
fil m</w>
os i
t ap
wicketkee per</w>
Bhara t,</w>
Cran stone,</w>
Deonari ne,</w>
Glen n,</w>
J ub
McSween ey</w>
Miy aji,</w>
Mu ri
al o</w>
Sy ri
bas ed</w>
b us
dou b
er y
for med</w>
low er</w>
sub scription</w>
th od
D LS</w>
Del hi</w>
Hol den</w>
Matauta ava,</w>
Mo v
Surang ika,</w>
Zwill ing,</w>
as i,</w>
champi on
hur t.</w>
youn g</w>
199 6</w>
Abdulkar eem</w>
Dun n,</w>
PA RP</w>
Saman tra
Sandaru wan</w>
Ship ley,</w>
se en</w>
sp inn
C J
Jon at
Ni m
Sh umb
cti vel
ing i
por ted</w>
w ren
1 11</w>
CJ PF</w>
H orn
Whe el
Kad am,</w>
Khali l</w>
Lou wren
requ ired</w>
wa la,</w>
200 6,</w>
( 199
200 0</w>
3 4.
Bab u</w>
Bar ma,</w>
Blignau t,</w>
Igalag amage,</w>
Netherland s</w>
Raj j
Rajj ak
Rajjak uddin</w>
Spring er</w>
Thamotha ram,</w>
V iss
Wal ters</w>
Wickramas inghe,</w>
an and
at e
month s</w>
B ik
Henness y,</w>
J PR</w>
J il
Jagade esan,</w>
Kari k
Kasper ek,</w>
M MS</w>
M MMS</w>
San jaya</w>
Theek s
af fe
c ts</w>
k ari,</w>
require d)</w>
to o</w>
( subscription</w>
Ahu ja,</w>
Bach hav</w>
Barn es,</w>
Behardi en</w>
Com mon
Gqaman e</w>
Hamil ton</w>
Jaqu es,</w>
Mo star
Mostar y,</w>
O'Ne ill,</w>
Sak ande</w>
Sand ri</w>
Theeks hana,</w>
Y a
Zu haib</w>
c amp
g a</w>
im port
ra ther</w>
ra tt
rec alled</w>
shar ed</w>
us ing</w>
wicket- taker</w>
- </w>
0 /
A para
Apara ji
Arud in,</w>
Dougl as</w>
F Y</w>
H aving</w>
Jas wal</w>
Kol c
Kolc un
Mc L
Q an
Qan ita</w>
Vij h</w>
Wickramas inghe</w>
Z ee
Zee fa</w>
atta ck</w>
d 's</w>
Mo l
debu t,</w>
pro g
ti k
10 5</w>
3 5.
3 6.
Bosis to,</w>
D ai</w>
Dowri ch,</w>
Dus ingi
Dusingi zi
E MCD</w>
F lor
Farran t,</w>
Koma s
Kush wa
Mo d
Mri tt
Mritt un
Mrittun joy</w>
Mut umb
T ug
Th ur
Thamotha ram</w>
all ah</w>
all ing</w>
lo cal</w>
ur u</w>
Crocom be,</w>
Jas pal</w>
Matom e</w>
Mi t
Tr ent</w>
pro vi
ras inghe,</w>
Sa ma
to ge
0 th</w>
In am
Mas si
N of
Napi er,</w>
Shah ery
Shahery ar</w>
chos en</w>
e arned</w>
er son,</w>
fin als</w>
i que</w>
in cid
it sa</w>
tch ,</w>
tw el
( 198
2 6
6. 67</w>
200 8,</w>
Er we
Fai z
Fre ck
Mir za,</w>
Naj jam</w>
P un</w>
S ir
Sa hani</w>
Westw ood,</w>
a at
amate ur</w>
ha k
pe ci
201 3,</w>
Ay as
Ayas ha</w>
Be zu
Bezu iden
Bor n</w>
Deonari ne</w>
Edg ar</w>
Fernand es,</w>
Ham za,</w>
Kuk ik
M d</w>
Ravik umar</w>
akul asuriya</w>
ann ai
righ t,</w>
( 193
0 s.</w>
20 .</w>
9 /
Arl ott,</w>
Chandragup tha,</w>
Chatur ong
Chaturong ratt
Coulter- Ni
Coulter-Ni le,</w>
J e
Nor ris,</w>
Osin de</w>
ak rishnan,</w>
f ell
ha th</w>
he er,</w>
liff e</w>
ong a</w>
Craw ley</w>
Hazle wood,</w>
N RP</w>
O bed</w>
Pun j
Se y
Sim ar
Simar jeet</w>
al ways</w>
ber t</w>
C u
end s</w>
ish ka</w>
ther e
Az mi</w>
Bad en
Baden hor
Barn well,</w>
Beaumon t</w>
Bir ken
G ag
Hu zai
J ann
McLe an,</w>
Mukas a</w>
Ravichand ran</w>
Thy ag
all owed</w>
captain c
fif ty</w>
n av
G az
sh ot</w>
As han</w>
Bag ai,</w>
G run
M WT</w>
Mushang we</w>
Nampi ina,</w>
O I</w>
Os borne,</w>
Ras u</w>
Scho or,</w>
Sh eri
Si ow</w>
Srihar sha,</w>
Y u</w>
Z L</w>
contri but
low ,</w>
mar k</w>
u j
und a,</w>
Camb ri
Clari dge,</w>
Cow an,</w>
Dhali wal</w>
Dix it</w>
G b
Gul b
H ER</w>
K P
Le t
Rafi que,</w>
Raz mal</w>
Shi gi
Stan ley</w>
Vu ur
Z awar</w>
b ridge</w>
O u
Ou ter
d han,</w>
Pra dhan,</w>
ex cep
13 8</w>
Dan ia</w>
J OI</w>
Levit t,</w>
Pet ers</w>
Pra tham</w>
Priy adar
Sy u
Top ping,</w>
count ry</w>
en .</w>
n as
p ed</w>
Bar ma</w>
Konst as,</w>
Leag ue,</w>
Manis him
Mu tom
Mutom bod
Pri t
Shut t</w>
South by,</w>
at ullah</w>
cha se</w>
h k
tici p
,0 0
200 2</w>
C al
C aw
Kis e
Kohler-Cad more</w>
Priyadar shana</w>
Ro han,</w>
co ur
B ull
Bull ,</w>
i ck</w>
e ye
v ani</w>
3 8.
H ondo</w>
Lax man</w>
Mol oney</w>
Musama li</w>
Ndikub wimana,</w>
Ne ill</w>
Riz lan,</w>
T uba</w>
n .</w>
oy sa,</w>
staf f</w>
w o</w>
Tai wo</w>
Ad a</w>
Awin o,</w>
Ben au
Dor ji</w>
Hun n</w>
Jas vi</w>
L anning</w>
Ra y</w>
Simel ane</w>
Syaz rul</w>
Thoma son,</w>
Ze pe
du s</w>
m .</w>
r ost</w>
F rost</w>
( 19
2 -
2019 .</w>
B YA</w>
Bib i</w>
Das wani,</w>
Dre w,</w>
Ek ansh</w>
KP NM</w>
R DG</w>
RM RDG</w>
Rand ika,</w>
Rij ke</w>
d :</w>
er e
ef for
ing s.</w>
pen al
run- scorer</w>
sugg es
with in</w>
Adede ji,</w>
Gand hi,</w>
Gra ce</w>
H RA</w>
Jayathil ake,</w>
Lei cester
Rajee van,</w>
Roo sh</w>
S oh
Shak oor</w>
Shar ki,</w>
Su fi
Sufi yan</w>
T im
amb al
N t
k we</w>
t le,</w>
turn ed</w>
13 2</w>
200 1</w>
D istri
RM AM</w>
Tuyisen ge,</w>
Wal sh,</w>
Wor cester
Y V</w>
c er</w>
fa il
g ed</w>
le ng
previ ously</w>
201 8–
Bi g</w>
Can ter
Lok u
Omar y,</w>
Scan tle
Yas h
g et
ul ti
win ter</w>
zz aman</w>
I dr
Kuma ri,</w>
Manz oor,</w>
P ali
Ro ck,</w>
Sai di</w>
Vij ayak
Wak hare</w>
Ab ha
Good all,</w>
Ju lia,</w>
Mc Donald</w>
Mo tie,</w>
Piole t</w>
Prit am</w>
Sam i,</w>
Under -
V V</w>
Vastra kar,</w>
Zulkif le,</w>
ck le
d ist
e hel
mem bers</w>
n ehel
spor ts</w>
t ained</w>
w eek
Ar ua</w>
B MA</w>
Bank s,</w>
Camer on,</w>
Deep ak</w>
Ebank s</w>
Flow er,</w>
Karan n
Kati ch</w>
P ol
Pari s,</w>
Rasang ika,</w>
T on
Yash pal</w>
agod a,</w>
c ing</w>
d ly</w>
er y</w>
i gn
1 19</w>
Doo ley,</w>
Lu cky</w>
Mul ani</w>
Odoy o,</w>
Pall av</w>
Ran asinghe,</w>
S oori
She zi</w>
Soori y
Sooriy aband
Sri n
Tha in,</w>
V uk
Vuk us
Wal id</w>
ee b</w>
et y</w>
tik e
4 2.
Chatter ji,</w>
G RL</w>
Grang er</w>
Kar tike
Kur up,</w>
Mas on</w>
Ram andeep</w>
Robert son</w>
Shad rack</w>
Tri be</w>
de fen
f ron
help ing</w>
ligh t</w>
m et</w>
me ant</w>
min or</w>
200 7,</w>
4 .0</w>
Ab hin
B har
Band aru</w>
Fer bra
Ferbra ch
Kav een</w>
Kumb le,</w>
Maha mal
Ra th</w>
Re za,</w>
Saj jad</w>
Se th,</w>
Vashi sh
Wessel s</w>
al th</w>
cricke t
f ace</w>
p as
Cha har,</w>
Fan yan</w>
Gamanti ka,</w>
Green way,</w>
Hotchand ani</w>
I d
In duwa
Ingli s</w>
Mathi eson</w>
McKinn ey,</w>
Ngo ep
O chi
d omin
jo urn
over se
qu ar
al s,</w>
releas ed</w>
1 12</w>
1 15</w>
F eket
Forres t,</w>
Gaz nav
J urel,</w>
Mat ch
Ros ine</w>
Saj jad,</w>
Te j
ad a,</w>
ch oi
Abha y</w>
Arno ld,</w>
B .</w>
Brind le,</w>
Kav an
Kavan a
Northe ast</w>
Rububagum ya,</w>
ap athiran
o ti,</w>
re e
t em
Cho han,</w>
Lang er,</w>
MacGreg or</w>
Nes tor</w>
Shabb er,</w>
Shihe po</w>
day .</w>
left- arm</w>
mo or
v ,</w>
Ab el,</w>
Ban ton</w>
DK RC</w>
Dharmichan d</w>
Doo ley</w>
Jab ir</w>
Lamich hane,</w>
Let so
Mac Mah
Mac han</w>
Mav uta</w>
Rama moor
S ye
Tou a</w>
at iss
Jay atiss
decl ared</w>
roo </w>
y si
10 9</w>
A I
Car r,</w>
Dev </w>
Ely sa</w>
K et
Nag was
Nagwas wall
Sar war</w>
Sathe esan,</w>
Taniy ama</w>
Thi mi
Var ma</w>
Veerapathi ran</w>
deb ut
respe ctivel
u gh
( 1)</w>
Abeys inghe</w>
Chi v
Gog ev
Kausha l,</w>
Muthusam y,</w>
Nats ya</w>
R ish
Wa gh</w>
im medi
ter m</w>
u ill
An ique</w>
Ar sl
Arsl an</w>
Bar ber</w>
Birken sto
Campbell e</w>
Des ung
Desung no
Gran t</w>
Kaushal ya,</w>
Mc Kerr,</w>
Mu q
Muralitha ran,</w>
Phy o</w>
Py ae</w>
Swanepo el,</w>
Tai de,</w>
Z on
agg res
ak aratne,</w>
contri bu
run al</w>
to r
wicket-kee per,</w>
5 -
Ar ta
Arta wan</w>
Ch ris</w>
Da ley</w>
Dierg aardt,</w>
Fra y,</w>
Hamunye la</w>
Kir sch
b au
Kirsch bau
McIn tosh,</w>
Weather all</w>
be at</w>
ring ton</w>
Co d
Bara th,</w>
Chi pare</w>
Har te</w>
Kam ande</w>
Lu de
McClen aghan,</w>
McIn ern
U llah</w>
bus in
fac ed</w>
ters '</w>
ti y
Ag uill
Ak bar
E JM</w>
G im
Lei e</w>
Priyan jan</w>
Samarako on</w>
Sasik anth</w>
Sen i
aq at</w>
co v
minis tra
An wer</w>
Danan jaya,</w>
Hemalat ha,</w>
Ikuz we</w>
Ke tiy
MP GT</w>
Upad hy
1 18</w>
Aguill ei
Danlad i</w>
E ster
Ester h
Fin nie,</w>
Gar g,</w>
Hi cks</w>
Law es,</w>
M runal</w>
Mor ek
Ramdon i,</w>
Ras heed</w>
Sch ool
Subas his</w>
Vy sha
tle bor
1 13</w>
A ad
Em on,</w>
F enn
M AG</w>
Mag ag
Nab il</w>
Ranj ane</w>
Sa hak</w>
h ow</w>
ni v
over s,</w>
2018– 19</w>
4 1.
Bagab ena</w>
Bhat ti,</w>
Ket tlebor
Komas aru</w>
Muk i
Muki dul</w>
Park es,</w>
Te ja</w>
Wank ha
an .</w>
play er,</w>
wi fe</w>
C el
Dis anayak
Ferrei ra</w>
Jim my,</w>
Karik o</w>
King s</w>
L AC</w>
McKier nan,</w>
Northampton shire</w>
O t
O'Dow d</w>
Ram een</w>
Ru wan
V N</w>
W ri
der .</w>
jo in
n or
o ci
o rigin
offici ated</w>
ri ka</w>
uni versi
I z
L e</w>
Lahir u</w>
Lawl or,</w>
Mad zi
Metcal fe</w>
Rau t</w>
Ross i</w>
Shill ington,</w>
Trumpel mann,</w>
Waq av
Waqav ak
Waqavak ato
captain ing</w>
decis i
te e</w>
B ay
E SP
ESP N
Jer ome</w>
Meh ra
Mehra b</w>
Nt ir
Ntir eng
Pu cov
Re ard
Sale h,</w>
Stob o,</w>
Tau q
Waldr on,</w>
achiev e</w>
coll ap
fell ow</w>
for d-
j ani,</w>
Ram jani,</w>
m en,</w>
o h,</w>
ri ty</w>
st ated</w>
9 .0</w>
Aitchi son,</w>
As g
B ist
Benjam in</w>
Bot ham</w>
K ris
L ara</w>
O'Riord an,</w>
Sebar eme</w>
agg reg
c r
or e,</w>
C r
f ran
g n</w>
is ar</w>
l st</w>
on :</w>
per s
speci alist</w>
um b</w>
Agat hang
Agathang el
Al an</w>
Cli ff</w>
Dh ind
Dha d
Kan an
Meeker en,</w>
Pa ing</w>
Quin ey,</w>
Ranj ane,</w>
Tas hk
b aat
fran chi
n ar
ra b</w>
Bal te
Balte j</w>
Do bson,</w>
Gond aria</w>
Gunasek era</w>
Hy der</w>
M au
Mas aba</w>
Mi rab</w>
Mta e,</w>
P LS</w>
Quin ty
Rad hak
Sal is
Sha hid,</w>
Somervill e,</w>
Sy kes</w>
T ren
T20I )</w>
Val tha
Younghusb and,</w>
ask ed</w>
aver aged</w>
si gnific
w el
com e,</w>
201 8.</w>
Atk ins</w>
Ch el
Col omb
Crow ley,</w>
He en
Heen atig
Mazvisha ya</w>
Mura li</w>
Oni ons,</w>
Weer asinghe</w>
fi t</w>
occasi ons</w>
pi t</w>
sch ool
ver ed</w>
Clo ete,</w>
Jo j
Kartike ya</w>
Krej za</w>
Men g
Nay ar,</w>
Ranpu ra</w>
Re ak
Sas ha</w>
Vagh ela</w>
c ting</w>
camp ai
it sinh
A ll</w>
Agbomadzi e,</w>
Ban croft</w>
Bu le
Ed mon
F .</w>
G ore</w>
Jong we,</w>
Nehon de,</w>
P omer
s b
Pras ad,</w>
co ach
de ath</w>
mi d-
Boy le</w>
Gamanti ka</w>
He aph
Il ok
Nak ul</w>
Nand a</w>
Osterg aard</w>
Wheel er,</w>
b ought</w>
g ay</w>
in -
gh t</w>
r up
ir man</w>
li fe</w>
lis ted</w>
si des</w>
12 2</w>
9 7
Balasoori ya</w>
Bhudi a</w>
Campopi ano,</w>
Ch en</w>
Chat pha
Chatpha is
Conn ers,</w>
Gom ez,</w>
Han si
Hemph rey,</w>
Hir us
Ja hand
Jahand ad</w>
Ko e
Men don
Niyomugab o,</w>
P SU</w>
Rayu du</w>
Ro hid</w>
Salis bury,</w>
p at
ri ck</w>
ck .</w>
tn ey</w>
y ou</w>
12 4</w>
Arm strong</w>
Balbir nie</w>
Ber es
Br ent</w>
Divi ya</w>
Gul bad
Gulbad in</w>
Hebb ar,</w>
Kul um
L al</w>
Nat ub
Natub hai</w>
Pat hania</w>
Pomer sb
Ris ha
Shri vastava</w>
Wachi ra</w>
beli eved</w>
res tri
1 16</w>
1 17</w>
A isya</w>
Al sop</w>
Bas ir</w>
Faiz an</w>
Glou cester
Go tch,</w>
Gov inda</w>
Mir e,</w>
Mo hand
Nagwaswall a</w>
Ral te</w>
Risha bh</w>
Sha m</w>
Sthale kar</w>
T ok
Thap a</w>
W AE</w>
ann ed</w>
c inf
experi en
reti ring</w>
stat us</w>
wor l
A MCD</w>
A mad</w>
A shan,</w>
BB JL</w>
Bas come,</w>
Brang man</w>
Grew cock,</w>
Her mann,</w>
Indi ans</w>
K I</w>
Lim d
Limd awa
Murekat ete</w>
Us eni</w>
Vi f
e as
ha du
i al</w>
in ic
l as
( 197
G am
Gull em</w>
Guptill-Bun ce,</w>
Hagg ett,</w>
Illing worth</w>
K DV</w>
Ov al,</w>
Q ade
Sha ne</w>
Sl aza</w>
Stre ak,</w>
Th ese</w>
Thap a,</w>
We ther
di rec
fi c</w>
n ear</w>
overse as</w>
prom oted</w>
pub lic</w>
" a</w>
0 s,</w>
Ad hi
Demp sey</w>
K MC</w>
Karan veer</w>
Nam gay</w>
Per iy
T .</w>
A C
Vimuk thi,</w>
n ing</w>
ov er,</w>
An d
Atharagall a</w>
Dra kes,</w>
Driss ell,</w>
Fet ri</w>
Gajnab i,</w>
Kris han</w>
Louwren s,</w>
Mag ai
Mokgotl he</w>
Mor ea,</w>
Mun y
Nk anya</w>
Paranavit ana,</w>
R ong
Rah matullah</w>
Saman y
g a,</w>
ra k
Abid in</w>
Bish oo,</w>
Conte h</w>
D ik
F est
Jal aj</w>
M T
Mad ande,</w>
P AN</w>
N PAN</w>
Sakari n
Sid hant</w>
ayak e,</w>
curr ently</w>
j ud
mo ve</w>
on ed</w>
ra ge,</w>
12 5</w>
3 rd</w>
Bo b</w>
Danlad i,</w>
Fest us</w>
Fo ur
Go ras
Gra ves,</w>
Kalug amage</w>
Kha go
Lin ley</w>
Mar low,</w>
Nand akumar</w>
Priand ana,</w>
Sax ena</w>
Vik ash</w>
Vysha k</w>
ad ministra
aq ue</w>
de f
i gned</w>
m e</w>
stru ck</w>
th -
200 5,</w>
Arno ld</w>
Bip in</w>
Cas till
Ch ing
E ur
Gor vin,</w>
Gra y,</w>
Hem raj,</w>
IK O</w>
L ut
Mand hana</w>
Mis al</w>
Neth ula,</w>
Potgiet er</w>
Ra ik
Rain ey</w>
Ranj itsinh
Robb ins</w>
T ari,</w>
ar j
dwa j</w>
e xtra
ma ri
g ham,</w>
in tro
l on</w>
prog res
ter s.</w>
B us
Bod ha</w>
Bra ak</w>
Bu t</w>
C and
Fal t
Gaut am</w>
Mond al,</w>
O M</w>
Pat erson,</w>
Prati s</w>
Ravichand ran,</w>
Rimm ington,</w>
Su han</w>
Te ar,</w>
Thin ley</w>
Trema in,</w>
Ud ay
bur y-
in ste
12 3</w>
Abhi jeet</w>
Dam od
Damod aran</w>
Is a
Kh uma
l o,</w>
Mov va,</w>
Navai ka</w>
Scantle bury-
Scantlebury- Sear
Shahr ul
Shahrul ni
Shahrulni zam</w>
a fi
b am</w>
ces ter</w>
chang e</w>
d son</w>
dra w.</w>
m ust</w>
A cc
Ade woy
Erwe e,</w>
Me ade,</w>
Sy l
ara jan,</w>
awa ,</w>
five -
mi te
re ady</w>
Cu inic
Hi ri,</w>
Kh eter
L ester</w>
Letso alo</w>
M MJ</w>
MT MMJ</w>
Moseh le,</w>
Park er</w>
Yama mo
Yanag ida,</w>
an y
et te</w>
An n
marg in</w>
pro du
s han
Bar ry</w>
El stone,</w>
Es se
Feket e</w>
Kot te</w>
Kot ze</w>
Lu dick</w>
Map ot
Mapot s
Play ing</w>
Sam ra,</w>
Sha hil</w>
Zon de
ass oci
bowl ing,</w>
is ing</w>
m er
li c
lat ter</w>
sim il
ter ms</w>
Ahma dullah</w>
Aro the</w>
Ballan ce</w>
Con stan
Engelbrech t,</w>
G aze,</w>
Jan j
M GSM</w>
Mc Al
N ayy
P us
to s
R JI</w>
Shigi wal,</w>
Z oysa</w>
j e
ong w
p it
w ard
Agark ar,</w>
Covent ry,</w>
Diss anayake</w>
Dusingizi mana,</w>
Gur deep</w>
Hari </w>
Makhan ya,</w>
Manishim we,</w>
Nayy er</w>
a gh
aratn am,</w>
bat ters</w>
c as</w>
cke y</w>
fiel der</w>
st ro
D NT</w>
D ry
Ediris inghe</w>
Ir era</w>
Muhumu za,</w>
Nyau chi</w>
Pan t</w>
Pe at
Ross ington</w>
Suryaw anshi,</w>
T og
Tha tti
Wankha de,</w>
choi ce</w>
ir c
i t,</w>
ou th</w>
Al ag
Corn ey,</w>
H it
Hi gham,</w>
Lind wall</w>
Lyn n</w>
Musht aque</w>
Nis ha
Sale em</w>
Vi hari</w>
de ter
gener ally</w>
wi mana</w>
Al auddin</w>
Cl a
Dal al,</w>
Dh ur
G wand
Head ing
Huzai fa</w>
Kal aria</w>
Pri ya</w>
Trinid ad</w>
V ay
ha s
hos ted</w>
inj uri
rema ins</w>
Bav uma</w>
Baz ley,</w>
Fack rell</w>
H ain</w>
Hans ra,</w>
Idr us</w>
Kuma rage,</w>
Nafe es</w>
P H</w>
Srin ath</w>
Stadi um,</w>
Tw o</w>
Ward law</w>
eli g
er al</w>
histo ry.</w>
ou shi
K oushi
par ticip
Ar pit</w>
Has kett</w>
M C
M SL</w>
Nagav kar</w>
Ngeg ba</w>
Por el</w>
Ranatung a</w>
S poor
Seban ja</w>
Senever atne,</w>
Stadi um</w>
Vas uki</w>
Ver m
bowl ing.</w>
fixt ure</w>
in to
le ni
op pon
re ctor</w>
y ash</w>
Su yash</w>
Dix it,</w>
Lamb a,</w>
Momm sen,</w>
Ochi eng</w>
Poo ran
Ra e,</w>
Sh ree</w>
Verm eu
dd en,</w>
l arg
po ra
An as</w>
Any i
Baugh ,</w>
Bra s
Chi lia,</w>
Co et
Freck ingham</w>
G wan
Gall agh
Hi cks,</w>
L ad,</w>
M a</w>
Mad u
Mah wi
Mank ad</w>
Onto ng
Potgiet er,</w>
Priyan jan,</w>
ann on,</w>
m -ul-Haq</w>
rap alli</w>
un us
Aad il</w>
Bras s
G annon,</w>
Gun awarden
H t
I leni
Ileni a</w>
Lou bs
N on
O ok
Ontong ,</w>
Pooran ak
Th e
o ra</w>
Vij h,</w>
eng p
es peci
re t</w>
reg ularly</w>
ter 's</w>
( 189
3 9.
Amin uddin</w>
Bak h
Col vin</w>
Cricke ters'</w>
F allah</w>
Foul kes,</w>
Gunasek ara</w>
Le op
Mc Gill</w>
Park ,</w>
S oysa,</w>
Sil ver-
Silver- hol
Stan ik
Te le
Vermeu le
b be
l aw
l y.</w>
n um
pres s</w>
13 0</w>
But tle
G aver
Had din</w>
Muq eem</w>
Mura li,</w>
O FM</w>
On e-
Pav lo
Ra ack</w>
S iss
Vi thus
W EL</w>
Y ee,</w>
c is</w>
Fran cis</w>
especi ally</w>
is m</w>
occ ur
ow ter,</w>
S owter,</w>
As m
Asm uss
Ayy appa</w>
Bab ar,</w>
Bas h</w>
Bre vis</w>
Bre w
Car ver</w>
Cari bbe
Faz al,</w>
G DR</w>
J et
Kos ala,</w>
Linto tt,</w>
Lude man,</w>
Pen gk
Pengk um
Pi us,</w>
Ri ver
Sal am</w>
T ur
We to
averag es</w>
ex cell
for ms</w>
for t
n ow</w>
gi ve</w>
hou t,</w>
land 's</w>
li f
represent ative</w>
ri es</w>
v al
u ri</w>
12 8</w>
4 7.
Bezuiden hout,</w>
Cha thu
Dickwell a</w>
Gali em</w>
He arn
M LN</w>
Mand al</w>
Mu thu
Muham med</w>
Muzarab ani,</w>
Nis be
Ram li,</w>
W ool
an s
f requ
h ri
import ant</w>
in o</w>
on 's</w>
ut i</w>
AC I</w>
Chee pu
Cheepu rapalli</w>
Hay den</w>
I rish</w>
Karun anayake,</w>
Koe ch</w>
Mi hi
Mod ani,</w>
Na eem,</w>
O GL</w>
R OC</w>
Rande ll,</w>
Sara w
Saraw ut</w>
Su man</w>
Thu ya</w>
Ur vi
Urvi l</w>
Y unus
Yunus u</w>
an 's</w>
b at.</w>
c a,</w>
d o,</w>
di ka</w>
j ar
l ar
to uri
199 2</w>
4 0.
E se
Ese ig
Gh ous</w>
Glasg ow</w>
Had ley</w>
Jamtsh o</w>
K o</w>
M es
Mun g
P T</w>
Pi y
Porter field</w>
Sol om
Voll </w>
a cker
forma t</w>
mai ya</w>
mis s</w>
s ma
uwan tha</w>
Ac ade
C PPM</w>
Chande l</w>
Chisor o</w>
D ham
For b
Grobb elaar,</w>
Ire land,</w>
Jard ine</w>
K oli</w>
Koushi k</w>
L ub
Magoff in,</w>
McAl ind
Naq ash</w>
Olivi er,</w>
Ronal ds,</w>
bu il
bur g,</w>
competi tion.</w>
creas e</w>
in e
n eeded</w>
over all</w>
shank ar</w>
un ity</w>
Ar t
Bir t,</w>
G azi,</w>
Gavask ar</w>
H on
Hari shankar</w>
Hemanand a</w>
Hyat t,</w>
Jaff er,</w>
Mu bas
Mutumb ami,</w>
S VE</w>
fi ed</w>
groun d.</w>
inter nation
t man</w>
C at
Can ada</w>
Col in</w>
ESPN cri
Faz acker
Lampl ough</w>
Li aqat</w>
Padungler d</w>
Qad ri,</w>
S HT</w>
Sakarin i,</w>
Syu ha
Syuha da</w>
Vis had</w>
W ann
d en
dn 't</w>
ha pp
st ud
Bark at,</w>
Dan iy
G ID</w>
Gle n,</w>
Gre at
H ome</w>
Horn er
Horner o-
Hornero- Gar
Lav ell
Nampi ina</w>
Nicholl s</w>
T enn
Um m-
Umm- e-
Umm-e- H
W in</w>
inclu de</w>
o ther
s -
% </w>
Banglad eshi</w>
Bangladesh 's</w>
Bh og
Bli zz
Cha rani</w>
Crow ley</w>
Fo er
Klaas en</w>
Mank ad,</w>
Moswe u,</w>
Ndira ya,</w>
Ry m
Sak ib,</w>
Sal oma
T har
T od
Thanikaitha san,</w>
Thar upath
Upadhy ay</w>
Vish v
Wann in
ri col
Pet ricol
ting .</w>
14 0</w>
97 8-
Ar g
ro p
Cairn s,</w>
D MK</w>
E bs
Gaznav i,</w>
Goo ch</w>
H SN</w>
E HSN</w>
Kan de
M ire</w>
Mel ton</w>
Mon aghan,</w>
Morek i</w>
Ntireng anya</w>
P .</w>
Sri niv
Tadar us,</w>
ath er,</w>
chan ce</w>
feat ured</w>
h om
jee wa</w>
o to</w>
qu alifi
su cc
t led</w>
w ang
M wang
x ton</w>
Ahmad zai,</w>
Barn ett,</w>
Coo ray</w>
H an</w>
Mer lo</w>
Moor es</w>
Ros s</w>
es e,</w>
he ad
5 5.
An to,</w>
Asi m,</w>
Bl ak
C Z</w>
Far hath,</w>
Lawren son,</w>
McCl into
Sarg ent</w>
So e</w>
Yamamo to-
Yamamoto- Lak
ag n
bi og
no table</w>
12 1</w>
199 7</w>
Ba j
Dabeng wa</w>
K ill
Lit tle,</w>
Nanayakk are</w>
Sheri d
T issi
Vijayak umar</w>
Za heer,</w>
jn r,</w>
occasi ons.</w>
some times</w>
x )</w>
Abin ash</w>
Al man
Dhing ra,</w>
Gan esan</w>
K aver
Pucov ski,</w>
Seifer t</w>
T o</w>
Vik tori
Viktori a</w>
WA CP</w>
Wij el
fin al,</w>
i c,</w>
ru led</w>
th us</w>
20 ,</w>
5 7.
Bangladesh .</w>
Chan d</w>
Chaturongratt ana</w>
Ferbrach e,</w>
Hearn e,</w>
Hi gh</w>
Lou is</w>
Par sons</w>
Shaik h</w>
Sim s</w>
Tsh uma,</w>
U g
Vand or
cap </w>
co ached</w>
d al</w>
f ill</w>
m es,</w>
spor t</w>
ve .</w>
vis i
( T20I)</w>
B ham
Ch ugh
Coss a</w>
D ud
n ath</w>
F uj
Kha re,</w>
Law son</w>
McL ach
Mp ongw
Pen na</w>
Rong sen</w>
Wat k
in .</w>
be g
Ze er
Zeer ak</w>
an al
ck out</w>
dre w</w>
ong a,</w>
sw ing</w>
vice- captain</w>
Bal akrishnan,</w>
Chiv anga</w>
Di zi
Khiz er</w>
Ki ran</w>
Lakov ,</w>
Ma zi
Man so
Man u
Priyan sh</w>
Riz an</w>
T us
D hi
all-ro under</w>
b an</w>
k un
om ani,</w>
s ent</w>
wa is</w>
200 9.</w>
Abb asi,</w>
Bir rell</w>
Copel and,</w>
Dan yal</w>
Dhar ma
Four th</w>
Ilok u,</w>
J JC</w>
Kaushi k</w>
Meh ta</w>
Mu tu
Muthu i</w>
Oluo ch,</w>
Pen n
Qade er</w>
Ser vi
V uni
Vuni wa
Vuniwa q
Zulfiq ar,</w>
her o</w>
o vic</w>
raj ullah</w>
Si rajullah</w>
" I</w>
201 5.</w>
4 3.
Al ako,</w>
Broo m</w>
Cr one</w>
Dod d,</w>
Fuj ik
Hi ra,</w>
Krishnamur thi,</w>
M gi
Mgi ji
Mur r
ar pal</w>
Am arpal</w>
ra c
us of</w>
Y usof</w>
13 7</w>
202 5</w>
Ar ta</w>
Ben son</w>
Cardos o</w>
Da eye
Dik shan
Dikshan shu</w>
Hilfenha us,</w>
Hin ch
Jos h
M pe
Man ack</w>
Matsikeny eri</w>
McE wan,</w>
Mujeeb -ur-Rehman</w>
Ngoep e,</w>
Peat field</w>
R SM</w>
Solank i</w>
Suz uki</w>
Sw art,</w>
Wi ck
fron t</w>
i ram</w>
D han
li '
Li li'
qual if
s ad</w>
ul i</w>
X i
a o
Ara a</w>
Bhara thi</w>
Chatterj ee,</w>
Dau d</w>
Dhan iram</w>
Disanayak a</w>
K .</w>
Mi dh
Molkenbo er,</w>
Ri cky</w>
Sol man</w>
Zonde ki</w>
af f
inj ury.</w>
m illi
tra n
em pl
14 4</w>
2 8
Bi chard</w>
Col son,</w>
G er
har d</w>
Gabri el,</w>
J og
Jayatiss a</w>
Khuma lo</w>
Meng ting</w>
Mung roo</w>
Nehon de</w>
Nit esh</w>
Sw art</w>
U shang
Vill ani</w>
Weather ley</w>
ch é
effe ctive</w>
fam ous</w>
occasi onal</w>
return ing</w>
A RS</w>
Bis la,</w>
Brass ell</w>
Ch enn
Co pe</w>
Fou ché
Josh ua</w>
Jub air</w>
Martin ez</w>
Mon u</w>
Nat al
Puj ara</w>
Pun eet</w>
Warn e,</w>
ang u
bi z
son s,</w>
u al</w>
u chi
z ad</w>
12 7</w>
Alber t</w>
Bum rah,</w>
Bushn ell</w>
Ele esa</w>
G amage,</w>
Har ding</w>
Heaph y,</w>
Lang i
Langi at
Men aria,</w>
Ni hadu
Nor thern</w>
Ny umb
Nyumb u</w>
Para am</w>
Ram din</w>
Reard on,</w>
Se aly,</w>
Si bs
Sibs ankar</w>
Stubb s</w>
Su ji</w>
b u</w>
captain s</w>
ent 's</w>
ul ina</w>
P ulina</w>
17 4</w>
Azhar ullah,</w>
C AE</w>
Din usha</w>
Kettlebor ough,</w>
Mand al,</w>
Middlebroo k,</w>
Mond al</w>
N ar
O MR</w>
Premarat ne,</w>
S RH</w>
Shah ree
Shahree enn
Shahreeenn awa
Surenk umar</w>
Will is</w>
c in
fiel d.</w>
h el,</w>
h et
play er.</w>
ru les</w>
tic ,</w>
wa sa</w>
Si g
4 4.
A AA</w>
A ch
Abey wickra
Auck land</w>
Bang al
Dhanush ka</w>
E x
H im
Hay es</w>
Hin ze</w>
Jak iel</w>
Lal hm
M KS</w>
Mohand as</w>
Ntin i,</w>
S MKS</w>
Samp ath,</w>
Sin ce</w>
affe cted</w>
en i,</w>
re lat
rem ark
vast ava,</w>
y al,</w>
199 8</w>
Flem ing</w>
G roo
Kal im
Kalim u
Lat in,</w>
MacBe th,</w>
Nit in</w>
O b
On ik
Onik oy
Sakurano- Thomas</w>
Shres h
bro ken</w>
ha w
play .</w>
r ow</w>
whi lst</w>
Ab ishek</w>
Berm ingham</w>
Burrow s,</w>
D'Sou za,</w>
Gwand u</w>
Jo ra,</w>
Marang e,</w>
Mo dis
Naz im
Pain e</w>
Se con
Warnapu ra,</w>
Zo haib</w>
gam es.</w>
m oun
or thod
orthod o
pl y</w>
touri st
15 6</w>
198 3</w>
Ak ram,</w>
Asmuss en</w>
Gan esan,</w>
H ay</w>
H ong</w>
Hans ra</w>
Li u</w>
McC ann</w>
McPe ake,</w>
Mon ir</w>
Sing ye,</w>
Th ew
addi tion</w>
spor t
li k
ta i</w>
us ion</w>
201 7.</w>
Bouchi er</w>
Chin tan</w>
D awat
K VA</w>
Maru f,</w>
Sal on
U l
Haq </w>
Haq ,</w>
Vithus han</w>
career -
enti al</w>
ta len
w he
el s</w>
Dan i
Dani els</w>
Bhu i,</w>
Conte h,</w>
E ri
E rika</w>
Heyli g
Heylig er,</w>
I P
Kal up
Ke en</w>
Lalhru ai</w>
Manso or</w>
Misbah -ul-Haq</w>
N tom
Ntom biz
Pomersb ach,</w>
Pra deep,</w>
U ddin</w>
Vive k
b es
comb ined</w>
perfor med</w>
pp er</w>
pu ri</w>
pu t,</w>
wa d
z war
r en,</w>
Bor ren,</w>
Abd ul-
Do ran</w>
Gag andeep</w>
Him mat</w>
Kalup a
Kay ondo,</w>
Lord' s,</w>
M SN</w>
Matthew </w>
Mir puri</w>
Sever in,</w>
Si raj,</w>
Venkat esh,</w>
Y ud
v ir</w>
Yud h
Yudh vir</w>
avail able</w>
ay az</w>
F ayaz</w>
c ally</w>
c z
low est</w>
o ana</w>
ol a,</w>
play ers.</w>
possi ble</w>
so le,</w>
vi ew</w>
200 4,</w>
5 2.
Am eel</w>
Ba al
Deep raj</w>
Eur op
Gill ette</w>
Halamb age,</w>
Hem p,</w>
Kal is</w>
Ken e
Mau roo
Mi ckle
Ri tik</w>
Shaf ee
Shafiq ul</w>
Stov ell,</w>
Tog uchi
Toguchi -
XI .</w>
ang o</w>
d raf
k ant</w>
o .</w>
St u
re li
sh ed</w>
team s.</w>
Abdul- Shakoor</w>
Ay ush</w>
Bist a,</w>
Du ck
G umb
i e,</w>
Magag ula</w>
Matom e,</w>
McInern ey,</w>
Mor e</w>
Nir mal,</w>
Panes ar,</w>
Rish wan,</w>
Sur ve,</w>
T ayy
Thew mi
Wijel ath</w>
ara n,</w>
him ze
Ra himze
li mite
twel ve</w>
2 7
Aguillei ra,</w>
Alag aratnam,</w>
Arm str
Carlis le</w>
Hetm yer</w>
Mond l
Raj put,</w>
Rawa t</w>
S zwar
Seni tha</w>
Szwar cz
Szwarcz yn
Tayy ab</w>
Vil as</w>
W ik
an s.</w>
cinf o</w>
em ber
p ol
sec ure</w>
y en,</w>
4 8.
Al ina</w>
An eesh</w>
Av ishka</w>
Awi ah,</w>
Bosis to</w>
Edg bas
Eskin azi</w>
Hy der
Hyder ab
Jet ly</w>
Kan e,</w>
M PP</w>
Mut as
Nadi got
Nor gro
Ol der
Sa h,</w>
Tripath i</w>
an shi</w>
ara g
at es</w>
dg es</w>
fiel ders</w>
i da</w>
ir u</w>
it ara
Nik itara
it z,</w>
out s
vi ew
y n</w>
5 3.
D ang
Dav ison</w>
Foak es</w>
Henrik sen</w>
Kar l
Kise to</w>
Mari tz</w>
Mb of
McK e
McKe ch
Mickle bur
Middle ton</w>
N MS</w>
Niy it
Per v
Perv ai
Pi enaar,</w>
Sa hil</w>
Schut t,</w>
Warn akulasuriya</w>
Z on</w>
end or
g overn
half- centuries</w>
i wan</w>
Mal iwan</w>
s ".</w>
ag re
to ld</w>
4 5.
Anj ula</w>
Bon ner</w>
Fin nie</w>
Gaver a</w>
Hum e,</w>
Jay atung
Kibas u</w>
Lalchet a,</w>
M outs
Natal ia</w>
Nav eed,</w>
Nisha anth,</w>
Nsubug a,</w>
Pad ha
Park er,</w>
Q ur
Q wel
Qwel e</w>
Unadk at,</w>
ak ant</w>
Sury akant</w>
con cl
es uma,</w>
K esuma,</w>
how ever</w>
op pos
ou se</w>
partn er
semi- final</w>
so on</w>
A ver
As no
Asno d
B id
a is
Cari ah</w>
Cricke t.</w>
D on</w>
Faz il</w>
Fre eman,</w>
Kit unda,</w>
Lak shit</w>
Pet tman</w>
Prat ap</w>
Rain sford</w>
Ras antha,</w>
Sa fi
Safi ,</w>
Tam ang</w>
Thimi ra</w>
York shire,</w>
char d,</w>
d ha</w>
de va</w>
es han,</w>
es ti
v al</w>
ar ri
hou se,</w>
ik ar</w>
level .</w>
rem ov
seas ons.</w>
sh ot
si gn
sp ell</w>
13 3</w>
Arinaitw e</w>
Barbad os</w>
Dalrym ple</w>
Fre it
H ing
J EG</w>
Kimmin ce,</w>
Li engp
Liengp ras
Milenk o</w>
Nai du</w>
Sha ra
Shrub sole,</w>
Y P</w>
mo der
Abey rat
Bos man,</w>
Daniy al</w>
Davi zi,</w>
Dub ey,</w>
Kol kat
Maha to,</w>
Me ade</w>
Muhumu za</w>
N ation</w>
Tur ki
Vand i
Victori an</w>
Watk in,</w>
Yanag ida</w>
a des</w>
biog ra
ek ar</w>
on- field</w>
os k
pres ident</w>
pro ble
Acc ording</w>
Aj ek
Ambros e</w>
E as
Jais wal</w>
Kl usen
Le ar
N unt
Naz ril</w>
Nunt ara
O'Kee fe,</w>
Rath od</w>
Sha j
T raj
Zub ay
Zubay r</w>
a led</w>
c irc
c ru
ee k</w>
manag er</w>
mon th</w>
n ess</w>
open er</w>
pri or</w>
respectivel y.</w>
ring ton,</w>
set se
tim es.</w>
to z
N toz
Ntoz ak
200 6.</w>
Co burn</w>
Divi ya,</w>
E U</w>
F en
Haw kins,</w>
Hin k
Lin col
MacDonald- Gay,</w>
Men nie,</w>
Midh un</w>
Rang aswamy</w>
Sprieg el,</w>
Uthapp a</w>
Wainw right,</w>
Wang mo,</w>
bur g</w>
chang ed</w>
du cted</w>
ing ha,</w>
mari ly</w>
ow s</w>
seas ons,</w>
under -
Ate ak</w>
Bol and,</w>
Dun bar,</w>
E CB</w>
Edmon dson</w>
G hani,</w>
Haw ke</w>
Haz ell,</w>
Haz rat
Im li
Imli wa
Imliwa ti</w>
J ain,</w>
Ja mal,</w>
Joj o</w>
Kh in</w>
Mac Lar
Maz um
Mohan ty</w>
Nay ar</w>
Nitsch ke</w>
Penn az
Wijes inghe,</w>
cre di
f l
g ained</w>
m t
Le mt
ot en</w>
L oten</w>
s ai
200 7.</w>
Dry sdale</w>
Jang oo,</w>
Jog inder</w>
Kanc han</w>
Ke jar
Kejar uk
Man has,</w>
Mo ko
Otien o,</w>
Raji v</w>
Ti an</w>
ann er,</w>
ent s.</w>
ra in</w>
te d,</w>
w o
wor king</w>
201 0.</w>
Ad am,</w>
B Y</w>
A BY</w>
B ist</w>
D oy
G illi
K azi,</w>
K us
Madzi va</w>
Prim us</w>
S chi
Tu ray,</w>
bod y</w>
catch es.</w>
k at</w>
pers onal</w>
v s</w>
13 4</w>
F ad
Falt um,</w>
Grun dy</w>
Hildre th</w>
Ibra rul</w>
J KC</w>
Kai a,</w>
Lear oy
P athi
R JG</w>
Ram ly,</w>
T se
Vashish t</w>
Web b</w>
curr ent</w>
e esha</w>
forma ts</w>
play ers,</w>
ser ving</w>
sup port</w>
tion s.</w>
usu al</w>
12 9</w>
5 4.
Benau d</w>
D NA</w>
D ug
Davi ds</w>
Hit en</w>
J PH</w>
Kau l,</w>
MacMah on</w>
Mon te
i th</w>
Raji tha,</w>
Schi fer
Stra ker</w>
Z ia</w>
appoin t
do es</w>
lar ge</w>
le s.</w>
represent ing</w>
se .</w>
th ought</w>
wh ose</w>
Fenn ell</w>
For d,</w>
Hamil ton-
I hs
Lyn ch,</w>
M esh
Mart el</w>
Saf i</w>
T emp
Up endra</w>
Vi chan
Vichan ath</w>
Vuur en</w>
Wolv aardt</w>
as c
contribut ed</w>
ra z
toge ther</w>
Ab ug
Ans ell</w>
Araf at,</w>
Bor der</w>
Doy le-
Doyle- Call
Esterh u
Esterhu iz
Ihs anullah</w>
Ill ing</w>
Lakov </w>
Mack in
Nort je,</w>
Ram esh</w>
S en,</w>
Stan is
l au
Stanis lau
Vijay arag
bri dge,</w>
lit ary</w>
match -
o li,</w>
tha t,</w>
wa tch
197 9</w>
6 -
6 2.
Blunde ll</w>
Bodenste in</w>
D ey,</w>
Flow er</w>
Kol cha
Nep al</w>
Peder sen,</w>
Saj ib</w>
Sha shi
Shin de,</w>
Sin ha,</w>
Sund ay,</w>
Westhuiz en</w>
bay as
cau sed</w>
es ;</w>
ha k,</w>
i f,</w>
re ported</w>
reco gn
14 1</w>
201 1.</w>
Asg har</w>
Bark at</w>
Buttle man,</w>
C entral</w>
Choudh ry</w>
Gur rey,</w>
Le eson</w>
Loku arachchi</w>
Mari na</w>
Ni x
O tw
Schalkwy k,</w>
Sh y
Shang ase</w>
Thor pe,</w>
Vaid ya,</w>
Wadh era,</w>
Zak hi
Zakhi l,</w>
earli er</w>
gam es,</w>
loo ked</w>
ly m
on ally</w>
or s</w>
Am b
ran t</w>
vari ous</w>
Aw ard</w>
B ain
Banglad esh,</w>
Coy te,</w>
Gha ll
Hawk ins</w>
Mab hero</w>
McCall an</w>
N ou
Re x</w>
Ri be
S ari
Sav age,</w>
Sin eth</w>
T l
ac cep
contro versi
h e,</w>
mit ted</w>
pra cti
re put
repres ent</w>
sh owed</w>
13 1</w>
Ara b</w>
Dhur uru,</w>
Gha uri,</w>
Gi les,</w>
Go ra
Kuhnem ann,</w>
Kushwa h</w>
L uki
L umb</w>
Log an</w>
Me di
Raj an</w>
a ce.</w>
el t</w>
hav an,</w>
pro duced</w>
qu ad
r .</w>
te d.</w>
u es</w>
w om
whi te
A WJ</w>
Brew er,</w>
Isa ac</w>
Kumariham i,</w>
Lal bi
Lalbi ak
Lalbiak vel
Lavell e,</w>
Lou is,</w>
Men g</w>
Mer lo,</w>
Mo st</w>
Nou man</w>
Sey mo
Subra man
Sumerau er,</w>
Wi gg
replac ement</w>
sec ret
simil ar</w>
wor jit</w>
4 6.
For d</w>
Gb la</w>
J ani,</w>
J uma</w>
Loubs er</w>
Maha jan</w>
Overdij k,</w>
Yamamoto-Lak e,</w>
and a</w>
cha irman</w>
dismiss al</w>
le ave</w>
n y
or y</w>
p o,</w>
Ag ain
Badenhor st</w>
Blizz ard,</w>
Bo bby</w>
Canter bury</w>
Chap ran
Chet an</w>
Jagg i,</w>
Kalimu thu</w>
Kap il</w>
Lalhru ai
Lalhruai z
Men e-E
Mene-E j
Mene-Ej eg
R et
R ini
Re j
Rej aur</w>
Ronal d</w>
S lo
Sar en
Son ali</w>
T SS</w>
Turk men</w>
X u</w>
Zimbabwe an</w>
al -
Foo t
Foot ball</w>
inste ad</w>
m us
pub lished</w>
replac ing</w>
ton 's</w>
33. 33</w>
Ak ank
Al f
Bad ar,</w>
Dam ar
He dges</w>
I DA</w>
Id ambo</w>
K DK</w>
Karvel as,</w>
Ntozak he</w>
Rini tha</w>
Senarath ne</w>
pass ing</w>
th is,</w>
wan ted</w>
( ICC
13 5</w>
5 6.
Ar my</w>
B omb
Bat ting</w>
C ent
Chandra kar,</w>
Co raz
Cus ack,</w>
De wi</w>
Fet ri,</w>
Jal il</w>
Ku y
Ma az</w>
N ara
Ni ran
Niran j
North c
Red mond</w>
She at,</w>
Shres tha,</w>
So le,</w>
Sprieg el</w>
Thur ston,</w>
es ay</w>
S esay</w>
hi t,</w>
lik ely</w>
pitch es</w>
say ing</w>
up on</w>
5 1.
Ar ya,</w>
Azhar udde
Bas hir,</w>
Ben g
Dor ji,</w>
Ek anayake</w>
Hansi ka,</w>
Hur d
I fill</w>
J RM
JRM VB</w>
K AD</w>
Klazing a</w>
Mari lli
Mari u,</w>
Mi hir</w>
Mo han,</w>
Older shaw</w>
Outer bridge</w>
Pooranak aran</w>
R DM</w>
R am</w>
Sidd har
Wri tti
Writti ck</w>
at a,</w>
b ene
expe cted</w>
lym pi
servi ces</w>
201 2.</w>
A rif,</w>
Aver y,</w>
Bish worjit</w>
Bre ese</w>
Dar l
Hafej ee</w>
Kon th
Konth ou
Liyan apathiran
Mu tha
Munee b,</w>
Mutha li
Nanayakk ara,</w>
Pl om</w>
Sama ras
Sandak an,</w>
Suk uma
T it
T omm
al ready</w>
bi g</w>
critic ised</w>
f elt</w>
jo in</w>
ko vic</w>
de l
ri a</w>
so le
14 9</w>
Abeywickra ma
Abeywickrama sing
Abhin ay</w>
Brac ey</w>
C y
Char lie</w>
Cor k</w>
Cou ana</w>
Dhind sa</w>
Dougl as,</w>
Indra siri</w>
J es
Mand h
Mandh yan</w>
Mar low</w>
Mas ter</w>
Mo tho
O lympi
R us
Ra az</w>
Sooriyaband ara,</w>
Tug aga</w>
W hel
ac tive</w>
gro und
kee per</w>
ma o</w>
mon th,</w>
n early</w>
st u
team mate</w>
ut ure</w>
( 4)</w>
201 3.</w>
201 6.</w>
4 -
Ak ach
Akach ukw
Blather wick,</w>
Car der,</w>
Cha ton
Chaton z
Dal z
De yal,</w>
Derck sen</w>
Engelbrech t</w>
Fan ning,</w>
Hauri tz,</w>
I to-
Jas mat</w>
My ers,</w>
O a</w>
Sen anayake,</w>
Shaj u</w>
So bers</w>
Yas ar</w>
Zu i
Zui der
averag ing</w>
inf lu
res um
seven th</w>
13 6</w>
200 3.</w>
A in
a a</w>
Ri y
Bhavs ar</w>
Brisban e</w>
Chande l,</w>
F ro
h n
Fern s,</w>
Ferra ry</w>
G oko
Gi rin
Girin ath</w>
Kanc hana,</w>
Kay es</w>
Kolcun ova</w>
N MP</w>
Nijj ar,</w>
Par fi
Prabod hani,</w>
Suwan de
U S
3 .0</w>
ch ur
er aj</w>
for d.</w>
gi ving</w>
medi a</w>
mi d</w>
ra tn
13 9</w>
AI V</w>
Ben at
Da le,</w>
Don o
Dono van</w>
Hass ett</w>
Mah foo
One- Day</w>
Ov al.</w>
Phe len
Phelen yan
Ram eesha</w>
T BM</w>
Tus har</w>
Wot u</w>
franchi se</w>
hos ts</w>
k een</w>
st ep
t ine</w>
( 194
-ur- Rehman,</w>
19 2</w>
199 5</w>
4 th</w>
A th
Ach el
Ar j
Arj un
Armstr ong,</w>
Be fore</w>
Bhara dwaj</w>
Black wood</w>
Carmi chael</w>
Dy lan</w>
Fi el
Jay al
K ang</w>
Krish nas
Krishnas hri
Ngeg ba,</w>
O ta</w>
Sum an,</w>
Tasman -
Yas hod
Yashod ha</w>
achiev em
career- best</w>
histo ri
ing ly</w>
mi ddle
uk i,</w>
14 2</w>
14 5</w>
Akbar jan</w>
Caribbe an</w>
David son,</w>
Lev i</w>
Ni az,</w>
Par ry,</w>
Raik es,</w>
S KW</w>
S Y</w>
San jeewa</w>
Shy kat</w>
Tadar us</w>
Ude kwe</w>
fin ish</w>
o ple</w>
over .</w>
plac ed</w>
pri marily</w>
relat ed</w>
res igned</w>
( Middlese
16 8</w>
Again st</w>
Agathangel ou,</w>
Ber k
Fro hn
Frohn ma
G ol
di e</w>
Ha ir
Milenk o,</w>
Nisbe t</w>
Od a,</w>
Par veen</w>
Pod osk
Sad arang
Sant han
Wickramasek ara</w>
a cked</w>
contro vers
di p</w>
i t.</w>
oori ya,</w>
pas s</w>
sk ill
un d.</w>
whe ther</w>
Balasoori ya,</w>
F ren
Gajnab i</w>
Gan esh,</w>
Hor ton</w>
I Y</w>
Kenji ge,</w>
Kg er
Kger es
Khago itsa</w>
Ko bayas
Prabhudess ai,</w>
Ram li</w>
Su maiya</w>
T ris
cha ,</w>
ell ing</w>
gi onal</w>
on to</w>
subsequ ent</w>
- up</w>
Fran ce,</w>
Hamil ton,</w>
Hamp shire,</w>
J y
L ili</w>
Mbof ana</w>
Me ck
Meh di</w>
Por el,</w>
Prestwi dge,</w>
Sam ud
Somer set
Sou ra
To bg
Un der</w>
an j
f ather,</w>
n ee
old est</w>
se t,</w>
youn ger</w>
201 7–
Chatphais an,</w>
Fari ha</w>
Ga ja</w>
I D
Ing ab
J AH</w>
Jamtsh o,</w>
Kos hi
Lord' s.</w>
Rober ts,</w>
Sa hak,</w>
Sale em,</w>
V all
Vermeule n,</w>
c li
lev el,</w>
li li
Vi ra
Vira lili
stump ings.</w>
15 4</w>
Bas nayak
Bur de
Chel ten
Dhing ra</w>
Kar ri</w>
Lalhm ang
Lalhmang ai
Law </w>
Levit t</w>
Or der</w>
P LM</w>
R es
Ronchi </w>
Senevi ratn
Susse x,</w>
Ude h</w>
Zang mo</w>
leg -
medi um
ol og
p ot
s "</w>
Le g
5 8.
Darshi ka,</w>
Dharma s
Hir wani</w>
Hos e</w>
Jan at</w>
K shi
Langiat u,</w>
Ma woy
Miy au
Naved-ul- Hasan,</w>
Roder ick</w>
Sad hu</w>
Seneviratn a,</w>
ck er</w>
ers '</w>
fas t-
l al
m os
200 0,</w>
Ber ej
Bruy n</w>
Cou ana,</w>
Duss en</w>
Ek ra
Gim han,</w>
K Z</w>
Lang ston,</w>
Lion-Cach et</w>
Lond on:</w>
Malho tra</w>
Muri d</w>
Rafiq ,</w>
Rehm t
Shashi kant</w>
Sy kes,</w>
Umm-e-H ani</w>
an ia</w>
an is</w>
ara i</w>
b ad</w>
champion ship</w>
el ing</w>
f uture</w>
ji c,</w>
limite d-
opport unity</w>
s o,</w>
200 3,</w>
Abeyrath na,</w>
An an
An il,</w>
Ash es.</w>
Atha v
B CC
Bab ul</w>
Carber ry</w>
Eckers ley</w>
Ge d
Gle eson,</w>
Har man</w>
Ho bson,</w>
Kal tap
Kapugeder a</w>
Khali l,</w>
Kno ckout</w>
Konthou jam</w>
Must ard</w>
R DB</w>
Shant an
Shantan u</w>
Vu j
Vuj in
Vujin ovi
af ter
enj oyed</w>
fin ally</w>
groun d,</w>
l ose</w>
orthodo x</w>
our s</w>
q ullah</w>
A shi
18 0</w>
19 14
Cam eron</w>
D ai,</w>
Dawat age,</w>
Divy ang</w>
E w
Heman tha,</w>
Hing an
Joh n,</w>
Ken t,</w>
Khadi m</w>
Lati f</w>
Man ish</w>
Q ud
Ra bg
Ratnayak e,</w>
Solom on,</w>
T enj
Tenj in</w>
Tou be</w>
Universi ty,</w>
Woerk om,</w>
aggres sive</w>
cti vely</w>
fiel d
m om
off ered</w>
son 's</w>
Steph en
y an,</w>
n ara
y i
14 7</w>
199 4</w>
Ank on,</w>
Ban k</w>
Barn ett</w>
Dharnidhar ka,</w>
F red</w>
Hor ley,</w>
Ikuz we,</w>
Karann agoda</w>
Kub wimana</w>
M bha
Man ch
Mbha lat
Mc P
Nihadu zzaman</w>
Pav ely,</w>
Ra ha
Ran e
Raz wan</w>
Ribe iro</w>
Sand ri,</w>
Sari ani</w>
Soh el</w>
Ushang a</w>
Vandor t,</w>
Wat eg
Wateg a
beg inning</w>
di ck,</w>
en d,</w>
ha de
n man</w>
Ky nman</w>
ow n,</w>
sur vi
sy st
t ner</w>
to rs</w>
( the</w>
14 3</w>
16 2</w>
18 5
And re</w>
Comm ins,</w>
H KT</w>
H ubb
Hawkins-K ay,</w>
Kim ote,</w>
Kun al</w>
Le ich
Mund und
Nis ans
Rane dou
Ranedou moun
Ranjitsinh ji</w>
Stone house,</w>
T20I s</w>
Tharupath i</w>
Thiriman ne</w>
Vandi ar,</w>
XI ,</w>
ag e.</w>
commentato r</w>
de p
develop ed</w>
im um</w>
par tner</w>
At au
Be gh
Goras es,</w>
Ka to-
Kato- Staf
L athi
Lub be</w>
May a,</w>
Micklebur gh,</w>
Mund he</w>
Muny onga,</w>
Muye ye</w>
New ey,</w>
Nim ish</w>
Redfer n,</w>
Rocchicci oli,</w>
Rum ist
Rumist r
Rumistr ze
Ruwan siri</w>
Shad rack,</w>
Si dh
Tha t</w>
Tu hade
Tuhade len
Wis har
Z hou
a al</w>
al is
f an,</w>
fiel ded</w>
four -
kee ping</w>
Acker man,</w>
Aparaji th,</w>
D ad
D ough
Da le-
Dale- Brad
Darshi ka</w>
Hutch inson,</w>
Jo hann
Johann es
Mah b
Mahb ub
McP har
O wais</w>
Pal mer</w>
Quinty ne</w>
Ram anayake</w>
Sri vastava</w>
bound ary</w>
commit tee</w>
f ine</w>
f ra
leng th</w>
om a</w>
p ast</w>
p ire</w>
s on.</w>
signific ant</w>
198 7</w>
6 1.
Anir ud
Chat ara,</w>
G att
Her mi
Hu o</w>
I H</w>
Ish war</w>
Lang ford</w>
Lu is</w>
Mahamal age</w>
McLach lan,</w>
Mu haw
Muhaw eni
Mumb a</w>
Ngara va,</w>
Ny ab
Periy al
Rath va</w>
Sam een</w>
Shah ri,</w>
Shash eem</w>
T MK</w>
Ti ai</w>
V um
Watl ing</w>
ak i</w>
club 's</w>
h op
s ay</w>
sch oo
se m
ump ire,</w>
un c
A very</w>
Anyi po</w>
Cap e</w>
Co ll,</w>
E aswa
F if
Fitzgeral d</w>
Her wad
J ai
t ley</w>
Jayatung a,</w>
K amb
K he
Kavana gh,</w>
Len ham,</w>
Mazum der,</w>
Mc Coll,</w>
Mo lon
N el
Navai ka,</w>
Niyit anga,</w>
O AC</w>
Oz tur
Pal z
Palz or</w>
Pol g
Polg amp
Se ma
Secon d,</w>
Simp son-
T rans
Ty ler</w>
bat ting,</w>
conc entra
condi tions</w>
ent ire</w>
nar row
succes sive</w>
th in
tion ed</w>
un g</w>
y ed</w>
200 8.</w>
6 3.
Andrew s,</w>
Anj ali</w>
Buck ingham
C ai</w>
Din esh</w>
Forb es,</w>
Gang a,</w>
Mahbub ul</w>
Mun isar</w>
O RT</w>
Outer bridge,</w>
P ub
Sanj ula,</w>
Shak eeb</w>
Silver-hol mes</w>
Szwarczyn ski,</w>
T cha
U w
c os
ra s</w>
rec ent</w>
spe c
201 4.</w>
6 4.
B ess
G on
Har man,</w>
Hin ley</w>
Lazar us,</w>
Lu cas</w>
MC CA</w>
Molon ey,</w>
Nik ol
Norgro ve,</w>
Onto ng</w>
Pavlo vic</w>
Rasang ika</w>
S HB</w>
Samantra y,</w>
Shan n
Tremle tt,</w>
Vay ani</w>
Vijayarag havan,</w>
Z T</w>
appe ar</w>
aw ard.</w>
em erg
en ed</w>
under -19</w>
wi sh</w>
14 6</w>
Alex and
Ar s
Ashok an,</w>
Blak ely,</w>
Buk hari,</w>
Dan u</w>
Fran sis
God leman</w>
Haz rat</w>
K ak
K ark
Ka ham
Ken ya</w>
Khe j
Khej ro
Me es,</w>
Nab e</w>
Par sons,</w>
Pari ma,</w>
Ragh uv
Reak es,</w>
Sarfara j</w>
Sc ott
Scha d
Schad endor
Sha hab</w>
Stu art</w>
Sur rey,</w>
Tan ay</w>
To b
W WL</w>
W WWL</w>
crow d</w>
f fi
p ers</w>
squ ad.</w>
tic ally</w>
Any on</w>
Chi k
Cro wi
H I</w>
H apu
Hapu h
Khi ao
Khiao to,</w>
Lok esh</w>
Muk hiya</w>
N ary</w>
Nag ark
Ngi di,</w>
Padha al,</w>
Per chard,</w>
Raz a
Redfer n</w>
Taran jit</w>
US $
all eg
attemp t</w>
cas e</w>
middle -
sch e
to ry</w>
y ana</w>
2 5.0</w>
5 0.
A KS</w>
Bo cock,</w>
Bow es</w>
Bre tt</w>
Ching ai
Dil hara</w>
E AS</w>
G hani</w>
J AJ</w>
Karun a</w>
Kl inger</w>
L A
U C
Lalbiakvel a</w>
Mutas a</w>
N uss
Nai d
Nuss bau
Rodri go</w>
Shi m
ad van
aggreg ate</w>
atta cking</w>
er ve</w>
gra du
on kar</w>
row ,</w>
t urn</w>
tem pora
tour s</w>
200 1,</w>
A li
g ar
Bhatt arai</w>
Chelten ham</w>
Chik k
Chikk annai
Fujik awa</w>
Gatt ing,</w>
Jaf ta,</w>
Jam wal</w>
L ad</w>
M NR</w>
Mahwi re</w>
Mit ari</w>
ODI ,</w>
Pill ans,</w>
Shumb a,</w>
Suryaw anshi</w>
Tan ush</w>
Vasconcel os</w>
ast le,</w>
competi tion,</w>
d res
daugh ter</w>
fer red</w>
immedi ately</w>
it u
k ova,</w>
nehel age</w>
per fe
yn ek
198 9</w>
A ak
Ag a</w>
Car ty</w>
Cot ton,</w>
Derck sen,</w>
Far hat</w>
G HI</w>
Gib b</w>
Hazrat ullah,</w>
Hink ley,</w>
Ho que</w>
Huddles ton,</w>
Jam il,</w>
Kirschbau m</w>
Lampl ough,</w>
Les lie</w>
Mug ab
Mutombod zi</w>
Sel im</w>
Ter ry,</w>
6 8.
Ain ool</w>
Asnod kar,</w>
DP K</w>
De o
De ol</w>
Dernb ach,</w>
G um
Grim mond,</w>
H DPK</w>
Jonat han,</w>
Khali d,</w>
Kirst en,</w>
M Q</w>
Mbhalat i</w>
McAlind on</w>
Phangis o,</w>
Poyn ton,</w>
Rajapak sa</w>
Ran ce,</w>
Takaha shi,</w>
Tuhadelen i</w>
Vi ra</w>
Vukus ic</w>
W ul
co ver
ele cted</w>
im pac
pop ular</w>
qui ck</w>
re aching</w>
se am</w>
sur passed</w>
them .</w>
" The</w>
Bos e,</w>
Cambri dg
Darl ington,</w>
De wa
Dizi ja,</w>
Erdene baat
G KD</w>
H GKD</w>
J umb
Kene aly</w>
Moswe u</w>
Niyomugab o</w>
Saren ac</w>
Sha ila</w>
Sil k</w>
Spoor s,</w>
Stat ham</w>
Sub h
Wul and
de .</w>
do ing</w>
hour s</w>
ib ur</w>
impres sive</w>
in stan
ond er,</w>
team s,</w>
16 4</w>
200 5.</w>
Bir kett</w>
Blampi ed,</w>
Bo k
Bushn ell,</w>
Deo bra
E zg
Ezg i</w>
F ros
Har per</w>
Hi mal
Jumb e,</w>
Ma ir,</w>
Mart ind
Nat han</w>
Ni k</w>
Ol ale
Onikoy i,</w>
Ronal ds</w>
Saloma o</w>
Subh rans
Subhrans u</w>
Toguchi- Quinn</w>
Top ley,</w>
Ver ing
Ver ity</w>
Vering m
Veringm ei
c ut
e :</w>
ex pl
g hana,</w>
Me ghana,</w>
leg byes,</w>
rat es</w>
ab o
abo ve</w>
s es</w>
g li
sh o
sh oul
u s.</w>
197 5</w>
Ait ken
Bud aza</w>
Cad dick</w>
Dhi man</w>
Doddaballap ur</w>
Doyle-Call e,</w>
Dun ka</w>
J NK</w>
Khejro liya</w>
Me i,</w>
Mun dh
Mundh e,</w>
P ong
Por t</w>
T onder,</w>
Th u</w>
Valen te</w>
Vinc ent</w>
Was if,</w>
ch on
cti ons</w>
de ge</w>
Mad dege</w>
get ting</w>
pe ople</w>
prev ent</w>
quick ly</w>
tos s</w>
vi c,</w>
14 8</w>
15 1</w>
198 4</w>
199 3</w>
7 3.
Ab dull
Aitken -Drum
Amin ul</w>
As sad</w>
Eti m,</w>
Gurn ey,</w>
He ath</w>
Indi es'</w>
Kg osi
Kgosi em
Krishnashri ram</w>
Learoy d,</w>
Leydon- Davis</w>
Motho a</w>
Nighting ale</w>
Nikitara s,</w>
Sel o
Siddhar th</w>
Stu ur
Vif ah,</w>
Wy lli
at e,</w>
chi he
Pun chihe
de d.</w>
g lov
op er
pr omin
stra ight</w>
' shang
Abdull a,</w>
Awi ah</w>
Bur ton</w>
Can ess
Chall eng
Coet see</w>
Dalz ell</w>
Delan ey</w>
Dlam ini,</w>
E W</w>
Ge off</w>
Jay aratne</w>
K ila</w>
Ke it
Kir ton</w>
Krish na,</w>
Lak er</w>
Lang ford-
M 'shang
Muthali b,</w>
Pus tha
Raj ast
Ri ley,</w>
Sea les,</w>
Su dip</w>
Tris na</w>
Wachi ra,</w>
Y ing</w>
aratn am</w>
bowl ers.</w>
f inger</w>
in st
mat es</w>
o h</w>
y en
A WR</w>
Ashok an</w>
Athan az
Athanaz e</w>
B est,</w>
Bak um,</w>
Dut t,</w>
Gre g</w>
Jat in</w>
Ma pos
McKech nie,</w>
Mun o
Muno z
Munoz -
Na man</w>
Otw ani,</w>
Pod dar,</w>
Shim wa
Thatti l,</w>
Wa th,</w>
break ing</w>
ey .</w>
injuri es</w>
universi ty</w>
2017– 18</w>
6 6.67</w>
A is
Bud inger</w>
Chant am</w>
Dun k</w>
Ebs ary,</w>
Em ma</w>
Footi tt,</w>
Hotchand ani,</w>
Jay asoori
Jo hal</w>
Kejaruk ua</w>
Mano har,</w>
Manz oor</w>
Mark s</w>
Mo is
Nazim uddin,</w>
Pali wal,</w>
Pres ident</w>
Punj ab</w>
Rumistrze wicz</w>
San ia</w>
Se d
Sou t
Sout hamp
Suwan chon
Suwanchon ra
T all
U R</w>
Ud eshi</w>
ch e
h uk
is ter</w>
le ton</w>
ma ch
r ul
um ber
victo ry,</w>
wo man</w>
15 3</w>
Abug a,</w>
An dri
Bo je,</w>
D AM</w>
Damar ell,</w>
Emri t,</w>
Hu ang</w>
Hurd le</w>
J EI</w>
Jo e</w>
Khan al,</w>
Kill een</w>
L OB</w>
Lomr or</w>
Nas ci
Nasci men
Pan el</w>
Put ti
Ro hit,</w>
Tanz eel</w>
Tes t
V essi
boo k</w>
cor rec
p ost</w>
si tu
spor ting</w>
sti tu
u d</w>
20 .0</w>
2019 –
Abeywickramasing ha,</w>
Car u
G KS</w>
Induwa ra,</w>
Isl and
s in</w>
Bha sin</w>
Jab ark
Kieswet ter</w>
Mal av</w>
Muhaweni mana</w>
Paranavit hana</w>
Ru ynek
S ran
Sin an</w>
Vas av
Vesaw kar</w>
Zimbabwe .</w>
ann an</w>
au to
bro ther,</w>
consist ent</w>
di rector</w>
e ho
ek i
en ce,</w>
excep t</w>
h ore</w>
play ,</w>
respon si
s wi
ter n</w>
( 188
. C.</w>
Am us
Bhog le,</w>
F e
at s</w>
Faz le</w>
Gu eho
Ky o
L or
M SS</w>
May es,</w>
Mus eki
Ni az</w>
Ook o,</w>
Pengkum ta</w>
Prabhudess ai</w>
Sada f</w>
Sre y</w>
Stephen son</w>
Um pi
ent s,</w>
t is
e mi
er e,</w>
jo b</w>
ll y</w>
n at
ty 's</w>
ut a,</w>
15 2</w>
16 5</w>
Akayez u,</w>
Aus tin</w>
Bor g
Gow tham,</w>
Han sen</w>
Hemalat ha</w>
Hinch liffe</w>
Janj ua</w>
Kamb o
Ken y,</w>
Kervez ee</w>
Nisans ala</w>
Pun it</w>
Re ing
Sam j
Samj hana</w>
Sur rey
Suwande wi</w>
Till akaratne,</w>
W N</w>
J WN</w>
au l
fam il
n ai
qu es
w ins</w>
15 8</w>
16 6</w>
17 0</w>
Am ster
Amster d
B JJ</w>
B ask
C astle,</w>
Castill o</w>
Chapran a</w>
Dogg ett,</w>
Flor os</w>
Hak im</w>
I mal</w>
Jayawarden a,</w>
Ko ti
Kolkat a</w>
LA GL</w>
La hore</w>
M bi
Mc Au
Nas er</w>
Nt ambal
P und
Pennaz za</w>
Raj put</w>
S RK</w>
P SRK</w>
Scantlebury-Sear les</w>
St and
Sud ar
Wak ely</w>
Wal aza</w>
Zu wa
am p</w>
com be</w>
em b
Chi p
f ol
heav y</w>
i ma
ma z</w>
mov ing</w>
re ly</w>
ring ,</w>
runn ing</w>
sec ured</w>
si ri,</w>
ut en
3 8
Azharudde en,</w>
Bha ri</w>
Bok ako</w>
Fre der
Gaut am,</w>
J im</w>
Jil ani,</w>
Kand amb
Kumariham i</w>
Luki es</w>
M K
Magu ire,</w>
Mang ela,</w>
Mbi da</w>
McC one,</w>
Mil ad</w>
Murasingh ,</w>
Samu di
Sh en
Sye da</w>
Tasman ia</w>
Zul q
b oy
cin fo
com pl
er lin
hundre ds</w>
pp ing</w>
ret ire</w>
te le
us ha,</w>
wide ly</w>
16 0</w>
4 9.
5 9.
Ak bar</w>
B EW</w>
Bar ry,</w>
Bis son,</w>
Cha oana</w>
De wi,</w>
Flyn n</w>
Fros t,</w>
Has anka</w>
Ho ey,</w>
Hu cker</w>
Ir fan,</w>
Jang id</w>
Ke arn
Ko ra
Kukik hel,</w>
Muj aji,</w>
Nis ha</w>
P un,</w>
Pat erlin
Philipp e</w>
Sma ll,</w>
Srees anth,</w>
Subas ingha,</w>
Th ough</w>
Zulq arn
ass ist
bro thers</w>
c o,</w>
cou ple</w>
e ful</w>
e uten
experien ced</w>
ma th</w>
p rat
qualifi ed</w>
rank ed</w>
ri tt</w>
Mer ritt</w>
s ).</w>
( 201
tourist s</w>
week s</w>
z ab
A han</w>
B JR</w>
C un
Coo m
Cricke t,</w>
Dud ge
Erdene bul
Europ e
Gur prat
Gurprat ap</w>
John s-
Johns- Wick
Mackin tosh,</w>
Mu fti
Mufti ,</w>
Nof al</w>
Pe dd
Sal e</w>
Samarawe era</w>
V Y</w>
Viss er</w>
Wheat er</w>
Whi tney</w>
Wood full</w>
busin ess</w>
ce le
clai ming</w>
cti on.</w>
fir st,</w>
foo t</w>
foot ball
frequ ently</w>
mi d
st re
tch er,</w>
tch er</w>
o ha</w>
occasi onally</w>
out standing</w>
re pe
we alth</w>
A Ahan</w>
Bac on,</w>
Be it
Be uk
C ass
C en
Fer o
Hann an</w>
Is sa</w>
Kansonkh o</w>
M amba</w>
Mokgotl he,</w>
P oul
os e,</w>
Ran aweera,</w>
School .</w>
Scott ish</w>
Shor ey,</w>
Stanislau s,</w>
Su ha
T aq
Vis ee,</w>
Z aker</w>
Zulqarn ain</w>
a ded</w>
a o,</w>
defe at.</w>
fi e</w>
An e
li ke,</w>
limited- overs</w>
oul ou,</w>
tes ts</w>
wa t</w>
Bha g
16 7</w>
2 10</w>
Beres ford</w>
C JB</w>
Fif th</w>
Ful ton</w>
G en
Goodw in</w>
Hawo e,</w>
I SS</w>
K op
Khali q</w>
L KL</w>
A LKL</w>
Lemt ur</w>
Mong ia</w>
Oded ra,</w>
Para d
Pat more,</w>
Priand ana</w>
Sal z
Suk k
Trans v
Wall ace</w>
again .</w>
ama li</w>
appearan ces,</w>
bowl ers,</w>
c al,</w>
ci a,</w>
d one</w>
es -
es hana</w>
Ud eshana</w>
resul ted</w>
17 1</w>
Ab ub
ar r</w>
All an,</w>
Bham b
Bur ton,</w>
Can ning,</w>
Cro es,</w>
Easwa ran,</w>
H HC</w>
Har wood</w>
Hath inj
Heenatig ala</w>
J ake</w>
J aw
Kir tley</w>
Lion-Cach et,</w>
M LA</w>
Mu d
Mudass ir</w>
Nav g
Ny i
Nyi rank
Nyirank und
Nyirankund ine
Ol ph
Ramamoor thy,</w>
Siddi qi</w>
Sim on</w>
Sne dden,</w>
Ta hm
Tren aman,</w>
Venkat es
wa ran</w>
wa ran,</w>
W RC</w>
W ay
War ren</w>
Ward ak</w>
Zi a
appe aring</w>
at ul</w>
ay ed</w>
c us</w>
cru cial</w>
eg an,</w>
er o,</w>
full -
g na</w>
he ad,</w>
hi ri</w>
op en</w>
s pi
squ ad,</w>
sugges ted</w>
Abub ac
Abubac arr</w>
Bartra m</w>
Drum mond</w>
Far hath</w>
Fre y</w>
Ha fiz
Isha que</w>
Jagg es
Klaas sen,</w>
Kuy ate
Mc Gu
McN ally</w>
Muthus wa
Mutu a</w>
Petricol a,</w>
Shafee g</w>
T au</w>
Tahm eed</w>
Universi ty.</w>
Var gh
Ver vit
Vervit si
W ar,</w>
Wool ston</w>
cha sing</w>
el ani,</w>
er t,</w>
ex amp
se t.</w>
un u</w>
win i</w>
Ash wini</w>
10 .0</w>
Am mar</w>
Ane fie</w>
Bri ts</w>
Bun ge,</w>
Gallagh er</w>
Gur us
I ve
Jaw eed</w>
Kush re
McBri de</w>
N o</w>
e ath
Don eath
Qu ad
Stra no
Strano ,</w>
V elani,</w>
and a,</w>
as ion</w>
d om</w>
ist -
lo c
star ting</w>
summ er,</w>
tion s,</w>
y line</w>
200 2.</w>
3 7
Achel am,</w>
Ans ar</w>
Augus te,</w>
B en</w>
Ediris inghe,</w>
Gra eme</w>
I zaz</w>
Kandamb y,</w>
Kau thank
MacLar en</w>
Magai a,</w>
Mascaren has,</w>
Moi z</w>
Mom in</w>
N ish
O ver</w>
Omar zai,</w>
P uni
Puni a,</w>
Rajast han</w>
Rand ha
Rober ts</w>
Say ers,</w>
Sne hal</w>
Stuur man</w>
Tauq ir</w>
Ton ge</w>
Traf ford</w>
Waugh ,</w>
Will s</w>
coun ty,</w>
fail ing</w>
medium -
no t
ol a</w>
servi ce</w>
uwan tha,</w>
17 5</w>
200 2,</w>
3 5
7 7.
C O
Chenn ai</w>
Cod rington</w>
F I</w>
Glou cester</w>
Kh ull
Lak ra,</w>
M BS</w>
McMan us</w>
Mcke on</w>
Niranj ana</w>
Onwuzu like,</w>
Per th</w>
Ra hil</w>
Raji th,</w>
Sale h</w>
Shre ck,</w>
Suz uki,</w>
Zak i</w>
di dn't</w>
ex pen
impro ved</w>
mi ght</w>
op al,</w>
recogn ised</w>
t age</w>
15 7</w>
Ah n
Ahn af
Amb ris,</w>
Bha rat</w>
Cla xton</w>
Cos ker,</w>
F OE</w>
Foer ster</w>
Kop pol
Kun co
Os ama</w>
Pi et</w>
Po ck
R ug
Sax ena,</w>
Sear s,</w>
Stre et</w>
Syri oti,</w>
Tan war</w>
Tissi er</w>
Tom ar,</w>
UC KA</w>
W on
Wether all</w>
Zuider ent,</w>
ag a,</w>
bro ther
cour se</w>
mark ed</w>
nigh t</w>
ship s</w>
st ren
to r,</w>
10 0th</w>
16 9</w>
198 6</w>
5 00</w>
Acade my</w>
Bra at</w>
Dil bar</w>
F loy
Fil er,</w>
Freit as,</w>
Glamor gan
Good in</w>
Gulb is</w>
Hek ure,</w>
Kan o,</w>
Moriar ty,</w>
Nadigot la,</w>
Non oha</w>
Onwuzu like</w>
Periyal war,</w>
Senevirat ne</w>
Shahe en,</w>
Skel ton,</w>
Venkatara man</w>
Waqavakato ga</w>
Y air</w>
Yas um
Zimon jic,</w>
av i
day s,</w>
me an
poin ts</w>
tim es,</w>
whi te</w>
7 2.
A sha</w>
Athav ale,</w>
Bartra m,</w>
Brownli e</w>
Ch ukw
Chukw u
Chukwu on
Fari d</w>
Inam -ul-Haq</w>
Kan ish
Kanish k</w>
Man uk
McPhar lin,</w>
N uwantha</w>
P awan,</w>
Py ke</w>
Ravind ran,</w>
Sar tha
Son i</w>
Thusha ra,</w>
Thyag arajan</w>
Unn ik
Unnik rishnan</w>
Vi dy
Watega onkar,</w>
We i</w>
York shire.</w>
Z ondo</w>
clai m</w>
deter min
intro duced</w>
n 't</w>
re kar</w>
tw ent
ye t</w>
An ik
Common wealth</w>
Dha ka</w>
Dil ara</w>
Gar ret</w>
Het ti
wa t
Bal u
Idre es,</w>
Irako ze,</w>
Leon ard,</w>
M KK</w>
C MKK</w>
Madus anka</w>
Mas ek
Monte iro</w>
Muthuswa mi</w>
N aib</w>
On ly</w>
Scha w</w>
Schadendor f,</w>
The ir</w>
Wigg ins,</w>
Wijer ath
e qui
h ov
ind a,</w>
li ved</w>
main ly</w>
tri al</w>
18 4
2 16</w>
Ak eem</w>
Ber gh,</w>
Brag g</w>
Chikkannai ah,</w>
Cott rell,</w>
Eli zab
Gre ec
Greec han</w>
Kaltap au,</w>
Klusen er</w>
Mag ala,</w>
McN ally,</w>
Mo han</w>
Nav i
Naveen -ul-Haq,</w>
Pas cal,</w>
Po li
Radhak rishnan</w>
Reh em
Rehem t
Sav ill
Uday anga</w>
Vi d
Wy k</w>
ag un</w>
S agun</w>
con fir
en cy</w>
g ri
high ly</w>
in ducted</w>
j uri
p ris
on e
stren g
th uri
us eful</w>
193 0</w>
3 4
6 5.
Aak ash</w>
Bain s,</w>
Bl ain</w>
Cha ri,</w>
Cun ning
Gav in</w>
Hol t,</w>
Ma thuri
Mal ino</w>
O lli
Sang ma</w>
Sank eth</w>
Somer set,</w>
T angu
Vy as,</w>
Weatheral d</w>
Zak hil</w>
ap ,</w>
ara k</w>
captainc y,</w>
er ous</w>
ex cl
first- clas
ist- A</w>
k ari</w>
k man</w>
li c,</w>
oll e
pro li
rang e</w>
resul ts</w>
scor e,</w>
16 3</w>
19 0</w>
Christ ina</w>
Dol ar</w>
Goko el</w>
Hazeld ine,</w>
Herwad kar,</w>
Hornero-Gar cia,</w>
Is a</w>
Isha k</w>
Lak han</w>
M SJ</w>
Mah ro
Mas v
Miyau chi,</w>
Nade eshan</w>
Ni v</w>
Rob in</w>
Schifer li</w>
Se dd
Sel v
Th ree</w>
Vithan age</w>
W oo
Weer asuriya,</w>
acc ording</w>
bi li
c y
co ver</w>
contin ue</w>
fig ure</w>
gu i
j umb
o on,</w>
rema inder</w>
s ara,</w>
ta il
ti z
ul u</w>
16 1</w>
200 0.</w>
Arn el,</w>
Asi an</w>
Ati f-
Atif- Ur
Atif-Ur -
Bar on,</w>
Bir m
Dev nara
Dh up
Gurb ani</w>
Laom i,</w>
Naj jumb
Nyirankundine za</w>
Re ad</w>
Seh rawa
Selo wa,</w>
T MA</w>
T ab
Vanders ay,</w>
Z ar
b anned</w>
beat ing</w>
d t,</w>
liff e,</w>
ref used</w>
twent y</w>
198 5</w>
200 4.</w>
Adede ji</w>
An afi
Az z
Azz am,</w>
Begh in,</w>
Bo th</w>
Cle ary,</w>
Coraz on,</w>
Coss a,</w>
Guth rie,</w>
Jas winder</w>
Kam ung
Kamung o
Kha re
Law s</w>
Mal ay
McKen na</w>
P SR</w>
Poo ja</w>
Qur eshi</w>
Raghuv anshi,</w>
Ris hav</w>
River o</w>
Sal au,</w>
Samarawickra ma</w>
Sen apati,</w>
Shan ti,</w>
Sto man</w>
Vithan age,</w>
W u</w>
Was eeq</w>
Y uz
ag es</w>
ain ing</w>
appearan ces.</w>
appoint ment</w>
ha mad</w>
A hamad</w>
il a,</w>
middle- order</w>
pow er
wh ole</w>
199 0</w>
6 0.
Ashi th</w>
Bed ingham</w>
Christ chur
Doher ty,</w>
Engl ish
Fara z</w>
Fo ur</w>
G ull</w>
I os
Ios ef
J J
JJ NP</w>
Kambo j</w>
Kas hy
Leg a
Lega ab
Maha ra
Masv au
N JH</w>
Pill ai,</w>
Polgamp ola,</w>
Raj kumar</w>
S le
ag er</w>
Sup er
Tas hi</w>
Tha d
You s
Z R</w>
Zepe da,</w>
ar c
ark ar</w>
ex c
h old</w>
in ten
incid ent</w>
le t
re -
s i,</w>
15 5</w>
17 7</w>
6 9.
Deobra t,</w>
Hafej ee,</w>
Ire land's</w>
J KD</w>
K ey</w>
Kai f</w>
Khat ri</w>
Lancashi re,</w>
Lov ell,</w>
MD T</w>
Marty n</w>
Melbour ne,</w>
Mo ra
Ot ago</w>
Paras har,</w>
Sa thish</w>
Salon en</w>
Sar raf</w>
Tou be,</w>
U sh
et ti
Ush etti
bo ard</w>
en aar</w>
for m,</w>
i v
k ers</w>
man u
re ver
ry ing</w>
shank a</w>
( 187
200 1.</w>
202 2.</w>
8 4.
Adi kari,</w>
Aq eel</w>
Boo ta,</w>
Din usha,</w>
Fransis co,</w>
Hapuh inn
Hapuhinn a,</w>
Ht un</w>
I T</w>
Jar j
Kamun huk
Kamunhuk am
Kanan ji</w>
Koshi tha</w>
L ow
Law ry</w>
Le f
ar m
Panyang ara,</w>
Pi us</w>
Q eshi
Sol man,</w>
Vum i
Vumi liya</w>
equ al</w>
i ri</w>
men .</w>
of -
n o</w>
one- off</w>
te .</w>
ti es.</w>
202 1.</w>
Arg y
Co ker</w>
Ekra mi</w>
Embuldeni ya,</w>
Engl and
Gou die</w>
Kgeres i,</w>
Kgosiem ang</w>
Leop ard,</w>
Mawoy o,</w>
McClinto ck,</w>
Mi chael,</w>
Mis al,</w>
Mor ley,</w>
Mur ray,</w>
Musht aq,</w>
O mid</w>
Pe ar
Rag ne</w>
Randi v,</w>
Rath od,</w>
S AN</w>
Samarako on,</w>
Shahreeennawa b,</w>
St ate</w>
Sudar shan</w>
T own</w>
Um eed</w>
Wishar t,</w>
agre ed</w>
conce ding</w>
fa ir
fin ed</w>
p raised</w>
sche du
year -
18 6</w>
201 5–
5 0.</w>
Aboag ye,</w>
Akachukw u</w>
Bon o
Bono ra,</w>
Char e</w>
Gaj anayake,</w>
Gu j
M ban
Mo in</w>
Pi e
Pras han
Prashan th</w>
Putthaw ong,</w>
Q i
Rym ell,</w>
Shar j
Sw ard
T up
Tournam ent</w>
Uw era,</w>
Valtha ty,</w>
Z ara</w>
controvers y</w>
es s.</w>
f un
n y,</w>
Sun ny,</w>
les s,</w>
succ eeded</w>
Ab eg
Akhi g
Av e,</w>
Ay sha</w>
Bev inj
Bid ais
Bro ad
Krishnamur thy</w>
Leydon- Davis,</w>
Liyanapathiran age</w>
Lou w</w>
Mihi ra</w>
Mom end</w>
Od g
P DRL</w>
Riz vi,</w>
Sath ish,</w>
Sim s,</w>
Soha l,</w>
W O</w>
E WO</w>
Yasum oto</w>
Zia -ul-Haq</w>
a ir
on n
ar .</w>
fin an
high er</w>
n am</w>
or di
setse g</w>
str ong
tra di
n ow
tran s
wri t
2 ,
3 00</w>
A pon
B GS</w>
B K
Bab u,</w>
CO V
D KD</w>
F ell</w>
Georg ota</w>
Hair s,</w>
Hatch man</w>
Hur st</w>
Klok giet
Mc Donald,</w>
Melbo urn
Mene-Ejeg i</w>
Mpongw ana</w>
Mus awar</w>
Olph ert</w>
Pa wan</w>
Rabg ey,</w>
Sa han,</w>
Saran onn
Saranonn akk
Sou thern</w>
St ack
Wa les,</w>
Wylli e,</w>
Y eshi</w>
all-ro und</w>
at ey</w>
D atey</w>
d ren
ch ed</w>
ic al</w>
m ents</w>
mi le
n esh
o thers</w>
ti z</w>
( 186
17 2</w>
18 9</w>
Ajek un,</w>
Bra y</w>
By rom</w>
C ey
Cass ell</w>
Desungno en</w>
Jas at,</w>
K ong</w>
Kar ma
Kulum e</w>
Mak ri</w>
Mas ters,</w>
S ome</w>
Sen ok
Senok wan
Sidh u</w>
Sor m
Sthale kar,</w>
Vi olle
W elig
Wag staff</w>
awat te,</w>
bound ari
coun t</w>
e el,</w>
in t
jo ining</w>
man age</w>
reput ation</w>
s olo</w>
ur e.</w>
17 3</w>
202 3.</w>
4 7
Ad ri</w>
Aq eel,</w>
Art awan,</w>
Ati ela</w>
B BC</w>
Bar row,</w>
Caness ane,</w>
Chatterj ee</w>
Con tro
D ek
Dool an</w>
Dun ford,</w>
Go ordi
God ara</w>
Goordi al-
Hyderab ad</w>
I W</w>
Ire land.</w>
Jos h</w>
K SA</w>
Kam ande,</w>
Karma char
Kir k,</w>
Mes ar
Ne il</w>
O N</w>
Olale ye,</w>
Pancha l</w>
Pas cal</w>
Pie dt,</w>
Siss ako,</w>
St rou
Tashk off,</w>
Thewmi ka</w>
Wit han
a wi</w>
ag no
St agno
Stagno ,</w>
bat ting.</w>
bur n,</w>
own ed</w>
retirem ent,</w>
s am
sele ctor</w>
to pped</w>
tro phy</w>
Ba ard</w>
Bur ke,</w>
Caw te</w>
Dix on,</w>
Gaj anayake</w>
Great wood</w>
Han cock,</w>
Hi gh
IP L
Jon kman</w>
Kara chi</w>
Mahfoo z</w>
Mal i</w>
Mc Fad
Me yen
Meyen bor
Nag ar,</w>
Naid oo,</w>
Om ary</w>
On y
Reg mi,</w>
Samud dika</w>
Shimwa mana</w>
Sig era</w>
Son u</w>
Twenty 20.</w>
Vivek anand
Wa hid</w>
app a,</w>
ayak e</w>
dd in,</w>
et ed</w>
excell ent</w>
fri end
kno ck</w>
m ulti
ma le</w>
p aid</w>
p al,</w>
p le,</w>
pos ted</w>
. ,</w>
189 5</w>
Abdul quad
B am,</w>
Baj wa,</w>
COV ID
Dha vin
Far rell,</w>
For de,</w>
Gwan z
Gwanz ura</w>
Hal d,</w>
Head ley</w>
J hun
Jhun j
Jhunj hun
Kalupa hana</w>
Kyo be,</w>
L ist-A</w>
M LR</w>
M'shang we</w>
Mac don
Meh boob</w>
Mis hara</w>
Mong ia,</w>
Nagark oti</w>
R AP</w>
Ru ikar</w>
Sa eed,</w>
Sum on</w>
Syri oti</w>
U ddin,</w>
Weto to</w>
Whel an</w>
Zang mo,</w>
bene fit</w>
comp any</w>
critic s</w>
for ce</w>
inter rup
le p
long er</w>
p a</w>
ph ysi
sh ek
si m</w>
techni que</w>
wom en</w>
19 12
A oin
Ains worth,</w>
Ale ena</w>
Ale x</w>
Atif-Ur- Rehman</w>
Bi za</w>
Dabeng wa,</w>
De yal</w>
Dew thus
Gor e,</w>
Gro und.</w>
Her bert</w>
Hingan ekar</w>
I .</w>
Jagges ar</w>
Lam in,</w>
Macdon al
Mapos a</w>
Neil- Smith,</w>
Nir mal</w>
Northc ote,</w>
P in
Ram anand
S EA</w>
Sle bs
T ra
ell ed</w>
Val de
Val ner</w>
ab le.</w>
comp an
ch .</w>
Ti pp
Tipp o
Tippo ch</w>
Tippo ch,</w>
fin est</w>
k ova</w>
mo y</w>
moder n</w>
sup por
sus p
0 0.</w>
7 1.
20 4</w>
8 5.
Ag bo
Agbo ya</w>
BK EL</w>
Birkensto ck,</w>
Brit ton</w>
Cha hal,</w>
Dhad wal</w>
Dil shad</w>
Fou rie</w>
Ga onkar,</w>
Kheter pal</w>
M rin
Manuk rishnan</w>
Mat solo</w>
Mathuri n</w>
Mauroo f</w>
Medi a</w>
Mrin moy</w>
Mu li
Mun sey</w>
Niyom u
Niyomu ho
Papp u</w>
Putti ck,</w>
Rehmt ullah</w>
Rug by</w>
Sa chi
Samudi tha</w>
Sar war,</w>
Sat ish</w>
Sch ul
Thorn ton,</w>
Warnapu ra</w>
a ther</w>
all- time</w>
ati vely</w>
ter n
b ly</w>
cti on,</w>
day s.</w>
f le
fac ing</w>
g aard</w>
miss ing</w>
n omin
opport uni
practi ce</w>
secret ary</w>
shire ).</w>
spinn ers</w>
stat us.</w>
Alf red</w>
An dy</w>
Argy rop
Av as
Avas thi</w>
Cuinic a</w>
F r
Fal con
K KV</w>
Levi ck,</w>
Megh la</w>
Muli v
P om
Q un</w>
Rath nam
Rathnam ud
S an</w>
Sa jad</w>
Say er,</w>
Sc or
Ta un
Tod d,</w>
Us wa</w>
ati ullah</w>
M atiullah</w>
develop ment</w>
em e,</w>
lis t.</w>
nin th</w>
occ asion</w>
qu ali
statis tics</w>
u rag</w>
An urag</w>
um .</w>
o le
201 6–
Akank wasa</w>
Ar jit</w>
Av i</w>
B anner,</w>
B ov
Bar gna</w>
Bat is
Bib i,</w>
Brad man's</w>
Chatonz wa</w>
Her man,</w>
Hetti ar
Hettiar chchi
Ima m-ul-Haq</w>
J AN</w>
J in
Jas at</w>
Mar e</w>
Ng on
O JS</w>
St ur
Wan ni
We ib
Weib g
Winfield- Hill</w>
Zuwa k,</w>
af se
T afse
Tafse er</w>
ag y
P agy
Pagy dy
de v</w>
der ed</w>
dre n</w>
join t</w>
o ur,</w>
occasi ons,</w>
ol uk</w>
stump ings</w>
well .</w>
198 8</w>
Barres i</w>
Ch er
Cha ub
Chand ana,</w>
Chat u
Cockb ain</w>
Conn ell,</w>
Dalrym ple,</w>
Dewa ld</w>
F eli
Ferra ry,</w>
Glasg ow,</w>
Hawk en</w>
Hem raj</w>
Inam -ul-Haq,</w>
Ive tic,</w>
Jamai ca</w>
Limdawa la,</w>
Lockros e,</w>
Mban e</w>
Pund ir,</w>
Ra wal</w>
Ran i,</w>
S ara</w>
Scha cha
Sen al</w>
Seymo ur,</w>
Sydn ey,</w>
Wan ji
Westhuiz en,</w>
ann ual</w>
campai gn</w>
collap sed</w>
en ge</w>
en nan,</w>
Br ennan,</w>
es )</w>
f .</w>
g ol
fort un
ha o</w>
m ent,</w>
pan el</w>
proli fic</w>
provi ded</w>
qualif y</w>
resum ed</w>
t al
7 0.
8 8.
Ac har</w>
D aff
Da ley,</w>
Dhanush ka,</w>
G at
Gumb ie,</w>
K oll
Kauthank ar,</w>
L od
Mail ata</w>
Q ian</w>
S MK</w>
San and
Shan m
Shanm ug
Simpson- Parker,</w>
coun tri
d d</w>
ee .</w>
ever the
fi tn
jo t</w>
ot es</w>
otto m</w>
ph er</w>
rais e</w>
ri tt,</w>
Mer ritt,</w>
so li
th tha
Wa ththa
tri ple</w>
0 0,</w>
196 3</w>
9 -
Be van</w>
Bhu iy
Bhuiy an,</w>
Brown ing</w>
D'Sou za</w>
F ender</w>
Gogev ,</w>
Henrik sen,</w>
K orn
Kai t
an o</w>
Ke ith</w>
Ketiy age</w>
Kha ka,</w>
Lo e</w>
Mc Ge
Mois es</w>
Mus addi
Musaddi q</w>
N .</w>
Nay ab</w>
Nish shanka</w>
Panay i</w>
R ada</w>
Rob ins</w>
Sebar eme,</w>
Sha zad</w>
Sun il,</w>
Surenk umar,</w>
T im</w>
Tej as</w>
Wadh wan,</w>
Year .</w>
Zimbab we,</w>
b in,</w>
bas e
c u
el e</w>
e le,</w>
S es
ham s</w>
Ab ra
Abra r</w>
k ov
ra ted</w>
refer ee</w>
t ry</w>
19 8</w>
197 2</w>
20 3</w>
Bag uma</w>
Balu ch</w>
Bu tcher,</w>
Bule le</w>
Chugh tai</w>
Dale-Brad ley</w>
Dough er
G eri
Hi tch
Hoo per,</w>
I rani</w>
Iz har
Izhar ul
Izharul haq</w>
Kobayas hi,</w>
Mal shan,</w>
Meh ta,</w>
Mugab e,</w>
Mus ak
My ott</w>
Na th
Ne dd</w>
Ni azi</w>
Para m,</w>
Pun ia</w>
Re ye
Reye s</w>
S t.</w>
Samany ika,</w>
Sau d,</w>
T um
Wain man</w>
ac ade
ag ar,</w>
de par
fixt ures</w>
gam u
ill ed</w>
o y</w>
Sch oo
Schoo l,</w>
ou x</w>
penal ty.</w>
perfe ct</w>
pro ces
re duced</w>
secon d.</w>
ve di,</w>
5 0,</w>
Am arn
Au qib</w>
Bark ania</w>
Bet ween</w>
Bl y
Bomb ay</w>
Dev on</w>
E D</w>
Fazacker ley,</w>
H er</w>
J K
K omin
Kaneri a,</w>
McAu ley,</w>
Phelenyan e</w>
Prim us,</w>
Sachi dan
Sachidan and</w>
Sele ka</w>
Sherid an</w>
Shi va</w>
Su li
Sukk ur,</w>
T akad
Tai bu</w>
Taniy ama,</w>
Tom ar</w>
Viss er,</w>
Wel sh</w>
Will ath
Willath gamu
et y,</w>
gra de</w>
op position</w>
ov </w>
s bury</w>
sk i
er ing</w>
sp ot</w>
wi de</w>
17 9</w>
193 8</w>
Ate ak,</w>
Ba ird</w>
Bo di,</w>
Bri dg
Bu chan
Dow nes</w>
Esterhuiz en,</w>
Gogev </w>
Im ran,</w>
JK TD</w>
Ke en,</w>
Keit sem
Kenne d
Koti an</w>
L asc
Le o</w>
Mesh ram,</w>
Molkenbo er</w>
P ack
Panay an</w>
R JKTD</w>
R oux</w>
Sathe esan</w>
Tatters all</w>
Tsh ose,</w>
Ul -
Z um
Zepe da</w>
Zum ika</w>
cat eg
club .</w>
dis miss</w>
e f,</w>
experi ence</w>
organ ised</w>
pitch ed</w>
ra re</w>
s ),</w>
2019– 20</w>
Abeyrath ne,</w>
An oo
Ank rah</w>
Ann and</w>
Anoo p</w>
Ar ta,</w>
Ashi qullah</w>
Bai s</w>
Bas ti
Bat in
Batin ib
Beit aki,</w>
Bish op</w>
Brad shaw,</w>
C ame</w>
Co ck,</w>
Coll eg
Cy us
G as
Ga jic</w>
Gunawarden e,</w>
Hir st</w>
How ever</w>
I was
Is es
J AM</w>
Jak o
Jan at,</w>
K p
Ka to</w>
Kearn ey</w>
Kol an,</w>
M ny
Mo dg
Mubas hir,</w>
Naz ar</w>
Nor fol
Oztur k</w>
Piy ush</w>
Rafi ullah</w>
Rama b
Scho les</w>
Sin ha</w>
Stat is
Thyag arajan,</w>
U AE</w>
W ai,</w>
Y ves</w>
club s</w>
de al</w>
inj ur
ong st</w>
ot a,</w>
reco vered</w>
see med</w>
susp ended</w>
ti es,</w>
pro bab
us i
' .</w>
202 4.</w>
6 7.
7 6.
A CC</w>
Abid in,</w>
Ahnaf f,</w>
Am oluk</w>
Ay sha,</w>
Ber gh</w>
Bi er
Bier wis
Bra nd</w>
Dan ial</w>
Fari d,</w>
Fraser-McGur k</w>
H and,</w>
J ewell</w>
Jako b</w>
Kan uk
Kanuk unt
Karnew ar,</w>
Kha juri
Langford- Smith</w>
Lu dick,</w>
Mara is,</w>
Mu run
Na ir
Nav aratnam</w>
R GL</w>
S aid</w>
Saura v</w>
Sen gup
Shama z,</w>
Si y
Siy ab
Siyab onga</w>
Taq awi</w>
Tyag i,</w>
Vishv araj</w>
Wal ton</w>
Wood s</w>
c all</w>
c entral</w>
c ra
chil dren
e ;</w>
is su
eshi re</w>
f ul
inj ury,</w>
ob itu
ora ry</w>
p hi
resul ting</w>
tle .</w>
15 9</w>
18 3</w>
19 10
19 20
Bak um</w>
Bl ades</w>
Bra r,</w>
Chand ran</w>
Christi e</w>
Dew hur
El stone</w>
F ree</w>
Fouché </w>
Fren ch</w>
Ga onkar</w>
Gar h
Goo ch,</w>
Gro ves,</w>
Gulb is,</w>
Imma di,</w>
Jil ani</w>
L on
h o</w>
Lak ra</w>
Lut bay
Mapots ane</w>
Mo kha
Pav an</w>
Pervai z,</w>
Randha wa,</w>
S urinder</w>
Z av
c t.</w>
critic ism</w>
if f</w>
impres sed</w>
or .</w>
t re
th od</w>
tot al,</w>
up .</w>
Sw ar
oo p</w>
12 .0</w>
19 .</w>
202 5.</w>
2– 1.</w>
Abra hams</w>
Bakh ty
Bakhty ar</w>
Bhu ti
Co ur
Constan tine</w>
Doddaballap ur,</w>
Don ov
Hamilton- Brown,</w>
Hass nain</w>
Hom end
Homend ro</w>
Kab ram
Mad ha
May pri
McK ee
Meredi th,</w>
Murun g
Nussbau mer</w>
Pong olo</w>
Ranedoumoun </w>
Ri ders</w>
Ru ye
Ruye l</w>
Sim et
Stat es</w>
Steven son,</w>
Suli man</w>
Susse x.</w>
Swa ra
Swara jeet</w>
T ony</w>
Ta her</w>
Vand ras
Waq an
Waqan is
Wil t
ak ley</w>
We akley</w>
av al
c .</w>
ch ose</w>
cha ll
es :</w>
f ud
o ured</w>
p ur</w>
per son
pitch .</w>
pos ed</w>
sh ul</w>
shot s</w>
t ally</w>
t rou
tow n</w>
1 ).</w>
10 0
An sh</w>
Apon so</w>
Ari ani</w>
Berm ud
Bill y</w>
Common s</w>
Cumm ing</w>
Dev ender</w>
Dim ba</w>
Divy endra</w>
Donov an,</w>
Dorig a</w>
G TG</w>
Jabark hel</w>
Ketiy age,</w>
Kil a,</w>
Macle od</w>
Me th</w>
Meck iff</w>
Nof al,</w>
Pari k
Pra veen</w>
Provin ce</w>
Samaras ooriya,</w>
Siriward hana</w>
Soren sen,</w>
Sul uo
Tok a,</w>
V athil
Vagh ela,</w>
Vathil a</w>
Whar f</w>
Z is
Zis han</w>
ag </w>
all-ro under
b am,</w>
bat ter.</w>
c ut</w>
edi a</w>
en cou
re 's</w>
recor d.</w>
s ence</w>
ab sence</w>
stum p</w>
there fore</w>
— </w>
( in</w>
(Middlese x)</w>
199 9,</w>
Ale c</w>
Birkensto ck</w>
Bon d,</w>
Bun ge</w>
Dhup er,</w>
Dus ab
Dusab em
Dusabem ung
Floy d</w>
Hamp shire's</w>
Hirus han</w>
Kaham ker</w>
Re ad
Rickel ton</w>
Ro pos
S os
Sang ita</w>
Sar s
Sig ai
Viralili u</w>
Vis hil</w>
Wad kar,</w>
Zeal and
appro ach</w>
arn ing</w>
con fi
dismiss ing</w>
ep ot
f ew
gran d
pri n
qu ite</w>
se v
sp ap
success fully</w>
team mates</w>
th 's</w>
thir d-
ur u
wicketkee per.</w>
17 8</w>
19 4</w>
2 34</w>
4 9
19 6</w>
8 1.
A ,</w>
Ama rasinghe,</w>
Be uge</w>
Bet ts</w>
Bul ow</w>
Can av
Canav arc
Ch en
ma ra</w>
Ka mara</w>
ma ra,</w>
Ka mara,</w>
D har</w>
DK AL</w>
De bab
Debab ra
Debabra ta</w>
Hogg ard,</w>
Hor ro
Kari mi</w>
Karl s
Kirst en</w>
Kla as,</w>
Ma hima</w>
Malay si
Mang r
Mwang i</w>
O ta,</w>
Phi ri,</w>
Pon sford</w>
Poyn ter</w>
Rath i</w>
San vir</w>
Spring er,</w>
Vi mal</w>
Wannin ayake,</w>
Waththa ge</w>
White man</w>
Y ang</w>
att en
b ran
ch es</w>
bowl er's</w>
cer tain</w>
op ted</w>
probab ly</w>
rema in</w>
ub i</w>
H l
Hl ubi</w>
- Car
-Car r
18 2</w>
193 5</w>
197 3</w>
197 7</w>
Bhamb ri,</w>
Brown -Carr
Chi long
Desh pan
Deshpan de,</w>
G overn
Gand hi</w>
Gum y
Gumy usen
His tory</w>
Hu iy
Ju an</w>
Kamungo zi</w>
Kenned y,</w>
Kukik hel</w>
Lathi ef</w>
Lawren son</w>
Madus anka,</w>
Mail ata,</w>
Massi ah</w>
Mb az
Mendon ca</w>
My at,</w>
N MJ</w>
Nyab ela</w>
P ard
Pri est</w>
Raj a,</w>
Re gional</w>
Ru ck</w>
Saj e
Saje dul</w>
Scho or</w>
Si k
Tr ul
V e
Vuniwaq a,</w>
Y u
all .</w>
b ottom</w>
coun ty's</w>
ill on,</w>
low er-
p .</w>
runn ers
schedu led</w>
un der,</w>
2 50</w>
Adhi het
Anir udd
Anirudd ha</w>
Baz il</w>
Behrendor ff,</w>
Bud ay
Chapp le,</w>
Chri sto
D cos
Daeye on</w>
Dharmas ena</w>
Dod son,</w>
Gh ee
Gou w
Gu est</w>
Hor ley</w>
King ston</w>
Korn et</w>
Kuh n</w>
L EV</w>
Liengpras ert</w>
Mas ud,</w>
Meyenbor g</w>
Moko ena,</w>
N el,</w>
P ath
Peder sen</w>
Punchihe wa</w>
S ubb
Sai yed</w>
Tej winder</w>
Tl ali,</w>
at tra
co ach,</w>
contribu tion</w>
d ate</w>
de v
h us
kn ee</w>
me thod</w>
ra bor
Chak rabor
ri eved</w>
spec ta
staf f,</w>
Har d
syst em</w>
tri ed</w>
y outh</w>
17 6</w>
19 9</w>
2016– 17</w>
7 8.
8 7.
Ara s</w>
Borg as,</w>
G ole</w>
Ha oy
Hirus han,</w>
Kan oh,</w>
Kell epot
Khat sh
Klokgiet ers</w>
M Khatsh
M into</w>
Majum der</w>
Man i</w>
Mendon ca,</w>
Must ap
Namib ia</w>
Navg ire,</w>
Ntombiz on
Ntombizon ke</w>
Parad kar</w>
Piole t,</w>
S ti
Savill e,</w>
Si rah</w>
Sun day</w>
Vasav ada,</w>
al o,</w>
am i</w>
de put
em o
Th er
ex ac
f li
impac t</w>
or der.</w>
ou s,</w>
remov ed</w>
ri a,</w>
sh ow</w>
t r
te ach
th en
white wa
z ed</w>
20 1</w>
Arinaitw e,</w>
Co ll</w>
D DP</w>
D ry</w>
Denn is</w>
Desungno en,</w>
G ale</w>
Gi gli
Gora d,</w>
Is ra
K in
Kashy ap</w>
Kumb hare</w>
M B
Maz har
Mazhar ul</w>
Mc Coll</w>
Mu lep
Mustap ha</w>
Pep per</w>
Perma ul,</w>
Pras anth</w>
S ap
Shresh ta,</w>
Sikand er</w>
T ari</w>
U isu
V L</w>
Wat ts,</w>
Wickramasek ara,</w>
Wijerath ne</w>
Z him
Zhim om
at ne</w>
bro ad
cha sed</w>
comm on</w>
count y.</w>
p le
sma ll</w>
193 4</w>
4 3
9 0.
9 2.
Adewoy e,</w>
Ank ole
Ar oob</w>
Bos e</w>
Chi shi</w>
Cleav er</w>
Dad s
He ap,</w>
Jaco b</w>
Kapp agoda</w>
Kushre tha</w>
Lalhmangai ha,</w>
Lancashi re.</w>
Litch field</w>
Mah l
w ana</w>
Mahl ok
Mokha c
Mouts wi</w>
Munoz- Mills,</w>
N q
Nd an
Nel son</w>
New ey</w>
Osterg aard,</w>
Pier re,</w>
S pe
So a
e b</w>
Soa eb</w>
V ol
Vir di,</w>
Wat ts</w>
Won ing</w>
Y il
di ri
Zhu o</w>
ak oon</w>
b ha</w>
bor ough</w>
controversi al</w>
f ing
l un
match- winning</w>
ni s,</w>
o id</w>
pro te
refer red</w>
resul t,</w>
sup er
t est,</w>
wor k
18 1</w>
20 6</w>
8 3.
Ar ua,</w>
Australi a
Bo as</w>
Bo is
Bo ur
Boy agoda,</w>
Feli x</w>
Gibb on,</w>
Gurus inghe,</w>
Isma ila</w>
Jahang ir</w>
Kolcha ram,</w>
Li ons</w>
Mari mu
Marimu thu</w>
Massi ah,</w>
Na th</w>
Naf ay,</w>
Netraval kar,</w>
P ran
Rathnamud ali</w>
Sar vani</w>
Son am</w>
T sole
Ter bl
Terbl anch
Varai ya,</w>
Vik nesh
a hi</w>
ad s</w>
an t,</w>
beli ev
bri ef</w>
cke t</w>
coach .</w>
confir med</w>
de d,</w>
de m
er den</w>
He erden</w>
fast- medium</w>
hand s</w>
lead ership</w>
occur red</w>
ter ing</w>
reg is
v ement</w>
w eek</w>
2020 .</w>
8 0.
Bas har</w>
Bois sev
ESPNcri cinfo</w>
F ame</w>
Faroo q,</w>
Freder ick</w>
Hafiz s,</w>
Ja i</w>
Jen ner</w>
Lo hia</w>
M JM</w>
Mai olo,</w>
Mc Don
McC ord</w>
N il
an tha</w>
Na ing</w>
Nor man</w>
P RP</w>
Rehemt ulla</w>
S ankar</w>
S oo
Shihe po,</w>
Shumb a</w>
Sulai man</w>
Trev or</w>
b ari
o j
ce 's</w>
cinfo .</w>
con vin
di ka,</w>
l .</w>
posi tion.</w>
secon d,</w>
t an,</w>
u wi
ran a,</w>
Kh u
Khu rana,</w>
ran a</w>
19 ,</w>
2 22</w>
Alman ack</w>
Am uge</w>
Am ul
Amul ya</w>
Bas come</w>
Be ard
Bri dge</w>
D ark
D wi
De Silva</w>
Do ria,</w>
Doneath y</w>
E gan,</w>
F ud
Fin al</w>
Gra s
Hamp shire.</w>
Hath wala,</w>
Ito- Davis</w>
Jann atul</w>
Jonat han</w>
Kh og
Khog iy
Ky aw</w>
L uka</w>
Mil antha,</w>
O ala,</w>
Qud dus</w>
Rav en
Sriniv as</w>
Vargh ese</w>
Vas ish
Vi hang
W VD</w>
X en
Xen x
c us
char ge</w>
cl ub,</w>
conc ern
de tail
defen sive</w>
j uni
re por
st er,</w>
K id
top- scored</w>
u te</w>
war m-
year- old</w>
zz aman,</w>
1 1,</w>
19 1</w>
19 3</w>
Abdulkar eem,</w>
Adewoy e</w>
Bule le,</w>
C I</w>
Chand rasinghe,</w>
Cher ri
Des mond</w>
Don a,</w>
Er n
Fitzgeral d,</w>
Fud ad
G him
H ara
Hu o,</w>
I ros
J ele</w>
Jag de
K RP</w>
Kamchomp hu,</w>
Kan ank
Kanank e
Krishnamur thi</w>
Kun num
Kun war,</w>
L op
L ot
Lop am
Lopam ud
Lor d,</w>
Ma ch
Mab ila</w>
McKee gan</w>
Mond ol</w>
Mub arak</w>
Ramha rack,</w>
Reill y,</w>
Ret rieved</w>
Ros han</w>
Shak oor,</w>
Ug arkar</w>
Vis l
Visl apu
W AG</w>
W WAG</w>
Z ot
Zot han
anal ysi
cha rac
co -
is ted</w>
un ded</w>
count ry
eigh th</w>
es ter,</w>
ex am
hon our</w>
i .
larg est</w>
m et
rank </w>
re ve
ros pe
s essi
( )</w>
19 21</w>
194 7</w>
197 8</w>
20 9</w>
A mal</w>
Anik et</w>
Cal itz,</w>
Chingai pe</w>
Dar ley</w>
Di ran
Emi rates</w>
Erdenebul gan</w>
Groo th,</w>
Hem ang</w>
L ai</w>
M am
MacDonal d</w>
Mar uma,</w>
Mar x</w>
McKen na,</w>
Men aria</w>
Mi ah</w>
Mil on,</w>
Mul hov
O f</w>
Olli ver</w>
Pill ay,</w>
Pra st
Punj ab
Sa gh
Samantra y</w>
Sand y,</w>
Senokwan e,</w>
Shann on,</w>
Ty ler,</w>
Veringmei er,</w>
Win ter,</w>
cke ,</w>
d ry</w>
dist in
em ber,</w>
examp le,</w>
ha mad,</w>
inter est</w>
ma jo
mo ther</w>
new spap
on d</w>
organ is
per man
pro c
thin k</w>
y un</w>
ye d,</w>
5 ).</w>
A hamad,</w>
Argyrop oulou,</w>
Bal jit</w>
Boo th,</w>
Corn all,</w>
Ek ani</w>
Faz al</w>
Haoy e</w>
Kato-Staf ford</w>
Le eson,</w>
Martin ez,</w>
Mu had
Muhad di
Nag a
Niyomuho za,</w>
P O</w>
Pard o
Pill ai</w>
Pre m,</w>
Riz vi</w>
S por
Sam eera</w>
Sar ro</w>
Sha hi</w>
Subraman ian</w>
Sun </w>
Thad ani</w>
Tri sc
Vervitsi oti</w>
Yusu f,</w>
an ia,</w>
colle ag
d own
ele ven
ext rem
i ri,</w>
ib ar</w>
origin al</w>
pp er
summ er.</w>
ti tle.</w>
ty pe</w>
victo ri
warm- up</w>
) :</w>
16 ,</w>
9 4.
Ash t
Asht uti</w>
Challeng ers</w>
Co leman,</w>
D ue</w>
Dhad wal,</w>
Distri cts</w>
Eseig be,</w>
For eman</w>
Gow er</w>
Gra mm
Gur uge,</w>
Kha ibar</w>
M E
Madu ranga</w>
Motl anka</w>
Mpof u,</w>
Naga ho</w>
Nas eem,</w>
Nay u
Pi tcher</w>
Pod dar</w>
Py rah,</w>
Raj e</w>
Raven sc
S aw
e h</w>
S ee
S ew
Shama s,</w>
T O</w>
Ther on,</w>
Wik im
Wikim edia</w>
Z ay
accep ted</w>
al ity</w>
deliveri es.</w>
doub le-
e ja,</w>
Jun eja,</w>
long -
milli on</w>
per son</w>
pit al</w>
six teen</w>
stitu te</w>
tac tics</w>
te t</w>
thr owing</w>
wa lk
196 4</w>
6 ).</w>
Abeyrath na</w>
Ade kun
Agat ha,</w>
BCC I</w>
Boll inger,</w>
Cey lon</w>
Dav ison,</w>
Eas tern</w>
F JM</w>
Frohnma yer</w>
Gu ha</w>
Guj ara
Humphrey s,</w>
Johns-Wick berg</w>
K B
Lat in</w>
Marilli er</w>
Mell or,</w>
Mi dw
Mut ti
Mutti ah</w>
N adk
Nadk arn
Ne el
Pe ace</w>
Podosk y,</w>
S em
bu k
Sad un</w>
So e,</w>
Wis eman</w>
euten ant</w>
fac t</w>
fin als.</w>
l ish</w>
m es
promin ent</w>
trav elled</w>
13 ,</w>
18 8</w>
195 6</w>
20 8</w>
Am arj
Amarj arg
COVID -19</w>
Camer on-
Cardos o,</w>
Carlis le,</w>
Eli te</w>
Europe an</w>
F am
For shaw</w>
Gang ta,</w>
Gul ati</w>
HM CB</w>
J is
Kamun ya,</w>
Kub ota</w>
Lalhruaiz ela,</w>
Lee ch,</w>
Li bur
Macdonal d,</w>
McBri de,</w>
Moham edi,</w>
N or</w>
Nitsch ke,</w>
No .</w>
No or
Qeshi le,</w>
R oul
Ross i,</w>
S am</w>
Sab nam</w>
Sai yed,</w>
Sar ma,</w>
Slebs ager</w>
Sulli van,</w>
Tasman- Jones,</w>
Trisc ari</w>
Venkatara m</w>
Wal ters,</w>
Willi s,</w>
a un
again ,</w>
asi m,</w>
captainc y.</w>
des ign
gener al</w>
gre w</w>
iy ah</w>
me ans</w>
partic ular</w>
s ley</w>
some thing</w>
suffer ing</w>
tain ing</w>
ung a</w>
1 1.0</w>
Any ai
App u
Appu ham
Archi ved</w>
Bab y</w>
Bri sto
Diss anayake,</w>
Duck worth,</w>
Gang an
Geri cke,</w>
Iz atullah</w>
Jayal ath,</w>
Jis han</w>
K esw
KB AK</w>
Kamunhukam we,</w>
Karmachar ya</w>
Ling en</w>
Madu ranga,</w>
Maypri ani</w>
Mi hus
Mihus an</w>
Nil ansh</w>
O ye
Odg ers,</w>
Raz wan,</w>
San iyah</w>
Si x
Sy mes,</w>
Tashk off</w>
Too le,</w>
Ushetti ge</w>
Vai bha
Vaibha v</w>
ad if</w>
N adif</w>
all ow</w>
chi ef</w>
fo unded</w>
hi g</w>
Tw o
Two hig</w>
majo rity</w>
mem ber
mos tly</w>
ou si
p li
pr omp
r hy
set ting</w>
sh own</w>
un ion</w>
( and</w>
1 ),</w>
8 2.
8 9.
A af
Aaf tab</w>
Ag ra
Anj ula,</w>
Be g
Daw lat
Den ish</w>
G r
Gueho ada</w>
Heading ley</w>
How </w>
Lim bad
Majum dar</w>
Meh er
Mondl ane,</w>
Muj t
Mujt aba</w>
O' Sullivan</w>
Sagh ir</w>
Sale kar</w>
Seri es.</w>
Sha bal
Simet u</w>
U -19</w>
U ra</w>
Us eni,</w>
W KD</w>
Y on</w>
Zi a,</w>
an tly</w>
ces s
ar y.</w>
col on
de va,</w>
e )</w>
ex pres
h ya</w>
ham .</w>
inclu des</w>
j ee</w>
quali fic
seas on
succes s,</w>
ty pi
wri ter</w>
z ul
1 1.</w>
194 6</w>
2 ).</w>
20 5</w>
7 9.
An ti
Ay annai
C ham</w>
Chakrabor ty</w>
Chet ty</w>
D zul
Davidson- Sol
Dzul fi
Fi tch
Gali em,</w>
Ghall ey,</w>
Gil bert</w>
Hrido y</w>
Hy der,</w>
Kaleem ullah,</w>
Limdawa la</w>
Mahro ur,</w>
Martind ale,</w>
Modis e,</w>
N ye
Nai b,</w>
Nascimen to</w>
Nye ing</w>
P rof
Perri n</w>
Ra f
S oysa</w>
Samany ika</w>
Sartha k</w>
Sen has,</w>
Shiv endra</w>
Sing ha</w>
Somer set.</w>
T or
Tri -
Turki ch,</w>
V .</w>
Warri c
Warric an,</w>
ar gu
au tho
bri ef
c ost</w>
dd y</w>
extra </w>
scor e.</w>
y :</w>
15 ,</w>
19 28</w>
193 3</w>
2 40</w>
3 3.</w>
7 -
3 2
3 9
Abhi man
Abhiman yu</w>
Amarn ath</w>
Bang ura</w>
Beh era</w>
Bern ard,</w>
Caw ley</w>
Ch uma,</w>
Chand ila</w>
Chin awa,</w>
Dim ba,</w>
F F</w>
Frank ,</w>
Ghee wala</w>
Holl ard</w>
Jas on</w>
Kam ini,</w>
Kas sel
Kellepot ha</w>
Kod ali,</w>
L HD</w>
L ell
Lahir u,</w>
M FD</w>
ME MO</w>
McCull ough</w>
Mo or</w>
Mu ir
N j
Nj or
Njor og
Q ais
Qais er</w>
R ambal
Ri chi
S port</w>
Scot t-
Uwa se</w>
Wil f
X SD</w>
Z XM</w>
a ay
acc ura
ang ular</w>
bir d,</w>
h old
lo t</w>
reco gni
rel atively</w>
ro und
selecto r
ten n
victo ries</w>
vis ed</w>
wor st</w>
10 ,000</w>
19 s</w>
Afghanist an's</w>
Al um
Ameri can</w>
Ba had
Bangal ore</w>
Dam ini</w>
Hu mai
K aw
s ar</w>
K en</w>
Kaw sar</w>
Keitsem ang</w>
La hor
Lot en,</w>
Lut aay
Mb ida,</w>
McFad yen,</w>
O chan</w>
Pat ank
Patank ar,</w>
Pav li
Pavli ck
Peir son</w>
Penf old,</w>
Phillip ,</w>
Rain bird,</w>
Sanand ia</w>
Scot land,</w>
Sehrawa t,</w>
Shams i,</w>
Sing ha,</w>
Slo b
Slob be</w>
Son g,</w>
Tas n
Wang mo</w>
X </w>
assist ant</w>
av oid</w>
az a,</w>
d istri
ex ten
g ree</w>
h ra,</w>
m ent.</w>
opportuni ties</w>
or thy</w>
play er's</w>
pre -
ar rang
squ are</w>
thir teen</w>
up inder</w>
Bh upinder</w>
v ol
196 6</w>
197 4</w>
7 5.
A chi
Aparaji th</w>
Bar et,</w>
Batis ani,</w>
Beh ind</w>
Cambri dge,</w>
Car ters,</w>
Chow dhar
Copp ack,</w>
Den ny</w>
Du tch</w>
Eseig be</w>
Eti m</w>
Hoo k,</w>
Humai ra</w>
Jayasoori ya</w>
Kim ar
Lam in</w>
Lili' i,</w>
M wi
Manch ester</w>
Mapots ane,</w>
Nath wani</w>
Ne hra,</w>
O ala</w>
Q asim,</w>
Sad un,</w>
San war</w>
Sha li
Sukuma ran,</w>
Sur yan
Suryan sh</w>
T un
c liffe</w>
Thanikaitha san</w>
V are</w>
Vi gn
Vi ra,</w>
ad mitted</w>
an t
bir th
bowl s</w>
car ried</w>
correc t</w>
detail s</w>
dis appoin
ha t
A p
he k
il .</w>
journ alist</w>
jud ged</w>
m ar,</w>
o b</w>
re port</w>
second- highest</w>
stump s.</w>
tenn is</w>
vill e</w>
0 ).</w>
16 .</w>
Be an</w>
Bur han</w>
Cen gi
Coom be</w>
Daff ara,</w>
E den</w>
G HV</w>
Gun asinghe,</w>
Gun asinghe</w>
He ctor</w>
Hen ri</w>
Kanan ji,</w>
Khajuri a,</w>
Kuk re
L ama
Man id
Me yer</w>
Muri y
R OL</w>
Richi e</w>
Sab ir,</w>
Sav vani</w>
Sem buk
Sembuk ut
Sembukut ti
Sis if
Sri vastava,</w>
Suha il</w>
Wa les.</w>
an ish,</w>
Di anish,</w>
can cell
f os
increas ed</w>
ingh </w>
Bha s
Bhas in,</w>
it y.</w>
ul in
P ulin
Pulin du</w>
ll ah,</w>
lo ri
mat ely</w>
n et
o ka</w>
tele vision</w>
versi on</w>
3 6
Abra ash</w>
Cl as
Cl ose</w>
Contro l</w>
Di as</w>
G V</w>
H GV</w>
Himal ay</w>
Jer emi
Ji won</w>
Mgiji ma,</w>
Moham ed,</w>
Mud has
Nig am</w>
Ramamoor thy</w>
Rev a,</w>
Sai di,</w>
Sal vin</w>
Sh er,</w>
Shali th</w>
Shilling ford,</w>
W and
WPU </w>
Zhu o,</w>
Zhu wa
concl usion</w>
f alling</w>
g y</w>
ill eg
lat er.</w>
le y.</w>
n at</w>
re ally</w>
sport s
stri k
te s.</w>
ti tu
{ \
( C
S K
D T</w>
SK DT</w>
18 5</w>
2– 0.</w>
6 6.
A ik
Abeg a</w>
Amsterd am,</w>
Bl ag
Dudge on</w>
Her t
Kh oj
Khoj bari
Ko bel
Kulum e,</w>
Lawl or</w>
M ember</w>
Mano ha
Mun im</w>
Mutombod zi,</w>
Que en
Que en's</w>
Sandar u,</w>
So ra
Somerset 's</w>
Tele mach
Unn i,</w>
Vessi k</w>
Vin oop</w>
Viyask anth,</w>
Z one</w>
Zul ai
a f</w>
am oun
cele bra
draw n.</w>
first-clas s,</w>
forma t.</w>
h san,</w>
I hsan,</w>
histo ry,</w>
i ti
inv ited</w>
l og
mi x
res erve</w>
us hant</w>
" )</w>
18 ,</w>
196 5</w>
A no
Abeys inghe,</w>
Aik en
Bess ala,</w>
Chen tha
Gurun g,</w>
H tet</w>
Ha ckn
He ap</w>
Kande la</w>
Ker ry</w>
Kuyate h</w>
Ma cha
Makhan ya</w>
Mand hy
Mandhy an,</w>
Nagav kar,</w>
Nuntara ch</w>
O ut
re ach</w>
Pan war</w>
Pand rekar</w>
R est</w>
Ropos o</w>
Sho to
Shoto ro
T ru
Vislapu u</w>
Win da</w>
Y os
b le,</w>
bri lli
co vered</w>
comm ented</w>
contin ental</w>
d ".</w>
a ce
de gree</w>
encou rag
f r
fav ou
first- innings</w>
heav ily</w>
id o</w>
mon ey</w>
ra h
step ped</w>
u mal</w>
" one</w>
10 00</w>
199 9.</w>
Am er
An ish</w>
Bill cli
Ch ur
Chig ora</w>
D hir,</w>
Dharm ang</w>
Di g
Dra ca</w>
G ain,</w>
Ge off
re y.</w>
Sur rey.</w>
Hall o
Hathinj ar,</w>
Jan ik,</w>
Jarj u</w>
K HM</w>
Kait ano,</w>
Kha b
L ong
M .
Mell y,</w>
Mgiji ma</w>
O' Hallo
R ew</w>
Ri t
Seban ja,</w>
Sik der</w>
T20I s.</w>
Tangu y</w>
Xenx e</w>
Y al
in di</w>
Kav indi</w>
bats men,</w>
di e,</w>
e ".</w>
e "</w>
R ou
fif teen</w>
runners -up</w>
sli p</w>
writ ten</w>
( W
19 29</w>
197 0</w>
2 46</w>
3 ).</w>
A ir</w>
Bac ar
C KB</w>
Chatter go
Dawlat zai</w>
Fero za,</w>
H ough
Had le
Hil ton,</w>
Jayas und
Ker ai</w>
Ki lic</w>
Lond on.</w>
M KB</w>
E MKB</w>
MK DI</w>
Mny aka</w>
Ox ford,</w>
P essi
Pi ety,</w>
Pock lington</w>
Pra ty
Praty ush</w>
Q LM</w>
Scan lon</w>
Senamont ree,</w>
Shara th,</w>
Sol way,</w>
Staf fordshire</w>
Swar up
Tu ray</w>
Verreyn ne</w>
Vign esh</w>
aband oned</w>
auto biogra
chil dren</w>
p ull
sw ee
ul t
15 .</w>
17 ,</w>
196 8</w>
2– 0</w>
7 4.
Ang ele
Bars by,</w>
C ann,</w>
Dau d,</w>
Der ek</w>
Hay atullah</w>
Induwa ra</w>
J em
Jai k
K TK</w>
Ka il,</w>
Kshi tiz</w>
Mahlok wana</w>
Nidaman uru</w>
Roy als</w>
Sha stri
Strou d</w>
Th el
Za hiri</w>
am ongst</w>
an -
Fit z
attemp ting</w>
bats men.</w>
ham 's</w>
i o</w>
larg ely</w>
n eg
om it
p ha</w>
ri na</w>
K at
Y us
s ."</w>
s low
se ka,</w>
F on
Fon seka,</w>
spe ed</w>
t az</w>
M um
Mum taz</w>
8 6.
9 3.
Ale mao</w>
Banuna ek,</w>
Cas tin
ra s,</w>
Castin ei
Cel e</w>
Chakab va</w>
D agar,</w>
Dham ba</w>
Hemph rey</w>
Hi der,</w>
Iwas aki,</w>
Ken y
Kos ki,</w>
Krishnam o
Lenno x,</w>
Lili' i</w>
Mac al
McGu ire,</w>
Murdo ch</w>
P urk
Pat and
Pedd rick</w>
Pom are,</w>
Purk ay
Purkay as
Sab u</w>
Saranonnakk un,</w>
Sengup ta</w>
Shafiq ue</w>
Swarup am</w>
Tall on</w>
Wai tha
Waqavakato ga,</w>
de mi
er y,</w>
feat ure</w>
in ation</w>
ko vic,</w>
le mi
Ma lemi
mean ing</w>
oo k</w>
p un
pot ential</w>
prev ented</w>
res ign
se k</w>
ur el</w>
18 7</w>
198 0</w>
2 13</w>
2 27</w>
Anj um,</w>
Beard man</w>
Breetz ke</w>
C otto
Caru ana,</w>
Chentha mara</w>
Christo pher</w>
Cuinic a,</w>
Dow lin,</w>
Eri c</w>
Far z
G KR</w>
Hatch er,</w>
Khull ar</w>
Kunnum mal,</w>
L EK</w>
Lama bam</w>
Lo ic</w>
Mai olo</w>
Mathew ,</w>
McDon ough</w>
Mull an,</w>
Mus sa</w>
Ony ango</w>
Pra mo
Pramo d</w>
Q azi</w>
Rahimze i</w>
Sam ar</w>
Shanmug an
Shanmugan at
Shre w
Suchi th,</w>
T ed</w>
Ud awatte,</w>
Vak uru
Vakuru i
Vakurui val
Victori a,</w>
Wag staff,</w>
Y D</w>
Ya ak
Yus rina</w>
Z in
ati j
M atij
Matij evi
circ um
f ather
fig ur
foll ow</w>
for ward</w>
in ind
G inind
le m
pres ent</w>
ref ers</w>
s j
sk i</w>
ten th</w>
w ard,</w>
(ICC )</w>
196 1</w>
199 8.</w>
1– 0</w>
2 52</w>
AU K
AUK DS</w>
Abhi l
Abhil ash</w>
B udd
Baal eri,</w>
Bich el,</w>
Cot ter,</w>
Dhan i
Dhani ram,</w>
Dhr ushant</w>
Es am</w>
Farz an</w>
Fen by</w>
Gumyusen ge,</w>
Hasee b
Haseeb ullah</w>
Hay ati</w>
Island s</w>
Jayawickra ma,</w>
Kheter pal,</w>
Kunco va</w>
M FM</w>
Mak ri,</w>
Mak usha</w>
Mi zan
Mizan ur</w>
Mujeeb -ur-Rehman,</w>
N FI</w>
O T</w>
P eel</w>
Pat rick</w>
Provin cial</w>
Radhak rishnan,</w>
Re es,</w>
Riz pha</w>
Rou x,</w>
Sad amali</w>
Shang as
Shangas e,</w>
Shar p,</w>
St ri
Su ri</w>
Su yal</w>
Tomm y,</w>
Trul off,</w>
Veerapathi ran,</w>
Y og
awat te</w>
b al</w>
brief ly</w>
cre ated</w>
deliver ed</w>
end ran</w>
enk amp
ford shire.</w>
high -
s ure</w>
pres sure</w>
invol ving</w>
k sha
ma ster</w>
pow er</w>
prom o
ra in-
c ated</w>
j u
res our
reve aled</w>
shor t-
succes s.</w>
vi c
19 7</w>
193 6</w>
197 6</w>
Al ta</w>
Ari unt
Aspin wall,</w>
Ba is
Baal eri</w>
Bais ya,</w>
Ben ton</w>
Berk shire</w>
Bha ksha
Bri tt,</w>
Bus ing
Dhavin a</w>
Do ram</w>
Dy son</w>
Ew ing</w>
Fitz pat
Georg ota,</w>
H ok
Hos kin</w>
K ran
Ken t.</w>
Ki zi
L af
MA LR</w>
Ma ck</w>
Muk udde
Murr om
N dw
Ndw and
Ong ondo,</w>
Pathi ra
Pi ety</w>
Pra full
R em
Ru i
Rui ke</w>
Sran deva</w>
Suluo to,</w>
Sur esh</w>
Suwanchonra thi,</w>
Th u,</w>
Tse po</w>
Vujinovi ch</w>
Zhou ,</w>
ad u
amb a,</w>
bat ter,</w>
c up</w>
d "</w>
s ou
d ary</w>
den otes</w>
effor t</w>
enkamp ,</w>
ent ly,</w>
ext ended</w>
fer ence</w>
hold ing</w>
ing s,</w>
k ra
s t.</w>
w rist</w>
195 0</w>
201 1–
4 ).</w>
Aar on,</w>
Aoin a</w>
B omm
Beuk es,</w>
Bomm are
Bracke n,</w>
Burn ham</w>
Co y,</w>
Dar rell</w>
Dev ent
Devent er,</w>
Edg ar,</w>
F RJ</w>
Ged des</w>
Jo bar
Jobar te
Jun </w>
Karls son</w>
Kran thi</w>
Krishnamo orthy</w>
Kulkarn i,</w>
L AR</w>
Lal n
i ma</w>
Lang ridge</w>
Mar e,</w>
Mc Coy,</w>
Muir head</w>
N ars
Obu k
Pub l
Ri twi
Ritwi k</w>
Senarath ne,</w>
Sho keen</w>
T emb
Thil akaratne,</w>
Wuland ari,</w>
Y ab
bi gg
com eb
com mon
go al</w>
j us
qu es</w>
stand ard</w>
ther ton</w>
u ded</w>
wa sa,</w>
195 4</w>
20 7</w>
AU K</w>
Abeyrat ne</w>
Aj it</w>
Atapatt u</w>
Ban deep</w>
Bhan u</w>
C JO</w>
Cap tain</w>
Dun uk
Dunuk e
Dunuke deni
Fir st-
Gol am
Hitch cock</w>
Hubb ard</w>
Hy un
Hyun w
Jayas ena,</w>
Jo y</w>
Kashi f,</w>
Ke is
Le n</w>
Lu ff</w>
Mbaz o,</w>
Meiyapp an,</w>
Mo gan</w>
Moon sam
Nars ingh</w>
Para mi
Pathiran nehelage</w>
Rahimze i,</w>
Ramanand i</w>
Sad ran</w>
Sar raf
Sarraf ,</w>
Shri vastava,</w>
Sim ango</w>
Sut ton</w>
Tan bir</w>
Tuff ey,</w>
Vihang a</w>
Vukus ic,</w>
Wa gh
analysi s</w>
boo </w>
cricke ter
d ;</w>
day 's</w>
de kar</w>
e di</w>
fav our</w>
he alth</w>
lb w</w>
li ving</w>
nehel age,</w>
particip ated</w>
per cent
restri cted</w>
sel f</w>
we ather</w>
1 20.
A ve</w>
Amer asinghe</w>
Anyai t</w>
Av n
Avn eesh</w>
Az mi,</w>
Ball inger,</w>
Bi j
Bodenste in,</w>
Brad man,</w>
D AL</w>
Edgbas ton</w>
Ek nath</w>
Ern est</w>
F lori
Gaik wad</w>
Gal ab
Gu ido</w>
Has nat</w>
Hi ri</w>
Iosef o</w>
Kal uwi
Kaluwi tha
Keis hang
Lang lon
Langlon y
Langlony amba</w>
Lat egan,</w>
Mad ara</w>
Madus han</w>
Mahara sh
Mas ter,</w>
Me it
Meit an</w>
Nat al</w>
Ndwand wa</w>
Nt uli</w>
P uri,</w>
Paranavit hana,</w>
Pran shu</w>
Ram ela,</w>
Ramab itsa</w>
Sa eng
Saeng s
Saengs aka
Sars field</w>
Schul tz</w>
Tuff in</w>
Vid ler</w>
Zar oo,</w>
Zin ai
Zinai da</w>
Zothan s
ang shu</w>
A mi
arri ved</w>
c alen
cap ped</w>
con ven
di es</w>
end on</w>
four teen</w>
g .</w>
ish ka,</w>
je ct</w>
m od
ma x
offici ally</w>
pitch ,</w>
roo m</w>
tempora ry</w>
vis iting</w>
w ards</w>
wa s,</w>
196 7</w>
40 .0</w>
A an
Aan shul</w>
Ami angshu</w>
Anafi e</w>
Ath is
Athis ay
Athisay araj</w>
Atk ins,</w>
Av ishek</w>
Ay e</w>
B og
u ra,</w>
Bang ura,</w>
Buchan an</w>
Dh ull
Dhull ,</w>
E fos
E ranga,</w>
F E</w>
Fri end</w>
Gom es,</w>
H us
Hok ai
Hokai to</w>
In ak
Kar ma</w>
Mack in</w>
McGlas han</w>
Mo di,</w>
Muliv ai</w>
Ni h
P ond
P ye
Pow ar,</w>
Rama ut
Sak et</w>
Se ung
Seung min</w>
Transv aal</w>
Ul- Haq</w>
Uwa ma
Uwama hor
Wand er
War .</w>
Whar ton</w>
Youn is,</w>
ard ing</w>
attemp ted</w>
empl oyed</w>
en ces</w>
en tered</w>
fa cto
few er</w>
forma tion</w>
indi cat
li e,</w>
lower- order</w>
ma ine,</w>
n eed</w>
pan demi
q i,</w>
set tled</w>
, "</w>
13 3.
196 9</w>
3– 0</w>
9 1.
2 5.</w>
9 6.
Abeyrat ne,</w>
Ah san,</w>
Andre ano</w>
Ano ther</w>
Bevinj e</w>
Bh ula,</w>
Coh en,</w>
Den is</w>
Fack rell,</w>
G ary</w>
Geoff rey</w>
Gloucester shire,</w>
God d
s —
Gqaman e,</w>
Hop kins</w>
Kolcun ova,</w>
L al,</w>
Le fe
Mai ra</w>
Mos es</w>
Nid he
Pi tcher,</w>
Rav u,</w>
Raza -ur-Rehman</w>
Sakurano- Thomas,</w>
Sam e
Saran deva</w>
Sho ib</w>
Sydn ey.</w>
ac cid
b el</w>
bili ty</w>
decl ined</w>
design ated</w>
er den,</w>
He erden,</w>
finan cial</w>
mar ri
ov ,</w>
pl i</w>
ra i</w>
g ha
y am</w>
reg ul
ar s</w>
Q al
Qal and
Qaland ar</w>
ta ir</w>
turn ing</w>
† </w>
' ve</w>
1 14.
193 7</w>
194 9</w>
199 3,</w>
199 8,</w>
2 18</w>
2 30</w>
20 2</w>
Ahu ja</w>
An asim</w>
Atau llah</w>
Ay e,</w>
B aw
Bo as,</w>
Brit ton,</w>
Bud ge,</w>
Dcos ta</w>
Fara s
Garh wal,</w>
Ho bb
Jay asinghe,</w>
Kora lal
Kus ud
Kusud a-
Kusuda- Nair
Lefe b
Lefeb v
Lill ee</w>
Melbourn e.</w>
Mokhac hane</w>
Mulhov o,</w>
Namib i
O'Hallo ran</w>
ODI .</w>
Ro maine,</w>
Same er,</w>
Syl v
T ek
Tcha k
Ti ce</w>
Wannin ayake</w>
all owing</w>
an ts</w>
au ction</w>
el .</w>
full- time</w>
h ot
origin ally</w>
play ed.</w>
pop ul
pri v
at e.</w>
se vent
shoul der</w>
so .</w>
um ul
ut e,</w>
( also</w>
2 26</w>
A RG</w>
An th
Bask aran,</w>
C omb
Chan th
Chip li,</w>
Cho i</w>
E GS</w>
F illi
Gam es</w>
H KP</w>
Inter continental</w>
Inzama m-ul-Haq</w>
Jeremi ah</w>
Kee dy</w>
Kus al</w>
Legaab ile</w>
Madav i</w>
Mal col
Mill ar</w>
Mor ton</w>
Mundund o</w>
Mwang i,</w>
Naq ash,</w>
Nir mana</w>
Nottingham shire,</w>
Ov as
P aw
Parfi tt,</w>
Ras ik</w>
Ras s
Rass ol,</w>
Rub ya</w>
Rup esh</w>
Sat t
Sema u</w>
Sh ur
Sig era,</w>
Thin ley,</w>
Ti ai,</w>
ar tic
c all
confi d
cricke ters.</w>
ee ting</w>
first- choice</w>
in t</w>
mi tt
sur pris
wa i</w>
y il
– 21</w>
12 2.
Abin ash,</w>
Bi za,</w>
Bod yline</w>
Boissev ain</w>
Bre ese,</w>
Cha van</w>
Clay ton</w>
Colomb age</w>
Des hm
Distri ct</w>
Dow se,</w>
English man</w>
Erdenebaat ar</w>
Falcon er</w>
Gal an</w>
Gha di
Gon er
Gur baz</w>
Heenatig ala,</w>
Horro cks</w>
Internation als.</w>
Knigh ts,</w>
Kot u
Kotu we
Kotuwe god
Laln unk
Lalnunk ima</w>
Lang er</w>
Ma ham</w>
Modis e</w>
Nidhe esh</w>
Ol d
Pall ek
on da</w>
Mus onda</w>
Raha yu</w>
Sharj ah</w>
Shur ent
Sos a</w>
Sre ek
Tai de</w>
Tek yil
Tekyil diri
Tournam ent.</w>
Turk men,</w>
Umpi res</w>
Wanji ra</w>
Y ong
Zim mer
Zimbabwe 's</w>
are a</w>
clas si
comp eted</w>
credi ted</w>
deliver y.</w>
e ."</w>
m p
g oo
p av
ra di
record s.</w>
te x
three- match</w>
tw enty
un z
wi fe,</w>
,00 0)</w>
19 19</w>
19 5</w>
193 1</w>
199 7.</w>
2 24</w>
Anan ama
- Br
-Br ere
Ananama -Brere
Ang ela</w>
Av end
Be ji
Berej o,</w>
Buckingham shire</w>
Cand iru</w>
Dar ji</w>
Dul sara,</w>
For mer</w>
Go to,</w>
Gou ge</w>
Gramm ar</w>
Har old</w>
Il ari
Ilari on
J ing</w>
Jal il,</w>
K est
Kab were</w>
Le p
Lon sdale</w>
Lond on,</w>
Mc Ananama-Brere
Mu tiz
Mum ford</w>
O W</w>
Reg ina</w>
Ta run</w>
W ee
ab le,</w>
ev it
all-ro under,</w>
amb o,</w>
dres sing</w>
f eet</w>
fin d</w>
for mat
juni or</w>
k ia</w>
res ted</w>
sai d,</w>
shor tly</w>
stump ing</w>
t z
tu ally</w>
un usual</w>
v ani,</w>
13 .0</w>
19 20</w>
195 3</w>
196 2</w>
199 2,</w>
2 19</w>
6 0
7 0
Aitken-Drum mond,</w>
Ash wani</w>
Bha ti,</w>
Burde kin</w>
Cameron- D
Cameron-D ow</w>
Choudhar y,</w>
Co pe,</w>
Colleg e.</w>
Dar wish</w>
Dark e,</w>
Dougher ty,</w>
Em ily</w>
Fi ras</w>
Fi ve</w>
Gal anis</w>
H ag
Haz are</w>
Kl op
Klop pen
Ko wa</w>
L uka,</w>
Lef aga</w>
Leich er,</w>
Mal avi
Masvau re,</w>
Mc Gar
McLe an</w>
Mohan arang
Musak anda,</w>
Museki wa,</w>
Mutre ja</w>
No jic</w>
O'Rour ke,</w>
Od umbe</w>
Pagydy ala,</w>
Para kra
Qu yn</w>
Ran uka</w>
Sil as,</w>
Subb a</w>
Ta ek
Taek wan</w>
Telemach us</w>
Tenn akoon</w>
Um ang</w>
Welig amage</w>
Yuz hi</w>
Z i</w>
d ang
de z
en g,</w>
ha lie</w>
hi ta</w>
ik ar,</w>
loo king</w>
p end
ra ge</w>
se para
sha ring</w>
st ayed</w>
stump s,</w>
ti k,</w>
Kar tik,</w>
u k,</w>
1 12.
189 9</w>
199 4,</w>
199 6.</w>
2 64</w>
2– 1</w>
9 5.
A TS</w>
A ji
Aar ti</w>
Adelai de,</w>
Ag afi
Agafi li,</w>
Bang ar</w>
Buck ingham,</w>
Chudas ama,</w>
D and
Dou ma</w>
Dwi vedi,</w>
F ub
Far ley,</w>
Gat ting</w>
Gwan zu
Gwanzu ra,</w>
Hal bha
Huiy ing</w>
L ad
L in,</w>
Lang a</w>
Li dd
Lidd le,</w>
Mah boo
Mahboo b,</w>
N un
Ny ak
Oli ver</w>
Pat wa</w>
Pei ris,</w>
Pok ana,</w>
Prim e</w>
Qu ai
Sadarang ani,</w>
Se dez
Sedez halie</w>
Tha mara
Thamara ik
Tim es</w>
To ka</w>
V ee
ti l</w>
Y ong</w>
aw ards</w>
b ia</w>
bel ow</w>
bha i</w>
e cess
ec u
effe ctively</w>
f all</w>
fitn ess</w>
m ent
n ecess
n or</w>
or 's</w>
ovi c,</w>
penal ty</w>
re s.</w>
releas e</w>
shi d</w>
stu died</w>
tch ed</w>
tes ted</w>
vers us</w>
wicket-kee pers</w>
' ,</w>
1 18.
10 4.
9 7.
9 8.
Adam a</w>
Am l
Appuham i</w>
Bakh ti
Bakhti ar</w>
C MG</w>
Cat ton,</w>
D JJ</w>
D ib
E ton</w>
Elizab eth</w>
Fazacker ley</w>
G ee
Hay don</w>
Ja c
K LD</w>
Kil co</w>
Ma ev
Man y</w>
Mo ond
Nayu du</w>
Nes tor,</w>
Nix on</w>
Quad ri</w>
R S
Ras o,</w>
Rath va,</w>
Ri ya</w>
S DJJ</w>
S ood</w>
Sin field</w>
Sto cks</w>
Sun ris
Ta i</w>
Wagh mo
Wangch uk,</w>
White house</w>
Y all
Yama shi
Zim unu</w>
a jit</w>
atten tion</w>
calen dar</w>
circum stan
draf ted</w>
ff ol
Su ffol
gra mm
h or</w>
Mo hor</w>
j ay</w>
las ted</w>
mi litary</w>
nomin ated</w>
oun d
pub lic
quar ter-
rah man</w>
re place</w>
was n't</w>
wicket-kee ping</w>
y ali,</w>
195 2</w>
195 9</w>
2015– 16</w>
Afric ans</w>
Atha path
Bor der
Buday air,</w>
Bur uka</w>
Cap it
Comb ined</w>
E dn
Fre y
Fub ler</w>
Ingab ire,</w>
Jas ani,</w>
Kananke ge</w>
Li li,</w>
Lill y
Mahamal age,</w>
Mathi as,</w>
Me ad</w>
Na ji
Nev ill</w>
O ffi
Pathi rat
Per kins</w>
Pond ani</w>
Pra chi</w>
Pras har</w>
Pushpakuma ra,</w>
Ragh un
Ras ik,</w>
Re es</w>
Sab u,</w>
Sha ik</w>
Sho rif
Shorif a</w>
Soh ra
Sohra ab</w>
Subra yen,</w>
Sum anth,</w>
T KP</w>
T riffi
To le
Tse man
Tsole ki
Tsoleki le,</w>
cap able</w>
children .</w>
count ry.</w>
determin ed</w>
equ alled</w>
exac tly</w>
fo und
i q</w>
inde pend
main tained</w>
manag ing</w>
mat ullah,</w>
multi ple</w>
ni ck
ol der</w>
on e.</w>
q ur</w>
s u,</w>
Or su,</w>
te dly</w>
tes t.</w>
two- year</w>
w ant</w>
wicket-kee per
( with</w>
- over</w>
1 16.
10 8.
199 7,</w>
4 6
Adekun le</w>
Alum o</w>
Basti amp
Bastiamp ill
Bow e</w>
Car r</w>
Cham to</w>
Choudh ry,</w>
D VD</w>
Daw kins,</w>
Do ria</w>
Hemanand a,</w>
Hor ne</w>
In tan,</w>
Jan ik</w>
John s,</w>
Ka is
Karann agoda,</w>
Kid d</w>
Kirschbau m,</w>
Koll a</w>
Lin ks</w>
Lutbay ar</w>
Mudhas ir</w>
Mus l
My ers</w>
No ah</w>
O pper
OD Is
Pra di
Pra g
Pra man
Pradi p
Pradip ta</w>
Pustha y</w>
Raj an,</w>
Rath our,</w>
Re c
Riy aa</w>
Shin wari,</w>
Sud ars
Sudars an
T I
Vuniwaq a</w>
W GRL</w>
Wij en
Z eshan</w>
al an</w>
and er,</w>
ap ati</w>
bat s</w>
ci pl
cke y,</w>
cle ar</w>
consist ently</w>
contro l</w>
el op
ha ps</w>
han t
ho ur</w>
i oy
Ab ioy
l oss
lead .</w>
not ably</w>
obitu ary</w>
par ents</w>
stand s</w>
stra te
th em,</w>
the -
- of-
un an</w>
8 ).</w>
Ankole kar</w>
Benat ar,</w>
Bij ey
Bijey ata</w>
Bra y,</w>
Coul ter</w>
D ey</w>
Daeye on,</w>
Dev eraj</w>
Ebank s,</w>
Gali a,</w>
Isra r</w>
Jang id,</w>
K r
Kavana gh</w>
Li mem
Limem a</w>
Lo ch</w>
M y</w>
Magai a</w>
Mah esh
Mat shi
Mon ib,</w>
Nadkarn i,</w>
Nix on,</w>
Nuntara ch,</w>
Or r</w>
P ap
Patt nai
S FS</w>
Sand esh,</w>
Sen n,</w>
Sur ve</w>
Takad a</w>
Thu chi
Wad uge,</w>
Weto to,</w>
You th</w>
ak umar,</w>
cent ur
e dge</w>
effe ct</w>
effor ts</w>
ele v
es t-
ev ent</w>
hon orary</w>
p ond
p ool</w>
ra tion</w>
re cent
spe cul
10 2.
10 5.
19 14</w>
190 2</w>
2 70</w>
Anirud ha,</w>
Ayy az</w>
Benat ar</w>
Bir ch,</w>
Bl ows</w>
Bos co</w>
Brown-Carr era</w>
Car di
Cou ch,</w>
D own</w>
Den mark
E ar
Fer dus</w>
Ferra by,</w>
Filli e</w>
Fudad in,</w>
Gigli o</w>
Hak am</w>
J uma,</w>
Jaarsvel d</w>
Kabram bam</w>
Kan war,</w>
Kassel man,</w>
Ker shaw,</w>
Kir by,</w>
Kizi to</w>
Kr vari
Kushwa h,</w>
Mad ub
Madub as
Malcol m</w>
Man ley,</w>
Mondl ane</w>
Nay yer,</w>
Nor wi
Rahm ani</w>
Sal om
Sembukutti ge,</w>
Soura bh</w>
Sunris ers</w>
T RA</w>
Th ong
Tri n
Yous af</w>
amate ur
bats man
educ ation</w>
em ents</w>
ever y
he art</w>
m eeting</w>
min imum</w>
mis se
o i</w>
peri od,</w>
ra rely</w>
rem ember
s af
spi ri
spin .</w>
th ous
uk un
10 7.
17 .</w>
193 9</w>
2 11</w>
2 25</w>
2 37</w>
8 0
Agra wal</w>
Aiken head,</w>
Ak en
Akhig be</w>
Augus t,</w>
Ch uma</w>
Colomb o</w>
D SF</w>
Dar ren</w>
Fi da</w>
For eman,</w>
Gu yan
Han if</w>
He al</w>
Ibra r</w>
J OP</w>
Jann adi
Jannadi ah</w>
Kark i</w>
Laugh lin,</w>
M auri
Mak er,</w>
Mpe di</w>
Nichol as,</w>
Nk ala</w>
Pan war,</w>
Phi l</w>
Rabb j
Rabbj y
Rabbjy ot</w>
Rath our</w>
Southamp ton</w>
T si
Thel ander,</w>
Tob ago</w>
Tobg ay,</w>
Wak ita</w>
Wanni arachchi,</w>
Willathgamu wa</w>
Y ar,</w>
York shire's</w>
Z uma</w>
Zothans anga</w>
ath .</w>
awa le,</w>
T ak
Tak awale,</w>
comeb ack</w>
et ing</w>
fiel der,</w>
great er</w>
h jit</w>
Suk hjit</w>
in ary</w>
omit ted</w>
p ace.</w>
pre ce
pre ferred</w>
rul e</w>
s ari</w>
st int</w>
th or
(18 5
7 ).</w>
10 3.
6 6.</w>
Ahma di,</w>
Ap sari</w>
Bal eri,</w>
Bik ram
Bra n
Bul ow,</w>
C ity</w>
Chande la,</w>
Dand ap
Ek ani,</w>
Em pire</w>
Flor os,</w>
G opal,</w>
G oul
Go on
Gouw s</w>
Hatch man,</w>
Jon te</w>
Kai a</w>
Ke ar
Malavi arachchi</w>
McC re
Ntambal ika</w>
RM AU</w>
Raj endran</w>
S YD</w>
S an,</w>
Shabal ala,</w>
Sherid an,</w>
Shin de</w>
Siss ako</w>
T ast
Uday anga,</w>
Valtha ty</w>
Wether all,</w>
Whi tt
Wij ew
Zh eng</w>
a hi,</w>
acc used</w>
ar chi
ath le
c ast</w>
comment ary</w>
fo cus</w>
ligh tly</w>
os ed</w>
posi tions</w>
ret ain</w>
th row
w r
well -
190 0</w>
2 36</w>
A RA</w>
Adhihet ty,</w>
An uk</w>
Awa s
Bea ton,</w>
Bikram kumar</w>
D YA</w>
Des car
Deshm ukh</w>
Dra ke</w>
Du ke</w>
Esse x,</w>
F DW</w>
F ow
Fitch et,</w>
Fre y,</w>
G erk
G roup</w>
Gre at</w>
Gre e
Gu yana</w>
Gujara t</w>
Hyat t</w>
K ank
L O</w>
Limbad a,</w>
Ma lef
Mara k</w>
Masek esa</w>
Matshi kwe</w>
Se bas
Sebas ti
Selv araj</w>
Shash wat</w>
Si x</w>
Syl via</w>
Tobg ay</w>
Uni on</w>
Vi v</w>
associ ation</w>
at eral</w>
b il
ation s.</w>
boun c
competi tive</w>
ib le</w>
it sa,</w>
on s
seri ous</w>
strugg ling</w>
sub stan
sur g
t est
ung a,</w>
w inn
we ak
wor ks</w>
y ond</w>
190 9</w>
2 29</w>
2 33</w>
2 54</w>
2 88</w>
Ag af
Agaf ili</w>
App us
am y</w>
Ar up</w>
Ash es,</w>
Av dy
Avdy l
Badenhor st,</w>
Bi dd
Blag g</w>
Bow den</w>
C umber
Cut ler</w>
D ak
Dal gaard</w>
Fi za,</w>
Hi mal</w>
Ht un,</w>
Husse in</w>
Lutaay a,</w>
MKhatsh wa</w>
Malemi kia</w>
Mas ud</w>
Mc Gill,</w>
Mil ton,</w>
Min has</w>
Modg il,</w>
O bul
P os
Pra d
Pro ctor</w>
Ran jeet</w>
Scho les,</w>
Sha wa
Steph en,</w>
T os
Tes ari
Th ok
Thok ch
Var te</w>
ak od
Jay akod
bat ter's</w>
boundari es</w>
di be,</w>
e ze</w>
el im
it y,</w>
k .</w>
o ri
or l
ch in
Me d
ran jeet</w>
Cha ranjeet</w>
st ring</w>
sub ur
12 3.
19 10</w>
19 26</w>
2 20</w>
2 38</w>
Al- Amin,</w>
Am arm
Amarm end</w>
Amus a</w>
App anna</w>
Bidais ee</w>
Bre wer</w>
Castinei ras,</w>
Chilong ia</w>
Dads well,</w>
Den mark</w>
Dre w</w>
Dun e
Ev en</w>
Fran ci
Gi rish</w>
Gl ad
Good man,</w>
H ML</w>
Hank ins</w>
Hi u</w>
I ,</w>
Jo on,</w>
Mal yun</w>
Mar uma</w>
Moonsam y,</w>
Mun ir,</w>
Muz a
Muza hir</w>
Nottingham shire.</w>
O o</w>
Od umb
Odumb e,</w>
P hun
Pardo e,</w>
Phun tsh
Prad esh</w>
Ra il
Rav is
Re id</w>
Redmay ne</w>
Reing old,</w>
Saran sh</w>
Sath ee
Sathee de
Sedd on</w>
Sol a</w>
Soura v</w>
Suz an</w>
Tendul kar
Turki ch</w>
Victori a.</w>
Waitha ka</w>
Wes ton,</w>
Wijew ard
Win field</w>
augh t</w>
bigg est</w>
bil ateral</w>
bir th</w>
c liffe,</w>
champi ons</w>
d ha,</w>
e eshan,</w>
Man eeshan,</w>
everthe less,</w>
famil y.</w>
inter es
ma kes</w>
pp er,</w>
put ting</w>
respon se</w>
so cial</w>
13 .</w>
19 12</w>
2 23</w>
Ad ap
Am ri
An anya</w>
Anth ony</w>
Br ent,</w>
Br yan</w>
Cha dha,</w>
Chaiwa i</w>
Chugh t
Chught ai,</w>
Crowi e,</w>
Di ab
Du le
E man</w>
Gangan ath,</w>
H eshan</w>
K FG</w>
K ri
Kesw ani</w>
Khogiy ani</w>
Ko en</w>
Koppol u</w>
Koralal age</w>
Mad amp
Mais am</w>
Mus fi
Ndan u</w>
Qi anch
Ra bia</w>
Rak esh</w>
Ravis han</w>
Sou k
Sun de,</w>
T ut
U A</w>
U ng
er man</w>
Us ab
Usab yi
Val s
Weibg en,</w>
Y ue</w>
Yas s
Yass er</w>
Zak aria</w>
acc umul
ak i
aq at,</w>
b son</w>
ck -
defe ats</w>
f ree</w>
first- ever</w>
ho ckey</w>
l an
n ey,</w>
Ch um
Chum ney,</w>
minut es,</w>
pres ent
pres ented</w>
proble ms</w>
reas on</w>
streng th</w>
su ran
( or</w>
1 11.
12 8.
189 6</w>
19 22</w>
2 49</w>
2 58</w>
Arjun an</w>
Bas eer</w>
Batinib ulu</w>
Bhaksha la</w>
Billcli ff,</w>
Bo hara,</w>
Bro die,</w>
Bryan t</w>
Ch het
Cunning ham,</w>
De itz,</w>
Dib ble</w>
Dre p
Eti en
Fiel ds,</w>
Gb la,</w>
Heazle tt</w>
Hermi da</w>
Hun ain</w>
Hur ley</w>
Jem ison,</w>
Leicester shire.</w>
Li fe</w>
Libur d</w>
Lopamud ra</w>
McAnanama-Brere ton</w>
McC om
McColl um</w>
McIlro y,</w>
Mom in,</w>
N aran
Nadi hirah</w>
Nai m</w>
Naji ha</w>
Nam u
Namu unz
Naran baat
Navi cha,</w>
Naz eeb</w>
Ng aw
Ngaw ang</w>
O va</w>
Oz uk
Parfi tt</w>
Parik shit</w>
Pen rhy
Penrhy n</w>
Pettin i</w>
Prafull omani,</w>
Rav i,</w>
Rhod es
Salz mann</w>
San jaya,</w>
Sed ai,</w>
Sey ib
Seyib ok
Sharaf u</w>
Sir la</w>
Tuy iz
Up on</w>
Vals ang
Zor zi</w>
adi an</w>
appe al</w>
boun ce</w>
c ous
cl o
decisi ons</w>
eigh t-
ell .</w>
f ar
ha ib,</w>
is hm
j en
loc ated</w>
ma ine</w>
t ai
ten -wicket</w>
worl d.</w>
y "</w>
professi on
1 10.
1- 8
19 11</w>
199 5.</w>
2 31</w>
Ari oko
Arioko t,</w>
Bor rington,</w>
Bu cci
ma z
Bucci maz
Chip anga</w>
Chukwuon ye</w>
D ay,</w>
Derby shire,</w>
Fin an,</w>
Fouché ,</w>
Gen eral</w>
Gil kes</w>
Gur j
Hab ibur</w>
Hettiarchchi </w>
Ingab ire</w>
Jas vi,</w>
Jobarte h</w>
Kun di,</w>
L unde
Leop ard</w>
M MB
MMB RS
MMBRS TC</w>
Ma bu
Mab ath
Mah ela</w>
Njorog e,</w>
Paterlin i</w>
R oma</w>
Ra man</w>
Sadarang ani</w>
Sara ng
Sc ar
Shafiq ullah</w>
Vivekanand an</w>
Wan ig
Warwick shire.</w>
Yaq oo
Yaqoo b,</w>
Zo haib,</w>
achiev ing</w>
debut ed</w>
descri b
dis cipl
du ties</w>
es ".</w>
them sel
ey e</w>
han ia,</w>
hi mi,</w>
Ra himi,</w>
k ap
ll ed</w>
n é
narrow est</w>
ob stru
posi tion,</w>
res pond
s lightly</w>
spe cial</w>
st ay</w>
sup ported</w>
sur passing</w>
ty -
wi se</w>
y oti</w>
13 0.
Al as
Am een</w>
Ameri ca</w>
Aml anj
Amlanj yoti</w>
Anti gu
Ayannai ke,</w>
Bad ree,</w>
Buk har</w>
Day al,</w>
Gras si,</w>
Gu i
Hackn ey,</w>
Hermi da,</w>
Hi ckey</w>
I chin
Ichin kh
Ichinkh orl
Ill ikk
Jac ques</w>
Kar w
Karw eng</w>
Kusuda-Nair n</w>
Lov ell</w>
M ay,</w>
M kha
Ma ris
Maha wa
Mahawa tt
Man iv
Maris ka</w>
Mi and
Mkha tsh
Mukudde m</w>
Ntombiz od
Ntombizod wa</w>
O banda</w>
P HS</w>
P KM</w>
Pan ia,</w>
Parami tha</w>
Saj u</w>
Scot land.</w>
Sh unan</w>
Shaf at</w>
Shahri ar,</w>
Si rah,</w>
Sp ence,</w>
T osi
T roo
Tosi c,</w>
Vijay ran</w>
Viknesh waran,</w>
Way back</w>
ab hai</w>
ac tion.</w>
anal y
draf t</w>
e ach
extrem ely</w>
gran ted</w>
il s</w>
l aun
n eph
n er
ser v
si vely</w>
st ary</w>
Mo stary</w>
stro k
t ali
th- highest</w>
tri but
un official</w>
ven ue</w>
wh ere
2 44</w>
2 82</w>
201 2–
A pi
Abioy e</w>
Associ ation.</w>
Bahad ur</w>
Bara th</w>
Be k
Da hy
Dahy abhai</w>
Dee p,</w>
Fati ma,</w>
Fi eld,</w>
Franci s,</w>
Ghul ami,</w>
H off
Harin ath</w>
Has ith</w>
ICC .</w>
Inak ale</w>
K ent's</w>
Kak uru,</w>
Kul asuriya,</w>
Lal or,</w>
M bo
Ma ring
Man aki
Manu ranga</w>
Maring an
Mat sum
Mug is
N ayak
N evertheless,</w>
Papp s</w>
R ouse</w>
Ruynek ova</w>
Sada mal,</w>
Sau </w>
Su jit</w>
Tan ner</w>
Tav o</w>
Thuchi la</w>
Tun ni
Vij esh</w>
W ari
Warri ors</w>
Weleged ara,</w>
White head</w>
Worcester shire,</w>
ain i
ak hi
al ing</w>
bo x
by -
comp ared</w>
dis misse
e arning</w>
expres sed</w>
five- match</w>
h ost</w>
initi al</w>
interrup ted</w>
kh el,</w>
T ara
ma d
n el</w>
pri se</w>
progres s</w>
re al</w>
rec all</w>
six es.</w>
stump ing.</w>
survi ved</w>
ta cti
tournam ents</w>
twi ce.</w>
187 7</w>
197 9,</w>
199 3.</w>
Alas tair</w>
Ari ok
Ariok ot</w>
Castill o,</w>
Cel ik</w>
Chathu ranga,</w>
E nk
Enk hz
Fam e.</w>
G ous</w>
Golam aru</w>
He wat
Hewat hant
Hun dal</w>
Jag jit</w>
Kan oh</w>
Kaver i</w>
Ker kar,</w>
Lad da</w>
Mary yam</w>
McGe own,</w>
Min ister</w>
Momm sen</w>
Moond ra</w>
O O</w>
Rak shan</w>
Servi ce</w>
Sm eed</w>
Smar tt,</w>
So ma
Sou sa</w>
Th r
Wak im</w>
Y agn
Yagn ik,</w>
Yos ef</w>
cr ore</w>
de kar,</w>
dg ed</w>
e d:</w>
g ain</w>
h oo</w>
Sa hoo</w>
is sion</w>
k hl
aw ,</w>
Ky aw,</w>
loo k</w>
mile stone</w>
mom ent</w>
perman ent</w>
ring .</w>
schoo l,</w>
tion ally</w>
w are
y ou
12 1.
14 ,</w>
201 3–
16 .0</w>
2 41</w>
5 9
Adap aka</w>
Alexand er,</w>
Bar man</w>
Bierwis ch,</w>
Bor ham</w>
Bu tcher</w>
Cho amba</w>
Chou han,</w>
Coun c
Curti s</w>
D j
Da hiya</w>
Dig vi
Dor set</w>
Ghim ire,</w>
Jab one
Jabone ke</w>
Jhunjhun wala,</w>
L PPM</w>
Leicester shire,</w>
M MR</w>
Mad uwantha,</w>
McCall um,</w>
Murr ure</w>
Murung i,</w>
Nih ute,</w>
P ang
Padikk al</w>
Pi enaar</w>
Piy umal</w>
Pro ki
Quai d-
S ind
h .</w>
Sandar u</w>
Santoki e,</w>
Sing hania</w>
T ap
Tomm y</w>
Uwamahor o,</w>
V az,</w>
Y YM</w>
ap ar
arrang ed</w>
ato s,</w>
bo ur
chang es</w>
cti on
debut ant</w>
en nan</w>
Br ennan</w>
feat u
featu ring</w>
high ligh
il ing</w>
s m
ma ris
mi c</w>
mon d-
[...]
