{
  "!": 0,
  "!\".</w>": 1,
  "!\"</w>": 2,
  "!</w>": 3,
  "\"": 4,
  "\"),</w>": 5,
  "\").</w>": 6,
  "\")</w>": 7,
  "\",</w>": 8,
  "\".": 9,
  "\"..": 10,
  "\"...": 11,
  "\"...</w>": 12,
  "\".</w>": 13,
  "\"83</w>": 14,
  "\":</w>": 15,
  "\";</w>": 16,
  "\"</w>": 17,
  "\"A\"</w>": 18,
  "\"A</w>": 19,
  "\"All</w>": 20,
  "\"An</w>": 21,
  "\"As</w>": 22,
  "\"At</w>": 23,
  "\"Big</w>": 24,
  "\"Champion</w>": 25,
  "\"Cricket</w>": 26,
  "\"England</w>": 27,
  "\"F": 28,
  "\"For</w>": 29,
  "\"From</w>": 30,
  "\"Gentlemen</w>": 31,
  "\"He's</w>": 32,
  "\"He</w>": 33,
  "\"His</w>": 34,
  "\"I'm</w>": 35,
  "\"I've</w>": 36,
  "\"I</w>": 37,
  "\"ICC</w>": 38,
  "\"If</w>": 39,
  "\"In</w>": 40,
  "\"It's</w>": 41,
  "\"It</w>": 42,
  "\"Jack": 43,
  "\"Man</w>": 44,
  "\"My</w>": 45,
  "\"No</w>": 46,
  "\"On</w>": 47,
  "\"One</w>": 48,
  "\"Player</w>": 49,
  "\"Profile</w>": 50,
  "\"Sl": 51,
  "\"South</w>": 52,
  "\"Statistics</w>": 53,
  "\"Super": 54,
  "\"Super</w>": 55,
  "\"Supertest": 56,
  "\"Team</w>": 57,
  "\"Test": 58,
  "\"Test\"</w>": 59,
  "\"Test</w>": 60,
  "\"That</w>": 61,
  "\"The</w>": 62,
  "\"There</w>": 63,
  "\"They</w>": 64,
  "\"This</w>": 65,
  "\"To</w>": 66,
  "\"We": 67,
  "\"We</w>": 68,
  "\"What</w>": 69,
  "\"When</w>": 70,
  "\"You</w>": 71,
  "\"[": 72,
  "\"a</w>": 73,
  "\"all</w>": 74,
  "\"almost</w>": 75,
  "\"always</w>": 76,
  "\"an</w>": 77,
  "\"as</w>": 78,
  "\"at</w>": 79,
  "\"b": 80,
  "\"best</w>": 81,
  "\"bowled</w>": 82,
  "\"but</w>": 83,
  "\"by</w>": 84,
  "\"c": 85,
  "\"could</w>": 86,
  "\"did</w>": 87,
  "\"double\"</w>": 88,
  "\"f": 89,
  "\"fast</w>": 90,
  "\"fifer": 91,
  "\"fifer\")</w>": 92,
  "\"first-class</w>": 93,
  "\"first</w>": 94,
  "\"five-": 95,
  "\"five-for\"</w>": 96,
  "\"five\u2013": 97,
  "\"five\u2013for\"</w>": 98,
  "\"for</w>": 99,
  "\"good</w>": 100,
  "\"great</w>": 101,
  "\"greatest</w>": 102,
  "\"had</w>": 103,
  "\"has</w>": 104,
  "\"he</w>": 105,
  "\"his</w>": 106,
  "\"hit</w>": 107,
  "\"in</w>": 108,
  "\"it</w>": 109,
  "\"just</w>": 110,
  "\"like</w>": 111,
  "\"made</w>": 112,
  "\"man</w>": 113,
  "\"more</w>": 114,
  "\"most</w>": 115,
  "\"never</w>": 116,
  "\"no</w>": 117,
  "\"not</w>": 118,
  "\"on</w>": 119,
  "\"one</w>": 120,
  "\"only</w>": 121,
  "\"out</w>": 122,
  "\"over": 123,
  "\"perhaps</w>": 124,
  "\"probably</w>": 125,
  "\"quite</w>": 126,
  "\"sticky</w>": 127,
  "\"that</w>": 128,
  "\"the</w>": 129,
  "\"there</w>": 130,
  "\"this</w>": 131,
  "\"three</w>": 132,
  "\"to</w>": 133,
  "\"un": 134,
  "\"very</w>": 135,
  "\"was</w>": 136,
  "\"were</w>": 137,
  "\"with</w>": 138,
  "\"would</w>": 139,
  "\"\u2014": 140,
  "#": 141,
  "$": 142,
  "$1.": 143,
  "%": 144,
  "%)</w>": 145,
  "%,</w>": 146,
  "%.</w>": 147,
  "%</w>": 148,
  "%\\right)": 149,
  "&": 150,
  "&</w>": 151,
  "&H</w>": 152,
  "'": 153,
  "'\".</w>": 154,
  "')</w>": 155,
  "',</w>": 156,
  "'.\"</w>": 157,
  "'.</w>": 158,
  "'</w>": 159,
  "'A": 160,
  "'A'</w>": 161,
  "'I</w>": 162,
  "'Team</w>": 163,
  "'Test": 164,
  "'The</w>": 165,
  "'a</w>": 166,
  "'d</w>": 167,
  "'ll</w>": 168,
  "'m</w>": 169,
  "'re</w>": 170,
  "'s,</w>": 171,
  "'s.</w>": 172,
  "'s</w>": 173,
  "'s]</w>": 174,
  "'shang": 175,
  "'t</w>": 176,
  "'the</w>": 177,
  "'un": 178,
  "'ve</w>": 179,
  "(": 180,
  "(\"": 181,
  "('": 182,
  "()</w>": 183,
  "(1": 184,
  "(1),</w>": 185,
  "(1)</w>": 186,
  "(1.": 187,
  "(10": 188,
  "(100": 189,
  "(100)</w>": 190,
  "(100</w>": 191,
  "(101</w>": 192,
  "(10</w>": 193,
  "(11</w>": 194,
  "(12": 195,
  "(12)</w>": 196,
  "(12</w>": 197,
  "(13": 198,
  "(13</w>": 199,
  "(14": 200,
  "(14</w>": 201,
  "(15": 202,
  "(15</w>": 203,
  "(16": 204,
  "(16</w>": 205,
  "(17": 206,
  "(17)</w>": 207,
  "(179": 208,
  "(17</w>": 209,
  "(18": 210,
  "(180": 211,
  "(182": 212,
  "(183": 213,
  "(1830\u2013": 214,
  "(1832\u2013": 215,
  "(1836\u2013": 216,
  "(184": 217,
  "(1844\u2013": 218,
  "(185": 219,
  "(1851\u2013": 220,
  "(1853\u2013": 221,
  "(1855\u2013": 222,
  "(1856\u2013": 223,
  "(1859\u2013": 224,
  "(186": 225,
  "(1862\u2013": 226,
  "(1864\u2013": 227,
  "(1865\u2013": 228,
  "(1866\u2013": 229,
  "(1867\u2013": 230,
  "(1868\u2013": 231,
  "(1869\u2013": 232,
  "(187": 233,
  "(1870\u2013": 234,
  "(1872\u2013": 235,
  "(1874\u2013": 236,
  "(1875\u2013": 237,
  "(1876\u2013": 238,
  "(1877\u2013": 239,
  "(1878\u2013": 240,
  "(1879\u2013": 241,
  "(188": 242,
  "(1880\u2013": 243,
  "(1881\u2013": 244,
  "(1882\u2013": 245,
  "(1883)</w>": 246,
  "(1883\u2013": 247,
  "(1885\u2013": 248,
  "(1886\u2013": 249,
  "(1887\u2013": 250,
  "(1888\u2013": 251,
  "(1889\u2013": 252,
  "(189": 253,
  "(1890\u2013": 254,
  "(1891\u2013": 255,
  "(1892\u2013": 256,
  "(1893\u2013": 257,
  "(1894\u2013": 258,
  "(1895\u2013": 259,
  "(1896)</w>": 260,
  "(1896\u2013": 261,
  "(1897)</w>": 262,
  "(1897\u2013": 263,
  "(1898\u2013": 264,
  "(1899)</w>": 265,
  "(1899\u2013": 266,
  "(18</w>": 267,
  "(19": 268,
  "(190": 269,
  "(1900\u2013": 270,
  "(1901)</w>": 271,
  "(1901\u2013": 272,
  "(1902)</w>": 273,
  "(1902\u2013": 274,
  "(1903)</w>": 275,
  "(1903/0": 276,
  "(1903\u2013": 277,
  "(1904)</w>": 278,
  "(1904\u2013": 279,
  "(1905).</w>": 280,
  "(1905)</w>": 281,
  "(1905/0": 282,
  "(1905\u2013": 283,
  "(1906/0": 284,
  "(1906/07).</w>": 285,
  "(1906\u2013": 286,
  "(1907).</w>": 287,
  "(1907/": 288,
  "(1907/0": 289,
  "(1907\u2013": 290,
  "(1908)</w>": 291,
  "(1908\u2013": 292,
  "(1909/": 293,
  "(1909/10": 294,
  "(1909\u2013": 295,
  "(1910/": 296,
  "(1910\u2013": 297,
  "(1911)</w>": 298,
  "(1911/": 299,
  "(1911/12": 300,
  "(1911/12).</w>": 301,
  "(1911/12);</w>": 302,
  "(1911\u2013": 303,
  "(1912)</w>": 304,
  "(1912/": 305,
  "(1912/13).</w>": 306,
  "(1912\u2013": 307,
  "(1913)</w>": 308,
  "(1913/": 309,
  "(1913/14": 310,
  "(1913\u2013": 311,
  "(1914)</w>": 312,
  "(1914\u2013": 313,
  "(1919)</w>": 314,
  "(1919\u2013": 315,
  "(192": 316,
  "(1920": 317,
  "(1920/": 318,
  "(1920/2": 319,
  "(1920/21);</w>": 320,
  "(1920\u2013": 321,
  "(1921\u2013": 322,
  "(1922/": 323,
  "(1922/2": 324,
  "(1922/23": 325,
  "(1922/23).</w>": 326,
  "(1922\u2013": 327,
  "(1923\u2013": 328,
  "(1924/": 329,
  "(1924/25": 330,
  "(1925/": 331,
  "(1925\u2013": 332,
  "(1926/": 333,
  "(1926/27": 334,
  "(1926/27).</w>": 335,
  "(1926\u2013": 336,
  "(1927/": 337,
  "(1927/28": 338,
  "(1927/28);</w>": 339,
  "(1927\u2013": 340,
  "(1928/": 341,
  "(1928/29": 342,
  "(1928/29);</w>": 343,
  "(1928\u2013": 344,
  "(1929/30": 345,
  "(1929/30).</w>": 346,
  "(1929\u2013": 347,
  "(193": 348,
  "(1930/3": 349,
  "(1930\u2013": 350,
  "(1931\u2013": 351,
  "(1932/3": 352,
  "(1932/33);</w>": 353,
  "(1932\u2013": 354,
  "(1933/": 355,
  "(1933/34": 356,
  "(1933/34).</w>": 357,
  "(1933\u2013": 358,
  "(1934)</w>": 359,
  "(1934/": 360,
  "(1934/35": 361,
  "(1934\u2013": 362,
  "(1935/": 363,
  "(1935/3": 364,
  "(1935\u2013": 365,
  "(1936/": 366,
  "(1936/37": 367,
  "(1936\u2013": 368,
  "(1938/": 369,
  "(1938/39": 370,
  "(1938\u2013": 371,
  "(194": 372,
  "(1946)</w>": 373,
  "(1946/": 374,
  "(1946/47": 375,
  "(1946\u2013": 376,
  "(1947/4": 377,
  "(1947\u2013": 378,
  "(1948/": 379,
  "(1948/49": 380,
  "(1948\u2013": 381,
  "(1949).</w>": 382,
  "(1949\u2013": 383,
  "(195": 384,
  "(1950/5": 385,
  "(1950/51);</w>": 386,
  "(1950\u2013": 387,
  "(1951).</w>": 388,
  "(1951)</w>": 389,
  "(1951/": 390,
  "(1951/5": 391,
  "(1951/52).</w>": 392,
  "(1951\u2013": 393,
  "(1953/": 394,
  "(1953/54": 395,
  "(1953/54);</w>": 396,
  "(1954/5": 397,
  "(1954/55);</w>": 398,
  "(1954\u2013": 399,
  "(1955/": 400,
  "(1955\u2013": 401,
  "(1956/": 402,
  "(1956/57": 403,
  "(1956/57);</w>": 404,
  "(1956\u2013": 405,
  "(1957)</w>": 406,
  "(1957\u2013": 407,
  "(1958)</w>": 408,
  "(1958/": 409,
  "(1958/59": 410,
  "(1958/59);</w>": 411,
  "(1958\u2013": 412,
  "(1959)</w>": 413,
  "(1959/": 414,
  "(1959\u2013": 415,
  "(196": 416,
  "(1960/6": 417,
  "(1960\u2013": 418,
  "(1961)</w>": 419,
  "(1961/": 420,
  "(1961/62": 421,
  "(1961/62);</w>": 422,
  "(1961\u2013": 423,
  "(1962/6": 424,
  "(1962/63);</w>": 425,
  "(1962\u2013": 426,
  "(1963/": 427,
  "(1963/6": 428,
  "(1963/64": 429,
  "(1963/64);</w>": 430,
  "(1963\u2013": 431,
  "(1964)</w>": 432,
  "(1964/": 433,
  "(1964/65);</w>": 434,
  "(1964\u2013": 435,
  "(1965/6": 436,
  "(1965/66);</w>": 437,
  "(1965\u2013": 438,
  "(1966\u2013": 439,
  "(1967)</w>": 440,
  "(1967/": 441,
  "(1967/68": 442,
  "(1967/68);</w>": 443,
  "(1967\u2013": 444,
  "(1968)</w>": 445,
  "(1968/": 446,
  "(1968/69": 447,
  "(1968\u2013": 448,
  "(1969/": 449,
  "(1969\u2013": 450,
  "(197": 451,
  "(1970/7": 452,
  "(1970\u2013": 453,
  "(1971\u2013": 454,
  "(1972/7": 455,
  "(1972/73);</w>": 456,
  "(1973/7": 457,
  "(1973/74).</w>": 458,
  "(1973/74);</w>": 459,
  "(1973\u2013": 460,
  "(1974/": 461,
  "(1974/7": 462,
  "(1974/75).</w>": 463,
  "(1974\u2013": 464,
  "(1975\u2013": 465,
  "(1976/7": 466,
  "(1976/77).</w>": 467,
  "(1977\u2013": 468,
  "(1978\u2013": 469,
  "(1979).</w>": 470,
  "(198": 471,
  "(1980\u2013": 472,
  "(1981).</w>": 473,
  "(1981\u2013": 474,
  "(1982\u2013": 475,
  "(1983).</w>": 476,
  "(1983\u2013": 477,
  "(1984\u2013": 478,
  "(1985).</w>": 479,
  "(1985\u2013": 480,
  "(1986).</w>": 481,
  "(1987)</w>": 482,
  "(1987\u2013": 483,
  "(1988)</w>": 484,
  "(1988\u2013": 485,
  "(1989).</w>": 486,
  "(1989)</w>": 487,
  "(1989\u2013": 488,
  "(199": 489,
  "(1990)</w>": 490,
  "(1990\u2013": 491,
  "(1992)</w>": 492,
  "(1993).</w>": 493,
  "(1993\u2013": 494,
  "(1995).</w>": 495,
  "(1996).</w>": 496,
  "(1996)</w>": 497,
  "(1996\u2013": 498,
  "(1997).</w>": 499,
  "(1997)</w>": 500,
  "(1998).</w>": 501,
  "(1999).</w>": 502,
  "(1999)</w>": 503,
  "(1999/": 504,
  "(1999/2000).</w>": 505,
  "(1999\u2013": 506,
  "(19</w>": 507,
  "(1</w>": 508,
  "(2": 509,
  "(2),</w>": 510,
  "(2)</w>": 511,
  "(2.": 512,
  "(20": 513,
  "(200": 514,
  "(2000).</w>": 515,
  "(2000)</w>": 516,
  "(2000\u2013": 517,
  "(2001).</w>": 518,
  "(2001)</w>": 519,
  "(2001\u2013": 520,
  "(2002).</w>": 521,
  "(2002)</w>": 522,
  "(2002\u2013": 523,
  "(2003).</w>": 524,
  "(2003)</w>": 525,
  "(2004).</w>": 526,
  "(2004)</w>": 527,
  "(2004\u2013": 528,
  "(2005).</w>": 529,
  "(2005)</w>": 530,
  "(2005\u2013": 531,
  "(2006).</w>": 532,
  "(2006\u2013": 533,
  "(2007).</w>": 534,
  "(2007)</w>": 535,
  "(2007\u2013": 536,
  "(2008)</w>": 537,
  "(2008\u2013": 538,
  "(2009).</w>": 539,
  "(2009)</w>": 540,
  "(2009\u2013": 541,
  "(201": 542,
  "(2010\u2013": 543,
  "(2011)</w>": 544,
  "(2011\u2013": 545,
  "(2012).</w>": 546,
  "(2012)</w>": 547,
  "(2013).</w>": 548,
  "(2013\u2013": 549,
  "(2014\u2013": 550,
  "(2015)</w>": 551,
  "(2016\u2013": 552,
  "(2017)</w>": 553,
  "(2017\u2013": 554,
  "(2018)</w>": 555,
  "(2019": 556,
  "(2019)</w>": 557,
  "(2019/": 558,
  "(2019/2020).</w>": 559,
  "(2019\u2013": 560,
  "(202": 561,
  "(2020)</w>": 562,
  "(20</w>": 563,
  "(21</w>": 564,
  "(22</w>": 565,
  "(23</w>": 566,
  "(24</w>": 567,
  "(25</w>": 568,
  "(26</w>": 569,
  "(27</w>": 570,
  "(28</w>": 571,
  "(29</w>": 572,
  "(2</w>": 573,
  "(3": 574,
  "(3),</w>": 575,
  "(3)</w>": 576,
  "(3.": 577,
  "(3/": 578,
  "(30": 579,
  "(30</w>": 580,
  "(31</w>": 581,
  "(3</w>": 582,
  "(4": 583,
  "(4),</w>": 584,
  "(4)</w>": 585,
  "(4</w>": 586,
  "(5": 587,
  "(5)</w>": 588,
  "(5/": 589,
  "(50</w>": 590,
  "(51)</w>": 591,
  "(5</w>": 592,
  "(6": 593,
  "(6)</w>": 594,
  "(6/": 595,
  "(6</w>": 596,
  "(7": 597,
  "(7)</w>": 598,
  "(7/": 599,
  "(7</w>": 600,
  "(8": 601,
  "(8)</w>": 602,
  "(8</w>": 603,
  "(9": 604,
  "(9</w>": 605,
  "(;</w>": 606,
  "(</w>": 607,
  "(A": 608,
  "(AC": 609,
  "(AU": 610,
  "(Australia</w>": 611,
  "(B": 612,
  "(BCB)</w>": 613,
  "(BCC": 614,
  "(BCCI": 615,
  "(BCCI)</w>": 616,
  "(Barbados,</w>": 617,
  "(Beng": 618,
  "(Bengali:</w>": 619,
  "(Botham</w>": 620,
  "(C": 621,
  "(CB": 622,
  "(CBE)</w>": 623,
  "(CUCC": 624,
  "(CUCC)</w>": 625,
  "(CUCC,</w>": 626,
  "(CWI)</w>": 627,
  "(Cambridge</w>": 628,
  "(D": 629,
  "(Derbyshire).</w>": 630,
  "(Derbyshire)</w>": 631,
  "(Derbyshire,</w>": 632,
  "(E": 633,
  "(ECB": 634,
  "(ECB)</w>": 635,
  "(Esse": 636,
  "(Essex).</w>": 637,
  "(Essex)</w>": 638,
  "(Essex,</w>": 639,
  "(F": 640,
  "(Gentlemen)</w>": 641,
  "(Glamorgan": 642,
  "(Glamorgan)</w>": 643,
  "(Gloucester": 644,
  "(Gloucestershire).</w>": 645,
  "(Gloucestershire)</w>": 646,
  "(Gloucestershire,</w>": 647,
  "(Hampshire).</w>": 648,
  "(Hampshire)</w>": 649,
  "(Hampshire,</w>": 650,
  "(Hertfordshire)</w>": 651,
  "(I": 652,
  "(IC": 653,
  "(ICC": 654,
  "(ICC),</w>": 655,
  "(ICC).</w>": 656,
  "(ICC)</w>": 657,
  "(ICC</w>": 658,
  "(IPL": 659,
  "(IPL).</w>": 660,
  "(IPL)</w>": 661,
  "(ISBN</w>": 662,
  "(K": 663,
  "(Kent": 664,
  "(Kent).</w>": 665,
  "(Kent)</w>": 666,
  "(Kent,</w>": 667,
  "(L": 668,
  "(LBW": 669,
  "(Lancashire": 670,
  "(Lancashire).</w>": 671,
  "(Lancashire)</w>": 672,
  "(Lancashire,</w>": 673,
  "(Law</w>": 674,
  "(Leicestershire)</w>": 675,
  "(Leicestershire,</w>": 676,
  "(M": 677,
  "(MB": 678,
  "(MBE)</w>": 679,
  "(MCC": 680,
  "(MCC),</w>": 681,
  "(MCC).</w>": 682,
  "(MCC)</w>": 683,
  "(MCG": 684,
  "(MCG)</w>": 685,
  "(Middlese": 686,
  "(Middlesex).</w>": 687,
  "(Middlesex)</w>": 688,
  "(Middlesex,</w>": 689,
  "(N": 690,
  "(NC": 691,
  "(NSW": 692,
  "(Nepali:</w>": 693,
  "(New</w>": 694,
  "(Northamptonshire).</w>": 695,
  "(Northamptonshire)</w>": 696,
  "(Northamptonshire,</w>": 697,
  "(Nottinghamshire).</w>": 698,
  "(Nottinghamshire)</w>": 699,
  "(Nottinghamshire,</w>": 700,
  "(OB": 701,
  "(OBE)</w>": 702,
  "(ODI": 703,
  "(ODI),</w>": 704,
  "(ODI)</w>": 705,
  "(ODIs": 706,
  "(ODIs),</w>": 707,
  "(ODIs).</w>": 708,
  "(ODIs)</w>": 709,
  "(OUCC": 710,
  "(OUCC)</w>": 711,
  "(Oxford</w>": 712,
  "(P": 713,
  "(PCB).</w>": 714,
  "(PCB)</w>": 715,
  "(PDF": 716,
  "(PS": 717,
  "(Pashto:</w>": 718,
  "(Punjab": 719,
  "(R": 720,
  "(RA": 721,
  "(S": 722,
  "(SA": 723,
  "(SCG": 724,
  "(SSC": 725,
  "(SSC).</w>": 726,
  "(Sinhala:</w>": 727,
  "(Somerset).</w>": 728,
  "(Somerset)</w>": 729,
  "(South</w>": 730,
  "(Sri</w>": 731,
  "(Surrey": 732,
  "(Surrey).</w>": 733,
  "(Surrey)</w>": 734,
  "(Surrey,</w>": 735,
  "(Susse": 736,
  "(Sussex).</w>": 737,
  "(Sussex)</w>": 738,
  "(Sussex,</w>": 739,
  "(T": 740,
  "(T20": 741,
  "(T20)</w>": 742,
  "(T20I).</w>": 743,
  "(T20I)</w>": 744,
  "(T20Is": 745,
  "(T20Is).</w>": 746,
  "(The</w>": 747,
  "(Transva": 748,
  "(U": 749,
  "(US$": 750,
  "(US$1.": 751,
  "(USD</w>": 752,
  "(Urdu:</w>": 753,
  "(VF": 754,
  "(W": 755,
  "(WA": 756,
  "(WI": 757,
  "(WODI": 758,
  "(WODI)</w>": 759,
  "(WSC": 760,
  "(WT20I)</w>": 761,
  "(Warwick": 762,
  "(Warwickshire).</w>": 763,
  "(Warwickshire)</w>": 764,
  "(West</w>": 765,
  "(Worcestershire).</w>": 766,
  "(Worcestershire)</w>": 767,
  "(York": 768,
  "(Yorkshire).</w>": 769,
  "(Yorkshire)</w>": 770,
  "(Yorkshire,</w>": 771,
  "(a</w>": 772,
  "(after</w>": 773,
  "(against</w>": 774,
  "(all</w>": 775,
  "(along</w>": 776,
  "(alongside</w>": 777,
  "(also</w>": 778,
  "(although</w>": 779,
  "(an</w>": 780,
  "(and</w>": 781,
  "(archive": 782,
  "(archive)</w>": 783,
  "(as</w>": 784,
  "(at</w>": 785,
  "(average</w>": 786,
  "(b": 787,
  "(b.</w>": 788,
  "(behind</w>": 789,
  "(born</w>": 790,
  "(both</w>": 791,
  "(but</w>": 792,
  "(by</w>": 793,
  "(c": 794,
  "(c.</w>": 795,
  "(captain</w>": 796,
  "(cricketer)</w>": 797,
  "(died</w>": 798,
  "(e.g.,</w>": 799,
  "(e.g.</w>": 800,
  "(ed.).</w>": 801,
  "(either</w>": 802,
  "(equivalent</w>": 803,
  "(even</w>": 804,
  "(except</w>": 805,
  "(finished</w>": 806,
  "(five</w>": 807,
  "(for</w>": 808,
  "(formerly</w>": 809,
  "(four</w>": 810,
  "(from</w>": 811,
  "(he</w>": 812,
  "(his</w>": 813,
  "(i.e.,</w>": 814,
  "(i.e.</w>": 815,
  "(if</w>": 816,
  "(in</w>": 817,
  "(including</w>": 818,
  "(it</w>": 819,
  "(jointly</w>": 820,
  "(known</w>": 821,
  "(later</w>": 822,
  "(lbw": 823,
  "(lbw)</w>": 824,
  "(not</w>": 825,
  "(notably</w>": 826,
  "(now</w>": 827,
  "(n\u00e9e</w>": 828,
  "(of</w>": 829,
  "(off</w>": 830,
  "(often</w>": 831,
  "(on</w>": 832,
  "(one</w>": 833,
  "(only</w>": 834,
  "(or</w>": 835,
  "(out</w>": 836,
  "(played</w>": 837,
  "(playing</w>": 838,
  "(plus</w>": 839,
  "(s)</w>": 840,
  "(scoring</w>": 841,
  "(see</w>": 842,
  "(since</w>": 843,
  "(six</w>": 844,
  "(subscription</w>": 845,
  "(such</w>": 846,
  "(that</w>": 847,
  "(the</w>": 848,
  "(then</w>": 849,
  "(there</w>": 850,
  "(this</w>": 851,
  "(though</w>": 852,
  "(three</w>": 853,
  "(to</w>": 854,
  "(trophy</w>": 855,
  "(twi": 856,
  "(two</w>": 857,
  "(un": 858,
  "(usually</w>": 859,
  "(when</w>": 860,
  "(where</w>": 861,
  "(which</w>": 862,
  "(who</w>": 863,
  "(with</w>": 864,
  "(\u00a3": 865,
  "(\u2020": 866,
  "(\u2020)</w>": 867,
  ")": 868,
  ")\".</w>": 869,
  "),</w>": 870,
  ").</w>": 871,
  "):</w>": 872,
  ");</w>": 873,
  ")</w>": 874,
  ")=": 875,
  "*": 876,
  "*),</w>": 877,
  "*).</w>": 878,
  "*)</w>": 879,
  "*,</w>": 880,
  "*.</w>": 881,
  "*</w>": 882,
  "+": 883,
  "+</w>": 884,
  ",": 885,
  ",\"</w>": 886,
  ",'</w>": 887,
  ",0": 888,
  ",00": 889,
  ",000": 890,
  ",000).</w>": 891,
  ",000)</w>": 892,
  ",000,</w>": 893,
  ",000.</w>": 894,
  ",000</w>": 895,
  ",000th</w>": 896,
  ",6": 897,
  ",7": 898,
  ",8": 899,
  ",9": 900,
  ",</w>": 901,
  "-": 902,
  "-19</w>": 903,
  "-</w>": 904,
  "-Asia</w>": 905,
  "-Barn": 906,
  "-Br": 907,
  "-Brere": 908,
  "-Car": 909,
  "-Carr": 910,
  "-Drum": 911,
  "-K": 912,
  "-Ny": 913,
  "-Ry": 914,
  "-Spor": 915,
  "-Sum": 916,
  "-Sump": 917,
  "-Thomson</w>": 918,
  "-Vol": 919,
  "-Volsch": 920,
  "-Volschen": 921,
  "-and-": 922,
  "-ball</w>": 923,
  "-based</w>": 924,
  "-born</w>": 925,
  "-day</w>": 926,
  "-e-": 927,
  "-in-": 928,
  "-in-law,</w>": 929,
  "-in-law</w>": 930,
  "-led</w>": 931,
  "-like</w>": 932,
  "-mes": 933,
  "-mesim": 934,
  "-of-": 935,
  "-of-the-": 936,
  "-on-Se": 937,
  "-on-Sea,</w>": 938,
  "-over</w>": 939,
  "-run</w>": 940,
  "-to-": 941,
  "-ul-": 942,
  "-ul-Haq": 943,
  "-ul-Haq,</w>": 944,
  "-ul-Haq.</w>": 945,
  "-ul-Haq</w>": 946,
  "-up.</w>": 947,
  "-up</w>": 948,
  "-ur-": 949,
  "-ur-Rehman,</w>": 950,
  "-ur-Rehman</w>": 951,
  "-wicket</w>": 952,
  "-winning</w>": 953,
  "-year-old</w>": 954,
  "-year</w>": 955,
  "-{\\frac</w>": 956,
  ".": 957,
  ".\".</w>": 958,
  ".\"</w>": 959,
  ".'</w>": 960,
  ".).</w>": 961,
  ".)</w>": 962,
  ".,</w>": 963,
  "..\"</w>": 964,
  "...\"</w>": 965,
  "...</w>": 966,
  "..</w>": 967,
  "..I</w>": 968,
  ".0</w>": 969,
  ".</w>": 970,
  ".C.</w>": 971,
  ".He</w>": 972,
  ".I</w>": 973,
  ".The</w>": 974,
  ".[": 975,
  ".[1]</w>": 976,
  ".com": 977,
  ".com</w>": 978,
  "/": 979,
  "//": 980,
  "/21</w>": 981,
  "/</w>": 982,
  "/night</w>": 983,
  "/or</w>": 984,
  "0": 985,
  "0),</w>": 986,
  "0).</w>": 987,
  "0)</w>": 988,
  "0+</w>": 989,
  "0,000)</w>": 990,
  "0,000</w>": 991,
  "0,</w>": 992,
  "0-": 993,
  "0-0": 994,
  "0-00-2": 995,
  "0-2": 996,
  "0-207-": 997,
  "0-207-15": 998,
  "0-233-9": 999,
  "0-3": 1000,
  "0-340-": 1001,
  "0-7": 1002,
  "0-8": 1003,
  "0-81</w>": 1004,
  "0-9": 1005,
  "0.": 1006,
  "0.0</w>": 1007,
  "0.30</w>": 1008,
  "0.5</w>": 1009,
  "0.</w>": 1010,
  "0/": 1011,
  "0/113</w>": 1012,
  "0/3": 1013,
  "0/5": 1014,
  "0/6": 1015,
  "0/7": 1016,
  "00)</w>": 1017,
  "00,</w>": 1018,
  "00.</w>": 1019,
  "00</w>": 1020,
  "01-": 1021,
  "01</w>": 1022,
  "02)</w>": 1023,
  "02,</w>": 1024,
  "02.</w>": 1025,
  "02</w>": 1026,
  "03,</w>": 1027,
  "03.</w>": 1028,
  "03</w>": 1029,
  "04)</w>": 1030,
  "04,</w>": 1031,
  "04.</w>": 1032,
  "04</w>": 1033,
  "05,</w>": 1034,
  "05.</w>": 1035,
  "05</w>": 1036,
  "06": 1037,
  "06)</w>": 1038,
  "06,</w>": 1039,
  "06.</w>": 1040,
  "06</w>": 1041,
  "07)</w>": 1042,
  "07,</w>": 1043,
  "07.</w>": 1044,
  "07</w>": 1045,
  "08": 1046,
  "08)</w>": 1047,
  "08,</w>": 1048,
  "08.</w>": 1049,
  "08</w>": 1050,
  "09)</w>": 1051,
  "09,</w>": 1052,
  "09.</w>": 1053,
  "09</w>": 1054,
  "0:</w>": 1055,
  "0;</w>": 1056,
  "0</w>": 1057,
  "0s,</w>": 1058,
  "0s.</w>": 1059,
  "0s</w>": 1060,
  "0th</w>": 1061,
  "0\u2013": 1062,
  "0\u20130.</w>": 1063,
  "0\u20130</w>": 1064,
  "0\u20131</w>": 1065,
  "1": 1066,
  "1%</w>": 1067,
  "1's</w>": 1068,
  "1),</w>": 1069,
  "1).</w>": 1070,
  "1);</w>": 1071,
  "1)</w>": 1072,
  "1*.</w>": 1073,
  "1*</w>": 1074,
  "1,": 1075,
  "1,0": 1076,
  "1,000</w>": 1077,
  "1,000th</w>": 1078,
  "1,2": 1079,
  "1,3": 1080,
  "1,4": 1081,
  "1,5": 1082,
  "1,500</w>": 1083,
  "1,6": 1084,
  "1,7": 1085,
  "1,8": 1086,
  "1,9": 1087,
  "1,</w>": 1088,
  "1-": 1089,
  "1-1.</w>": 1090,
  "1-7": 1091,
  "1-740": 1092,
  "1-74051-": 1093,
  "1-8": 1094,
  "1-86": 1095,
  "1-Test</w>": 1096,
  "1-run</w>": 1097,
  "1.": 1098,
  "1.0</w>": 1099,
  "1.</w>": 1100,
  "1/": 1101,
  "10": 1102,
  "10)</w>": 1103,
  "10,": 1104,
  "10,000)</w>": 1105,
  "10,000</w>": 1106,
  "10,</w>": 1107,
  "10-": 1108,
  "10-15</w>": 1109,
  "10-wicket</w>": 1110,
  "10.": 1111,
  "10.0</w>": 1112,
  "10.17</w>": 1113,
  "10.1</w>": 1114,
  "10.22</w>": 1115,
  "10.24</w>": 1116,
  "10.25</w>": 1117,
  "10.38</w>": 1118,
  "10.67</w>": 1119,
  "10.6</w>": 1120,
  "10.71</w>": 1121,
  "10.75</w>": 1122,
  "10.8</w>": 1123,
  "10.</w>": 1124,
  "10/": 1125,
  "10/53</w>": 1126,
  "100": 1127,
  "100%</w>": 1128,
  "100*</w>": 1129,
  "100,000)</w>": 1130,
  "100,</w>": 1131,
  "100-": 1132,
  "100-ball</w>": 1133,
  "100.": 1134,
  "100.0</w>": 1135,
  "100.</w>": 1136,
  "1000</w>": 1137,
  "1001</w>": 1138,
  "1002</w>": 1139,
  "1003</w>": 1140,
  "1005</w>": 1141,
  "100</w>": 1142,
  "100th</w>": 1143,
  "101*</w>": 1144,
  "101,</w>": 1145,
  "101.": 1146,
  "101.</w>": 1147,
  "1010</w>": 1148,
  "1012</w>": 1149,
  "1013</w>": 1150,
  "1015</w>": 1151,
  "1018</w>": 1152,
  "1019</w>": 1153,
  "101</w>": 1154,
  "102*</w>": 1155,
  "102.": 1156,
  "1022</w>": 1157,
  "102</w>": 1158,
  "103,</w>": 1159,
  "103.": 1160,
  "103.</w>": 1161,
  "1031</w>": 1162,
  "1037</w>": 1163,
  "103</w>": 1164,
  "104,</w>": 1165,
  "104.": 1166,
  "104.0</w>": 1167,
  "104.55</w>": 1168,
  "104.</w>": 1169,
  "1040</w>": 1170,
  "1041</w>": 1171,
  "1042</w>": 1172,
  "1044</w>": 1173,
  "1045</w>": 1174,
  "1047</w>": 1175,
  "104</w>": 1176,
  "105": 1177,
  "105.": 1178,
  "105.0</w>": 1179,
  "105.26</w>": 1180,
  "105.56</w>": 1181,
  "105.</w>": 1182,
  "1054</w>": 1183,
  "1055</w>": 1184,
  "1056</w>": 1185,
  "1057</w>": 1186,
  "105</w>": 1187,
  "106": 1188,
  "106.": 1189,
  "106.67</w>": 1190,
  "106.</w>": 1191,
  "1068</w>": 1192,
  "1069</w>": 1193,
  "106</w>": 1194,
  "107.": 1195,
  "107.14</w>": 1196,
  "107.</w>": 1197,
  "1071</w>": 1198,
  "1072</w>": 1199,
  "1073</w>": 1200,
  "1076</w>": 1201,
  "107</w>": 1202,
  "108,</w>": 1203,
  "108.": 1204,
  "108.0</w>": 1205,
  "108.33</w>": 1206,
  "108.</w>": 1207,
  "1080</w>": 1208,
  "1084</w>": 1209,
  "1085</w>": 1210,
  "1089</w>": 1211,
  "108</w>": 1212,
  "109.": 1213,
  "109.09</w>": 1214,
  "1090</w>": 1215,
  "1094</w>": 1216,
  "1095</w>": 1217,
  "1098</w>": 1218,
  "1099</w>": 1219,
  "109</w>": 1220,
  "10</w>": 1221,
  "10th</w>": 1222,
  "10w": 1223,
  "10wM</w>": 1224,
  "10\u2013": 1225,
  "11).</w>": 1226,
  "11)</w>": 1227,
  "11,000</w>": 1228,
  "11,</w>": 1229,
  "11-": 1230,
  "11.": 1231,
  "11.0</w>": 1232,
  "11.17</w>": 1233,
  "11.25</w>": 1234,
  "11.33</w>": 1235,
  "11.4</w>": 1236,
  "11.67</w>": 1237,
  "11.</w>": 1238,
  "11/": 1239,
  "110": 1240,
  "110,</w>": 1241,
  "110.": 1242,
  "110.0</w>": 1243,
  "110.53</w>": 1244,
  "1100</w>": 1245,
  "1104</w>": 1246,
  "1106</w>": 1247,
  "110</w>": 1248,
  "111.": 1249,
  "111.11</w>": 1250,
  "111.76</w>": 1251,
  "1110</w>": 1252,
  "1112</w>": 1253,
  "111</w>": 1254,
  "112,</w>": 1255,
  "112.": 1256,
  "112.5</w>": 1257,
  "1120</w>": 1258,
  "1123</w>": 1259,
  "1129</w>": 1260,
  "112</w>": 1261,
  "113": 1262,
  "113,</w>": 1263,
  "113.": 1264,
  "1130</w>": 1265,
  "1132</w>": 1266,
  "1139</w>": 1267,
  "113</w>": 1268,
  "114.": 1269,
  "114.29</w>": 1270,
  "114.</w>": 1271,
  "1144</w>": 1272,
  "1149</w>": 1273,
  "114</w>": 1274,
  "115": 1275,
  "115,</w>": 1276,
  "115.": 1277,
  "115.38</w>": 1278,
  "1150</w>": 1279,
  "1155</w>": 1280,
  "1157</w>": 1281,
  "115</w>": 1282,
  "116": 1283,
  "116,</w>": 1284,
  "116.": 1285,
  "116.0</w>": 1286,
  "116.67</w>": 1287,
  "116.</w>": 1288,
  "1160</w>": 1289,
  "1162</w>": 1290,
  "1164</w>": 1291,
  "1166</w>": 1292,
  "1167</w>": 1293,
  "116</w>": 1294,
  "117": 1295,
  "117,</w>": 1296,
  "117.": 1297,
  "1170</w>": 1298,
  "1177</w>": 1299,
  "1178</w>": 1300,
  "117</w>": 1301,
  "118.": 1302,
  "118.18</w>": 1303,
  "118</w>": 1304,
  "119,</w>": 1305,
  "119.": 1306,
  "119.05</w>": 1307,
  "119.</w>": 1308,
  "1196</w>": 1309,
  "1197</w>": 1310,
  "1199</w>": 1311,
  "119</w>": 1312,
  "11</w>": 1313,
  "11th</w>": 1314,
  "11\u2013": 1315,
  "12": 1316,
  "12)</w>": 1317,
  "12,": 1318,
  "12,000</w>": 1319,
  "12,</w>": 1320,
  "12-": 1321,
  "12-a-side</w>": 1322,
  "12.": 1323,
  "12.0</w>": 1324,
  "12.25</w>": 1325,
  "12.2</w>": 1326,
  "12.67</w>": 1327,
  "12.</w>": 1328,
  "12/": 1329,
  "120": 1330,
  "120.": 1331,
  "120.0</w>": 1332,
  "1200</w>": 1333,
  "1202</w>": 1334,
  "1208</w>": 1335,
  "1209</w>": 1336,
  "120</w>": 1337,
  "121,</w>": 1338,
  "121.": 1339,
  "121.</w>": 1340,
  "1216</w>": 1341,
  "121</w>": 1342,
  "122,</w>": 1343,
  "122.": 1344,
  "122.22</w>": 1345,
  "122.73</w>": 1346,
  "1222</w>": 1347,
  "1225</w>": 1348,
  "1226</w>": 1349,
  "1227</w>": 1350,
  "122</w>": 1351,
  "123,</w>": 1352,
  "123.": 1353,
  "123.53</w>": 1354,
  "1230</w>": 1355,
  "1233</w>": 1356,
  "1234</w>": 1357,
  "1238</w>": 1358,
  "123</w>": 1359,
  "124.": 1360,
  "1247</w>": 1361,
  "1248</w>": 1362,
  "124</w>": 1363,
  "125.": 1364,
  "125.0</w>": 1365,
  "1259</w>": 1366,
  "125</w>": 1367,
  "126": 1368,
  "126.": 1369,
  "126</w>": 1370,
  "127": 1371,
  "127.": 1372,
  "127.27</w>": 1373,
  "1279</w>": 1374,
  "127</w>": 1375,
  "128.": 1376,
  "128.57</w>": 1377,
  "1288</w>": 1378,
  "128</w>": 1379,
  "129,</w>": 1380,
  "129.": 1381,
  "1290</w>": 1382,
  "1299</w>": 1383,
  "129</w>": 1384,
  "12</w>": 1385,
  "12th</w>": 1386,
  "12\u2013": 1387,
  "13": 1388,
  "13).</w>": 1389,
  "13)</w>": 1390,
  "13,": 1391,
  "13,70": 1392,
  "13,704.</w>": 1393,
  "13,</w>": 1394,
  "13-": 1395,
  "13-man</w>": 1396,
  "13.": 1397,
  "13.0</w>": 1398,
  "13.25</w>": 1399,
  "13.33</w>": 1400,
  "13.67</w>": 1401,
  "13.</w>": 1402,
  "13/": 1403,
  "130.": 1404,
  "130.0</w>": 1405,
  "130.77</w>": 1406,
  "130.</w>": 1407,
  "1304</w>": 1408,
  "1305</w>": 1409,
  "1309</w>": 1410,
  "130</w>": 1411,
  "131.": 1412,
  "131.</w>": 1413,
  "131</w>": 1414,
  "132.": 1415,
  "1320</w>": 1416,
  "1323</w>": 1417,
  "132</w>": 1418,
  "133.": 1419,
  "133.33</w>": 1420,
  "133.</w>": 1421,
  "133</w>": 1422,
  "134.": 1423,
  "134</w>": 1424,
  "135.": 1425,
  "1350</w>": 1426,
  "1351</w>": 1427,
  "135</w>": 1428,
  "136.": 1429,
  "136.36</w>": 1430,
  "136</w>": 1431,
  "137.": 1432,
  "137.5</w>": 1433,
  "137</w>": 1434,
  "138.": 1435,
  "138.46</w>": 1436,
  "138</w>": 1437,
  "139.": 1438,
  "139</w>": 1439,
  "13</w>": 1440,
  "13th</w>": 1441,
  "13\u2013": 1442,
  "14": 1443,
  "14)</w>": 1444,
  "14,</w>": 1445,
  "14-": 1446,
  "14-man</w>": 1447,
  "14.": 1448,
  "14.0</w>": 1449,
  "14.25</w>": 1450,
  "14.2</w>": 1451,
  "14.33</w>": 1452,
  "14.5</w>": 1453,
  "14.</w>": 1454,
  "14/": 1455,
  "140": 1456,
  "140.": 1457,
  "140.0</w>": 1458,
  "140</w>": 1459,
  "141,</w>": 1460,
  "141.": 1461,
  "1414</w>": 1462,
  "1418</w>": 1463,
  "141</w>": 1464,
  "142.": 1465,
  "142.86</w>": 1466,
  "142</w>": 1467,
  "143.": 1468,
  "1432</w>": 1469,
  "143</w>": 1470,
  "144.": 1471,
  "144.44</w>": 1472,
  "1441</w>": 1473,
  "144</w>": 1474,
  "145": 1475,
  "145.": 1476,
  "145.</w>": 1477,
  "145</w>": 1478,
  "146.": 1479,
  "146</w>": 1480,
  "147.": 1481,
  "147</w>": 1482,
  "148.": 1483,
  "1483</w>": 1484,
  "1488</w>": 1485,
  "1489</w>": 1486,
  "148</w>": 1487,
  "149,</w>": 1488,
  "149.": 1489,
  "1494</w>": 1490,
  "149</w>": 1491,
  "14</w>": 1492,
  "14th</w>": 1493,
  "14\u2013": 1494,
  "15": 1495,
  "15%</w>": 1496,
  "15)</w>": 1497,
  "15,000</w>": 1498,
  "15,</w>": 1499,
  "15-": 1500,
  "15-man</w>": 1501,
  "15.": 1502,
  "15.0</w>": 1503,
  "15.25</w>": 1504,
  "15.33</w>": 1505,
  "15.38</w>": 1506,
  "15.5</w>": 1507,
  "15.75</w>": 1508,
  "15.</w>": 1509,
  "15/": 1510,
  "150": 1511,
  "150,</w>": 1512,
  "150.": 1513,
  "150.0</w>": 1514,
  "150.</w>": 1515,
  "150</w>": 1516,
  "150th</w>": 1517,
  "151.": 1518,
  "151</w>": 1519,
  "152.": 1520,
  "152</w>": 1521,
  "153.": 1522,
  "153</w>": 1523,
  "154.": 1524,
  "154</w>": 1525,
  "1556</w>": 1526,
  "155</w>": 1527,
  "156.": 1528,
  "156</w>": 1529,
  "157.": 1530,
  "1577</w>": 1531,
  "157</w>": 1532,
  "158.": 1533,
  "158</w>": 1534,
  "159.": 1535,
  "159.</w>": 1536,
  "1594</w>": 1537,
  "159</w>": 1538,
  "15</w>": 1539,
  "15th</w>": 1540,
  "15\u2013": 1541,
  "16": 1542,
  "16)</w>": 1543,
  "16,</w>": 1544,
  "16-": 1545,
  "16-year-old</w>": 1546,
  "16.": 1547,
  "16.0</w>": 1548,
  "16.25</w>": 1549,
  "16.5</w>": 1550,
  "16.</w>": 1551,
  "160.": 1552,
  "160.0</w>": 1553,
  "160.</w>": 1554,
  "160</w>": 1555,
  "161.": 1556,
  "161</w>": 1557,
  "162.": 1558,
  "162.5</w>": 1559,
  "1624</w>": 1560,
  "162</w>": 1561,
  "163.": 1562,
  "163</w>": 1563,
  "164.": 1564,
  "164</w>": 1565,
  "165,</w>": 1566,
  "165</w>": 1567,
  "166.67</w>": 1568,
  "166</w>": 1569,
  "167</w>": 1570,
  "168</w>": 1571,
  "169</w>": 1572,
  "16</w>": 1573,
  "16s</w>": 1574,
  "16th</w>": 1575,
  "16\u2013": 1576,
  "17": 1577,
  "17)</w>": 1578,
  "17,</w>": 1579,
  "17-": 1580,
  "17.": 1581,
  "17.0</w>": 1582,
  "17.25</w>": 1583,
  "17.5</w>": 1584,
  "17.67</w>": 1585,
  "17.75</w>": 1586,
  "17.</w>": 1587,
  "1709</w>": 1588,
  "170</w>": 1589,
  "171.": 1590,
  "171</w>": 1591,
  "172</w>": 1592,
  "173</w>": 1593,
  "174": 1594,
  "1744,</w>": 1595,
  "1744</w>": 1596,
  "174</w>": 1597,
  "175.0</w>": 1598,
  "175</w>": 1599,
  "176": 1600,
  "176</w>": 1601,
  "177": 1602,
  "1772</w>": 1603,
  "1775</w>": 1604,
  "177</w>": 1605,
  "1787</w>": 1606,
  "1788</w>": 1607,
  "178</w>": 1608,
  "1793</w>": 1609,
  "179</w>": 1610,
  "17</w>": 1611,
  "17s</w>": 1612,
  "17th</w>": 1613,
  "17\u2013": 1614,
  "18": 1615,
  "18)</w>": 1616,
  "18,": 1617,
  "18,</w>": 1618,
  "18-": 1619,
  "18-year-old</w>": 1620,
  "18.": 1621,
  "18.0</w>": 1622,
  "18.25</w>": 1623,
  "18.5</w>": 1624,
  "18.67</w>": 1625,
  "18.75</w>": 1626,
  "18.</w>": 1627,
  "18/": 1628,
  "180": 1629,
  "1800</w>": 1630,
  "1803\u2013": 1631,
  "1806</w>": 1632,
  "180</w>": 1633,
  "181</w>": 1634,
  "1825</w>": 1635,
  "1826</w>": 1636,
  "1827</w>": 1637,
  "1828</w>": 1638,
  "182</w>": 1639,
  "183": 1640,
  "1830</w>": 1641,
  "1833</w>": 1642,
  "1834</w>": 1643,
  "1835</w>": 1644,
  "1836</w>": 1645,
  "1838</w>": 1646,
  "1839.</w>": 1647,
  "1839</w>": 1648,
  "183</w>": 1649,
  "184": 1650,
  "1840": 1651,
  "1841</w>": 1652,
  "1842.</w>": 1653,
  "1842</w>": 1654,
  "1843)</w>": 1655,
  "1843</w>": 1656,
  "1844</w>": 1657,
  "1845</w>": 1658,
  "1846</w>": 1659,
  "1847</w>": 1660,
  "1848</w>": 1661,
  "1849</w>": 1662,
  "184</w>": 1663,
  "185": 1664,
  "1850,</w>": 1665,
  "1850</w>": 1666,
  "1851)</w>": 1667,
  "1851,</w>": 1668,
  "1851</w>": 1669,
  "1854.</w>": 1670,
  "1854</w>": 1671,
  "1855</w>": 1672,
  "1858</w>": 1673,
  "1859</w>": 1674,
  "185</w>": 1675,
  "186": 1676,
  "1860</w>": 1677,
  "1860s,</w>": 1678,
  "1861</w>": 1679,
  "1862,</w>": 1680,
  "1862.</w>": 1681,
  "1862</w>": 1682,
  "1863)</w>": 1683,
  "1863,</w>": 1684,
  "1863.</w>": 1685,
  "1863</w>": 1686,
  "1864,</w>": 1687,
  "1864.</w>": 1688,
  "1864</w>": 1689,
  "1865,</w>": 1690,
  "1865.</w>": 1691,
  "1865</w>": 1692,
  "1866,</w>": 1693,
  "1866.</w>": 1694,
  "1866</w>": 1695,
  "1867,</w>": 1696,
  "1868,</w>": 1697,
  "1868</w>": 1698,
  "1869)</w>": 1699,
  "1869,</w>": 1700,
  "1869.</w>": 1701,
  "1869</w>": 1702,
  "186</w>": 1703,
  "187": 1704,
  "1870,</w>": 1705,
  "1870.</w>": 1706,
  "1870</w>": 1707,
  "1870s,</w>": 1708,
  "1870s.</w>": 1709,
  "1870s</w>": 1710,
  "1871,</w>": 1711,
  "1871.</w>": 1712,
  "1871</w>": 1713,
  "1872,</w>": 1714,
  "1872.</w>": 1715,
  "1872</w>": 1716,
  "1873)</w>": 1717,
  "1873,</w>": 1718,
  "1873.</w>": 1719,
  "1873</w>": 1720,
  "1874,</w>": 1721,
  "1874.</w>": 1722,
  "1875,</w>": 1723,
  "1875.</w>": 1724,
  "1876,</w>": 1725,
  "1876.</w>": 1726,
  "1876</w>": 1727,
  "1876\u2013": 1728,
  "1877,</w>": 1729,
  "1877.</w>": 1730,
  "1877</w>": 1731,
  "1878,</w>": 1732,
  "1878.</w>": 1733,
  "1879)</w>": 1734,
  "1879,</w>": 1735,
  "1879.</w>": 1736,
  "1879</w>": 1737,
  "187</w>": 1738,
  "188": 1739,
  "188.": 1740,
  "1880)</w>": 1741,
  "1880,</w>": 1742,
  "1880.</w>": 1743,
  "1880s,</w>": 1744,
  "1880s.</w>": 1745,
  "1880s</w>": 1746,
  "1881)</w>": 1747,
  "1881,</w>": 1748,
  "1881.</w>": 1749,
  "1881</w>": 1750,
  "1882)</w>": 1751,
  "1882,</w>": 1752,
  "1882.</w>": 1753,
  "1882\u2013": 1754,
  "1883)</w>": 1755,
  "1883,</w>": 1756,
  "1883.</w>": 1757,
  "1884)</w>": 1758,
  "1884,</w>": 1759,
  "1884.</w>": 1760,
  "1884</w>": 1761,
  "1884\u2013": 1762,
  "1884\u201385</w>": 1763,
  "1885)</w>": 1764,
  "1885,</w>": 1765,
  "1885.</w>": 1766,
  "1885</w>": 1767,
  "1886)</w>": 1768,
  "1886.</w>": 1769,
  "1886</w>": 1770,
  "1886\u2013": 1771,
  "1887)</w>": 1772,
  "1887,</w>": 1773,
  "1887.</w>": 1774,
  "1887</w>": 1775,
  "1887\u2013": 1776,
  "1888,</w>": 1777,
  "1888.</w>": 1778,
  "1888</w>": 1779,
  "1888\u2013": 1780,
  "1889,</w>": 1781,
  "1889.</w>": 1782,
  "1889</w>": 1783,
  "188</w>": 1784,
  "189": 1785,
  "1890)</w>": 1786,
  "1890,</w>": 1787,
  "1890.</w>": 1788,
  "1890</w>": 1789,
  "1890s,</w>": 1790,
  "1890s.</w>": 1791,
  "1890s</w>": 1792,
  "1891)</w>": 1793,
  "1891,</w>": 1794,
  "1891.</w>": 1795,
  "1891</w>": 1796,
  "1891\u2013": 1797,
  "1892,</w>": 1798,
  "1892.</w>": 1799,
  "1892</w>": 1800,
  "1892\u2013": 1801,
  "1893,</w>": 1802,
  "1893.</w>": 1803,
  "1893</w>": 1804,
  "1893\u2013": 1805,
  "1894)</w>": 1806,
  "1894,</w>": 1807,
  "1894.</w>": 1808,
  "1894\u2013": 1809,
  "1894\u201395</w>": 1810,
  "1895)</w>": 1811,
  "1895,</w>": 1812,
  "1895.</w>": 1813,
  "1895</w>": 1814,
  "1895\u2013": 1815,
  "1895\u201396</w>": 1816,
  "1896)</w>": 1817,
  "1896,</w>": 1818,
  "1896.</w>": 1819,
  "1896</w>": 1820,
  "1896\u2013": 1821,
  "1897,</w>": 1822,
  "1897.</w>": 1823,
  "1897</w>": 1824,
  "1897\u2013": 1825,
  "1898)</w>": 1826,
  "1898,</w>": 1827,
  "1898.</w>": 1828,
  "1898</w>": 1829,
  "1898\u2013": 1830,
  "1899)</w>": 1831,
  "1899,</w>": 1832,
  "1899.</w>": 1833,
  "1899</w>": 1834,
  "189</w>": 1835,
  "18</w>": 1836,
  "18th</w>": 1837,
  "18\u2013": 1838,
  "19": 1839,
  "19)</w>": 1840,
  "19,</w>": 1841,
  "19-": 1842,
  "19.": 1843,
  "19.0</w>": 1844,
  "19.25</w>": 1845,
  "19.5</w>": 1846,
  "19.67</w>": 1847,
  "19.6</w>": 1848,
  "19.75</w>": 1849,
  "19.</w>": 1850,
  "19/": 1851,
  "190": 1852,
  "1900)</w>": 1853,
  "1900,</w>": 1854,
  "1900.</w>": 1855,
  "1900</w>": 1856,
  "1900\u2013": 1857,
  "1901)</w>": 1858,
  "1901,</w>": 1859,
  "1901.</w>": 1860,
  "1901</w>": 1861,
  "1901\u2013": 1862,
  "1901\u201302</w>": 1863,
  "1902)</w>": 1864,
  "1902,</w>": 1865,
  "1902.</w>": 1866,
  "1902</w>": 1867,
  "1902\u2013": 1868,
  "1903)</w>": 1869,
  "1903,</w>": 1870,
  "1903.</w>": 1871,
  "1903</w>": 1872,
  "1903\u2013": 1873,
  "1904)</w>": 1874,
  "1904.</w>": 1875,
  "1904\u2013": 1876,
  "1905)</w>": 1877,
  "1905.</w>": 1878,
  "1905\u2013": 1879,
  "1906)</w>": 1880,
  "1906,</w>": 1881,
  "1906.</w>": 1882,
  "1906</w>": 1883,
  "1906\u2013": 1884,
  "1907)</w>": 1885,
  "1907,</w>": 1886,
  "1907.</w>": 1887,
  "1907</w>": 1888,
  "1907\u2013": 1889,
  "1907\u201308</w>": 1890,
  "1908)</w>": 1891,
  "1908,</w>": 1892,
  "1908.</w>": 1893,
  "1908</w>": 1894,
  "1908\u2013": 1895,
  "1909)</w>": 1896,
  "1909,</w>": 1897,
  "1909.</w>": 1898,
  "1909</w>": 1899,
  "1909\u2013": 1900,
  "1909\u201310</w>": 1901,
  "190</w>": 1902,
  "1910": 1903,
  "1910)</w>": 1904,
  "1910,</w>": 1905,
  "1910.</w>": 1906,
  "1910</w>": 1907,
  "1910\u2013": 1908,
  "1910\u201311</w>": 1909,
  "1911)</w>": 1910,
  "1911,</w>": 1911,
  "1911.</w>": 1912,
  "1911</w>": 1913,
  "1911\u2013": 1914,
  "1912": 1915,
  "1912)</w>": 1916,
  "1912,</w>": 1917,
  "1912.</w>": 1918,
  "1912</w>": 1919,
  "1912\u2013": 1920,
  "1913)</w>": 1921,
  "1913,</w>": 1922,
  "1913.</w>": 1923,
  "1913\u2013": 1924,
  "1913\u201314</w>": 1925,
  "1914": 1926,
  "1914)</w>": 1927,
  "1914,</w>": 1928,
  "1914.</w>": 1929,
  "1914</w>": 1930,
  "1914\u2013": 1931,
  "1915)</w>": 1932,
  "1915,</w>": 1933,
  "1915.</w>": 1934,
  "1915</w>": 1935,
  "1916,</w>": 1936,
  "1916.</w>": 1937,
  "1917,</w>": 1938,
  "1917.</w>": 1939,
  "1917</w>": 1940,
  "1918,</w>": 1941,
  "1918.</w>": 1942,
  "1918</w>": 1943,
  "1918\u2013": 1944,
  "1919)</w>": 1945,
  "1919,</w>": 1946,
  "1919.</w>": 1947,
  "1919</w>": 1948,
  "1919\u2013": 1949,
  "191</w>": 1950,
  "192": 1951,
  "1920": 1952,
  "1920)</w>": 1953,
  "1920,</w>": 1954,
  "1920.</w>": 1955,
  "1920</w>": 1956,
  "1920s,</w>": 1957,
  "1920s.</w>": 1958,
  "1920s</w>": 1959,
  "1920\u2013": 1960,
  "1920\u201321</w>": 1961,
  "1921)</w>": 1962,
  "1921,</w>": 1963,
  "1921.</w>": 1964,
  "1921</w>": 1965,
  "1921\u2013": 1966,
  "1922)</w>": 1967,
  "1922,</w>": 1968,
  "1922.</w>": 1969,
  "1922</w>": 1970,
  "1922\u201323,</w>": 1971,
  "1922\u201323</w>": 1972,
  "1923)</w>": 1973,
  "1923,</w>": 1974,
  "1923.</w>": 1975,
  "1923\u2013": 1976,
  "1924)</w>": 1977,
  "1924,</w>": 1978,
  "1924.</w>": 1979,
  "1924</w>": 1980,
  "1924\u2013": 1981,
  "1924\u201325</w>": 1982,
  "1925)</w>": 1983,
  "1925,</w>": 1984,
  "1925.</w>": 1985,
  "1925</w>": 1986,
  "1925\u2013": 1987,
  "1926)</w>": 1988,
  "1926,</w>": 1989,
  "1926.</w>": 1990,
  "1926</w>": 1991,
  "1926\u2013": 1992,
  "1926\u201327,</w>": 1993,
  "1926\u201327</w>": 1994,
  "1927)</w>": 1995,
  "1927,</w>": 1996,
  "1927.</w>": 1997,
  "1927</w>": 1998,
  "1927\u2013": 1999,
  "1927\u201328</w>": 2000,
  "1928)</w>": 2001,
  "1928,</w>": 2002,
  "1928.</w>": 2003,
  "1928</w>": 2004,
  "1928\u2013": 2005,
  "1928\u201329)</w>": 2006,
  "1928\u201329</w>": 2007,
  "1929)</w>": 2008,
  "1929,</w>": 2009,
  "1929.</w>": 2010,
  "1929</w>": 2011,
  "1929\u2013": 2012,
  "1929\u201330,</w>": 2013,
  "1929\u201330</w>": 2014,
  "192</w>": 2015,
  "193": 2016,
  "1930)</w>": 2017,
  "1930,</w>": 2018,
  "1930.</w>": 2019,
  "1930</w>": 2020,
  "1930s,</w>": 2021,
  "1930s.</w>": 2022,
  "1930s</w>": 2023,
  "1930\u2013": 2024,
  "1930\u201331,</w>": 2025,
  "1930\u201331</w>": 2026,
  "1931)</w>": 2027,
  "1931,</w>": 2028,
  "1931.</w>": 2029,
  "1931</w>": 2030,
  "1931\u2013": 2031,
  "1931\u201332</w>": 2032,
  "1932)</w>": 2033,
  "1932,</w>": 2034,
  "1932.</w>": 2035,
  "1932</w>": 2036,
  "1932\u2013": 2037,
  "1932\u201333,</w>": 2038,
  "1932\u201333.</w>": 2039,
  "1932\u201333</w>": 2040,
  "1933)</w>": 2041,
  "1933,</w>": 2042,
  "1933.</w>": 2043,
  "1933</w>": 2044,
  "1933\u2013": 2045,
  "1933\u201334</w>": 2046,
  "1934)</w>": 2047,
  "1934,</w>": 2048,
  "1934.</w>": 2049,
  "1934/": 2050,
  "1934</w>": 2051,
  "1934\u2013": 2052,
  "1934\u201335</w>": 2053,
  "1935)</w>": 2054,
  "1935,</w>": 2055,
  "1935.</w>": 2056,
  "1935</w>": 2057,
  "1935\u2013": 2058,
  "1935\u201336.</w>": 2059,
  "1935\u201336</w>": 2060,
  "1936)</w>": 2061,
  "1936,</w>": 2062,
  "1936.</w>": 2063,
  "1936</w>": 2064,
  "1936\u2013": 2065,
  "1936\u201337</w>": 2066,
  "1937)</w>": 2067,
  "1937,</w>": 2068,
  "1937.</w>": 2069,
  "1937</w>": 2070,
  "1937\u2013": 2071,
  "1938)</w>": 2072,
  "1938,</w>": 2073,
  "1938.</w>": 2074,
  "1938</w>": 2075,
  "1938\u2013": 2076,
  "1938\u201339</w>": 2077,
  "1939)</w>": 2078,
  "1939,</w>": 2079,
  "1939.</w>": 2080,
  "1939</w>": 2081,
  "1939\u2013": 2082,
  "1939\u201340</w>": 2083,
  "193</w>": 2084,
  "194": 2085,
  "1940)</w>": 2086,
  "1940,</w>": 2087,
  "1940.</w>": 2088,
  "1940\u2013": 2089,
  "1940\u201341</w>": 2090,
  "1941)</w>": 2091,
  "1941,</w>": 2092,
  "1941.</w>": 2093,
  "1941</w>": 2094,
  "1941\u2013": 2095,
  "1942)</w>": 2096,
  "1942,</w>": 2097,
  "1942.</w>": 2098,
  "1942</w>": 2099,
  "1943)</w>": 2100,
  "1943,</w>": 2101,
  "1943.</w>": 2102,
  "1944)</w>": 2103,
  "1944,</w>": 2104,
  "1944.</w>": 2105,
  "1945,</w>": 2106,
  "1945.</w>": 2107,
  "1945</w>": 2108,
  "1945\u2013": 2109,
  "1946)</w>": 2110,
  "1946,</w>": 2111,
  "1946.</w>": 2112,
  "1946</w>": 2113,
  "1946\u2013": 2114,
  "1946\u201347</w>": 2115,
  "1947)</w>": 2116,
  "1947,</w>": 2117,
  "1947.</w>": 2118,
  "1947</w>": 2119,
  "1947\u2013": 2120,
  "1947\u201348,</w>": 2121,
  "1947\u201348</w>": 2122,
  "1948)</w>": 2123,
  "1948,</w>": 2124,
  "1948.</w>": 2125,
  "1948\u2013": 2126,
  "1948\u201349,</w>": 2127,
  "1948\u201349</w>": 2128,
  "1949)</w>": 2129,
  "1949,</w>": 2130,
  "1949.</w>": 2131,
  "1949</w>": 2132,
  "1949\u2013": 2133,
  "1949\u201350,</w>": 2134,
  "1949\u201350</w>": 2135,
  "194</w>": 2136,
  "195": 2137,
  "1950)</w>": 2138,
  "1950,</w>": 2139,
  "1950.</w>": 2140,
  "1950</w>": 2141,
  "1950s,</w>": 2142,
  "1950s.</w>": 2143,
  "1950s</w>": 2144,
  "1950\u2013": 2145,
  "1950\u201351,</w>": 2146,
  "1950\u201351</w>": 2147,
  "1951)</w>": 2148,
  "1951,</w>": 2149,
  "1951.</w>": 2150,
  "1951/": 2151,
  "1951</w>": 2152,
  "1951\u2013": 2153,
  "1951\u201352,</w>": 2154,
  "1951\u201352</w>": 2155,
  "1952)</w>": 2156,
  "1952,</w>": 2157,
  "1952.</w>": 2158,
  "1952</w>": 2159,
  "1952\u2013": 2160,
  "1952\u201353,</w>": 2161,
  "1952\u201353</w>": 2162,
  "1953)</w>": 2163,
  "1953,</w>": 2164,
  "1953.</w>": 2165,
  "1953</w>": 2166,
  "1953\u2013": 2167,
  "1953\u201354,</w>": 2168,
  "1953\u201354</w>": 2169,
  "1954)</w>": 2170,
  "1954,</w>": 2171,
  "1954.</w>": 2172,
  "1954</w>": 2173,
  "1954\u2013": 2174,
  "1954\u201355,</w>": 2175,
  "1954\u201355.</w>": 2176,
  "1954\u201355</w>": 2177,
  "1955)</w>": 2178,
  "1955,</w>": 2179,
  "1955.</w>": 2180,
  "1955</w>": 2181,
  "1955\u2013": 2182,
  "1955\u201356,</w>": 2183,
  "1955\u201356.</w>": 2184,
  "1955\u201356</w>": 2185,
  "1956)</w>": 2186,
  "1956,</w>": 2187,
  "1956.</w>": 2188,
  "1956</w>": 2189,
  "1956\u2013": 2190,
  "1956\u201357,</w>": 2191,
  "1956\u201357</w>": 2192,
  "1957)</w>": 2193,
  "1957,</w>": 2194,
  "1957.</w>": 2195,
  "1957</w>": 2196,
  "1957\u2013": 2197,
  "1957\u201358</w>": 2198,
  "1958)</w>": 2199,
  "1958,</w>": 2200,
  "1958.</w>": 2201,
  "1958/": 2202,
  "1958</w>": 2203,
  "1958\u2013": 2204,
  "1958\u201359,</w>": 2205,
  "1958\u201359.</w>": 2206,
  "1958\u201359</w>": 2207,
  "1959)</w>": 2208,
  "1959,</w>": 2209,
  "1959.</w>": 2210,
  "1959/": 2211,
  "1959</w>": 2212,
  "1959\u2013": 2213,
  "1959\u201360,</w>": 2214,
  "1959\u201360</w>": 2215,
  "195</w>": 2216,
  "196": 2217,
  "1960)</w>": 2218,
  "1960,</w>": 2219,
  "1960.</w>": 2220,
  "1960</w>": 2221,
  "1960s,</w>": 2222,
  "1960s.</w>": 2223,
  "1960s</w>": 2224,
  "1960\u2013": 2225,
  "1960\u201361</w>": 2226,
  "1961)</w>": 2227,
  "1961,</w>": 2228,
  "1961.</w>": 2229,
  "1961</w>": 2230,
  "1961\u2013": 2231,
  "1961\u201362,</w>": 2232,
  "1961\u201362</w>": 2233,
  "1962)</w>": 2234,
  "1962.</w>": 2235,
  "1962</w>": 2236,
  "1962\u2013": 2237,
  "1962\u201363,</w>": 2238,
  "1962\u201363</w>": 2239,
  "1963)</w>": 2240,
  "1963,</w>": 2241,
  "1963.</w>": 2242,
  "1963/": 2243,
  "1963</w>": 2244,
  "1963\u2013": 2245,
  "1963\u201364,</w>": 2246,
  "1963\u201364.</w>": 2247,
  "1963\u201364</w>": 2248,
  "1964)</w>": 2249,
  "1964,</w>": 2250,
  "1964.</w>": 2251,
  "1964</w>": 2252,
  "1964\u2013": 2253,
  "1964\u201365,</w>": 2254,
  "1964\u201365</w>": 2255,
  "1965)</w>": 2256,
  "1965,</w>": 2257,
  "1965.</w>": 2258,
  "1965</w>": 2259,
  "1965\u2013": 2260,
  "1965\u201366,</w>": 2261,
  "1965\u201366</w>": 2262,
  "1966)</w>": 2263,
  "1966,</w>": 2264,
  "1966.</w>": 2265,
  "1966</w>": 2266,
  "1966\u2013": 2267,
  "1966\u201367,</w>": 2268,
  "1966\u201367</w>": 2269,
  "1967)</w>": 2270,
  "1967,</w>": 2271,
  "1967.</w>": 2272,
  "1967/": 2273,
  "1967</w>": 2274,
  "1967\u2013": 2275,
  "1967\u201368</w>": 2276,
  "1968)</w>": 2277,
  "1968,</w>": 2278,
  "1968.</w>": 2279,
  "1968</w>": 2280,
  "1968\u2013": 2281,
  "1968\u201369</w>": 2282,
  "1969)</w>": 2283,
  "1969,</w>": 2284,
  "1969.</w>": 2285,
  "1969</w>": 2286,
  "1969\u2013": 2287,
  "1969\u201370,</w>": 2288,
  "1969\u201370.</w>": 2289,
  "1969\u201370</w>": 2290,
  "196</w>": 2291,
  "197": 2292,
  "1970)</w>": 2293,
  "1970.</w>": 2294,
  "1970</w>": 2295,
  "1970s,</w>": 2296,
  "1970s.</w>": 2297,
  "1970s</w>": 2298,
  "1970\u2013": 2299,
  "1970\u201371</w>": 2300,
  "1971)</w>": 2301,
  "1971,</w>": 2302,
  "1971.</w>": 2303,
  "1971/": 2304,
  "1971;</w>": 2305,
  "1971</w>": 2306,
  "1971\u2013": 2307,
  "1971\u201372,</w>": 2308,
  "1971\u201372.</w>": 2309,
  "1971\u201372</w>": 2310,
  "1972)</w>": 2311,
  "1972,</w>": 2312,
  "1972.</w>": 2313,
  "1972</w>": 2314,
  "1972\u2013": 2315,
  "1972\u201373</w>": 2316,
  "1973)</w>": 2317,
  "1973,</w>": 2318,
  "1973.</w>": 2319,
  "1973</w>": 2320,
  "1973\u2013": 2321,
  "1973\u201374</w>": 2322,
  "1974)</w>": 2323,
  "1974,</w>": 2324,
  "1974.</w>": 2325,
  "1974/": 2326,
  "1974</w>": 2327,
  "1974\u2013": 2328,
  "1974\u201375</w>": 2329,
  "1975)</w>": 2330,
  "1975,</w>": 2331,
  "1975.</w>": 2332,
  "1975</w>": 2333,
  "1975\u2013": 2334,
  "1975\u20137": 2335,
  "1975\u201376,</w>": 2336,
  "1975\u201376</w>": 2337,
  "1976)</w>": 2338,
  "1976.</w>": 2339,
  "1976/": 2340,
  "1976</w>": 2341,
  "1976\u2013": 2342,
  "1976\u201377</w>": 2343,
  "1977)</w>": 2344,
  "1977,</w>": 2345,
  "1977.</w>": 2346,
  "1977/": 2347,
  "1977</w>": 2348,
  "1977\u2013": 2349,
  "1977\u201378,</w>": 2350,
  "1977\u201378</w>": 2351,
  "1978)</w>": 2352,
  "1978,</w>": 2353,
  "1978.</w>": 2354,
  "1978/": 2355,
  "1978</w>": 2356,
  "1978\u2013": 2357,
  "1978\u201379.</w>": 2358,
  "1978\u201379</w>": 2359,
  "1979)</w>": 2360,
  "1979,</w>": 2361,
  "1979.</w>": 2362,
  "1979/": 2363,
  "1979</w>": 2364,
  "1979\u2013": 2365,
  "1979\u201380,</w>": 2366,
  "1979\u201380</w>": 2367,
  "197</w>": 2368,
  "198": 2369,
  "1980)</w>": 2370,
  "1980,</w>": 2371,
  "1980-81</w>": 2372,
  "1980.</w>": 2373,
  "1980</w>": 2374,
  "1980s,</w>": 2375,
  "1980s.</w>": 2376,
  "1980s</w>": 2377,
  "1980\u2013": 2378,
  "1980\u201381</w>": 2379,
  "1981)</w>": 2380,
  "1981,</w>": 2381,
  "1981.</w>": 2382,
  "1981</w>": 2383,
  "1981\u2013": 2384,
  "1981\u201382.</w>": 2385,
  "1981\u201382</w>": 2386,
  "1982)</w>": 2387,
  "1982,</w>": 2388,
  "1982.</w>": 2389,
  "1982/": 2390,
  "1982/83</w>": 2391,
  "1982</w>": 2392,
  "1982\u2013": 2393,
  "1982\u201383</w>": 2394,
  "1983)</w>": 2395,
  "1983,</w>": 2396,
  "1983.</w>": 2397,
  "1983</w>": 2398,
  "1983\u2013": 2399,
  "1983\u201384</w>": 2400,
  "1984)</w>": 2401,
  "1984,</w>": 2402,
  "1984.</w>": 2403,
  "1984/": 2404,
  "1984/85</w>": 2405,
  "1984</w>": 2406,
  "1984\u2013": 2407,
  "1984\u201385</w>": 2408,
  "1985)</w>": 2409,
  "1985,</w>": 2410,
  "1985.</w>": 2411,
  "1985/": 2412,
  "1985</w>": 2413,
  "1985\u2013": 2414,
  "1985\u201386,</w>": 2415,
  "1985\u201386</w>": 2416,
  "1986)</w>": 2417,
  "1986,</w>": 2418,
  "1986-": 2419,
  "1986.</w>": 2420,
  "1986/": 2421,
  "1986</w>": 2422,
  "1986\u2013": 2423,
  "1986\u201387,</w>": 2424,
  "1986\u201387</w>": 2425,
  "1987)</w>": 2426,
  "1987,</w>": 2427,
  "1987.</w>": 2428,
  "1987/": 2429,
  "1987</w>": 2430,
  "1987\u2013": 2431,
  "1987\u201388</w>": 2432,
  "1988)</w>": 2433,
  "1988,</w>": 2434,
  "1988.</w>": 2435,
  "1988/": 2436,
  "1988/89</w>": 2437,
  "1988</w>": 2438,
  "1988\u2013": 2439,
  "1988\u201389</w>": 2440,
  "1989)</w>": 2441,
  "1989,</w>": 2442,
  "1989.</w>": 2443,
  "1989/": 2444,
  "1989/90</w>": 2445,
  "1989</w>": 2446,
  "1989\u2013": 2447,
  "1989\u201390,</w>": 2448,
  "1989\u201390</w>": 2449,
  "198</w>": 2450,
  "199": 2451,
  "1990)</w>": 2452,
  "1990,</w>": 2453,
  "1990.</w>": 2454,
  "1990/": 2455,
  "1990/91</w>": 2456,
  "1990</w>": 2457,
  "1990s,</w>": 2458,
  "1990s.</w>": 2459,
  "1990s</w>": 2460,
  "1990\u2013": 2461,
  "1990\u201391</w>": 2462,
  "1991)</w>": 2463,
  "1991,</w>": 2464,
  "1991.</w>": 2465,
  "1991/": 2466,
  "1991</w>": 2467,
  "1991\u2013": 2468,
  "1991\u201392</w>": 2469,
  "1992)</w>": 2470,
  "1992,</w>": 2471,
  "1992-": 2472,
  "1992.</w>": 2473,
  "1992/": 2474,
  "1992</w>": 2475,
  "1992\u2013": 2476,
  "1992\u201393,</w>": 2477,
  "1992\u201393</w>": 2478,
  "1993)</w>": 2479,
  "1993,</w>": 2480,
  "1993.</w>": 2481,
  "1993/": 2482,
  "1993/94</w>": 2483,
  "1993</w>": 2484,
  "1993\u2013": 2485,
  "1993\u201394</w>": 2486,
  "1994)</w>": 2487,
  "1994,</w>": 2488,
  "1994.</w>": 2489,
  "1994/": 2490,
  "1994/95</w>": 2491,
  "1994</w>": 2492,
  "1994\u2013": 2493,
  "1994\u201395,</w>": 2494,
  "1994\u201395</w>": 2495,
  "1995)</w>": 2496,
  "1995,</w>": 2497,
  "1995.</w>": 2498,
  "1995/": 2499,
  "1995</w>": 2500,
  "1995\u2013": 2501,
  "1995\u201396</w>": 2502,
  "1996)</w>": 2503,
  "1996.</w>": 2504,
  "1996/": 2505,
  "1996/97</w>": 2506,
  "1996</w>": 2507,
  "1996\u2013": 2508,
  "1996\u201397,</w>": 2509,
  "1996\u201397</w>": 2510,
  "1997)</w>": 2511,
  "1997,</w>": 2512,
  "1997.</w>": 2513,
  "1997/": 2514,
  "1997/98</w>": 2515,
  "1997</w>": 2516,
  "1997\u2013": 2517,
  "1997\u201398,</w>": 2518,
  "1997\u201398</w>": 2519,
  "1998)</w>": 2520,
  "1998,</w>": 2521,
  "1998-99</w>": 2522,
  "1998.</w>": 2523,
  "1998/": 2524,
  "1998/99</w>": 2525,
  "1998</w>": 2526,
  "1998\u2013": 2527,
  "1998\u201399,</w>": 2528,
  "1998\u201399</w>": 2529,
  "1999)</w>": 2530,
  "1999,</w>": 2531,
  "1999.</w>": 2532,
  "1999/": 2533,
  "1999</w>": 2534,
  "1999\u2013": 2535,
  "1999\u20132000</w>": 2536,
  "199</w>": 2537,
  "19;</w>": 2538,
  "19</w>": 2539,
  "19s</w>": 2540,
  "19th</w>": 2541,
  "19\u2013": 2542,
  "1:</w>": 2543,
  "1;</w>": 2544,
  "1</w>": 2545,
  "1st</w>": 2546,
  "1th</w>": 2547,
  "1\u2013": 2548,
  "1\u20130,</w>": 2549,
  "1\u20130.</w>": 2550,
  "1\u20130</w>": 2551,
  "1\u20131,</w>": 2552,
  "1\u20131.</w>": 2553,
  "1\u20131</w>": 2554,
  "1\u2044": 2555,
  "1\u20442</w>": 2556,
  "2": 2557,
  "2%</w>": 2558,
  "2's</w>": 2559,
  "2),</w>": 2560,
  "2).</w>": 2561,
  "2):</w>": 2562,
  "2)</w>": 2563,
  "2*</w>": 2564,
  "2,": 2565,
  "2,0": 2566,
  "2,500</w>": 2567,
  "2,6": 2568,
  "2,</w>": 2569,
  "2-": 2570,
  "2-0</w>": 2571,
  "2-Test</w>": 2572,
  "2-ball</w>": 2573,
  "2-match</w>": 2574,
  "2-run</w>": 2575,
  "2.": 2576,
  "2.0</w>": 2577,
  "2.4</w>": 2578,
  "2.62</w>": 2579,
  "2.6</w>": 2580,
  "2.8</w>": 2581,
  "2.9</w>": 2582,
  "2.</w>": 2583,
  "2/": 2584,
  "2/3": 2585,
  "2/6": 2586,
  "2/63</w>": 2587,
  "2/7": 2588,
  "20": 2589,
  "20%</w>": 2590,
  "20)</w>": 2591,
  "20,000</w>": 2592,
  "20,</w>": 2593,
  "20-": 2594,
  "20-over</w>": 2595,
  "20.": 2596,
  "20.0</w>": 2597,
  "20.33</w>": 2598,
  "20.5</w>": 2599,
  "20.67</w>": 2600,
  "20.</w>": 2601,
  "20/": 2602,
  "20/20</w>": 2603,
  "200": 2604,
  "200,</w>": 2605,
  "200.0</w>": 2606,
  "200.</w>": 2607,
  "2000).</w>": 2608,
  "2000)</w>": 2609,
  "2000,</w>": 2610,
  "2000.</w>": 2611,
  "2000/": 2612,
  "2000/01</w>": 2613,
  "2000</w>": 2614,
  "2000s,</w>": 2615,
  "2000s.</w>": 2616,
  "2000s</w>": 2617,
  "2000\u2013": 2618,
  "2000\u20130": 2619,
  "2000\u201301</w>": 2620,
  "2001)</w>": 2621,
  "2001,</w>": 2622,
  "2001.</w>": 2623,
  "2001/": 2624,
  "2001/02</w>": 2625,
  "2001</w>": 2626,
  "2001\u2013": 2627,
  "2001\u201302,</w>": 2628,
  "2001\u201302</w>": 2629,
  "2002)</w>": 2630,
  "2002,</w>": 2631,
  "2002.</w>": 2632,
  "2002/": 2633,
  "2002/03</w>": 2634,
  "2002</w>": 2635,
  "2002\u2013": 2636,
  "2002\u201303</w>": 2637,
  "2003)</w>": 2638,
  "2003,</w>": 2639,
  "2003.</w>": 2640,
  "2003/": 2641,
  "2003/04</w>": 2642,
  "2003</w>": 2643,
  "2003\u2013": 2644,
  "2003\u201304,</w>": 2645,
  "2003\u201304.</w>": 2646,
  "2003\u201304</w>": 2647,
  "2004)</w>": 2648,
  "2004,</w>": 2649,
  "2004.</w>": 2650,
  "2004/": 2651,
  "2004/05</w>": 2652,
  "2004</w>": 2653,
  "2004\u2013": 2654,
  "2004\u201305,</w>": 2655,
  "2004\u201305</w>": 2656,
  "2005)</w>": 2657,
  "2005,</w>": 2658,
  "2005.</w>": 2659,
  "2005/": 2660,
  "2005/06</w>": 2661,
  "2005</w>": 2662,
  "2005\u2013": 2663,
  "2005\u201306,</w>": 2664,
  "2005\u201306</w>": 2665,
  "2006)</w>": 2666,
  "2006,</w>": 2667,
  "2006-": 2668,
  "2006.</w>": 2669,
  "2006/0": 2670,
  "2006/07</w>": 2671,
  "2006</w>": 2672,
  "2006\u2013": 2673,
  "2006\u201307,</w>": 2674,
  "2006\u201307</w>": 2675,
  "2007)</w>": 2676,
  "2007,</w>": 2677,
  "2007.</w>": 2678,
  "2007/": 2679,
  "2007</w>": 2680,
  "2007\u2013": 2681,
  "2007\u201308,</w>": 2682,
  "2007\u201308</w>": 2683,
  "2008)</w>": 2684,
  "2008,</w>": 2685,
  "2008.</w>": 2686,
  "2008/": 2687,
  "2008/09</w>": 2688,
  "2008</w>": 2689,
  "2008\u2013": 2690,
  "2008\u201309</w>": 2691,
  "2009": 2692,
  "2009)</w>": 2693,
  "2009,</w>": 2694,
  "2009-": 2695,
  "2009.</w>": 2696,
  "2009/": 2697,
  "2009/10</w>": 2698,
  "2009</w>": 2699,
  "2009\u2013": 2700,
  "2009\u201310,</w>": 2701,
  "2009\u201310</w>": 2702,
  "200</w>": 2703,
  "200th</w>": 2704,
  "201": 2705,
  "2010)</w>": 2706,
  "2010,</w>": 2707,
  "2010.</w>": 2708,
  "2010/": 2709,
  "2010/11</w>": 2710,
  "2010</w>": 2711,
  "2010\u2013": 2712,
  "2010\u201311</w>": 2713,
  "2011)</w>": 2714,
  "2011,</w>": 2715,
  "2011-": 2716,
  "2011.</w>": 2717,
  "2011/": 2718,
  "2011/12</w>": 2719,
  "2011</w>": 2720,
  "2011\u2013": 2721,
  "2011\u201312)</w>": 2722,
  "2011\u201312,</w>": 2723,
  "2011\u201312</w>": 2724,
  "2012)</w>": 2725,
  "2012,</w>": 2726,
  "2012-": 2727,
  "2012-10-15</w>": 2728,
  "2012-13</w>": 2729,
  "2012.</w>": 2730,
  "2012/": 2731,
  "2012/13</w>": 2732,
  "2012</w>": 2733,
  "2012\u2013": 2734,
  "2012\u201313)</w>": 2735,
  "2012\u201313,</w>": 2736,
  "2012\u201313</w>": 2737,
  "2013)</w>": 2738,
  "2013,</w>": 2739,
  "2013-": 2740,
  "2013-14</w>": 2741,
  "2013.</w>": 2742,
  "2013/": 2743,
  "2013/14</w>": 2744,
  "2013</w>": 2745,
  "2013\u2013": 2746,
  "2013\u201314</w>": 2747,
  "2014)</w>": 2748,
  "2014,</w>": 2749,
  "2014-": 2750,
  "2014.</w>": 2751,
  "2014/": 2752,
  "2014</w>": 2753,
  "2014\u2013": 2754,
  "2014\u201315,</w>": 2755,
  "2014\u201315</w>": 2756,
  "2015)</w>": 2757,
  "2015,</w>": 2758,
  "2015-": 2759,
  "2015.</w>": 2760,
  "2015</w>": 2761,
  "2015\u2013": 2762,
  "2015\u201316)</w>": 2763,
  "2015\u201316,</w>": 2764,
  "2015\u201316</w>": 2765,
  "2015\u201317</w>": 2766,
  "2016)</w>": 2767,
  "2016,</w>": 2768,
  "2016-": 2769,
  "2016.</w>": 2770,
  "2016</w>": 2771,
  "2016\u2013": 2772,
  "2016\u201317</w>": 2773,
  "2017)</w>": 2774,
  "2017,</w>": 2775,
  "2017-": 2776,
  "2017.</w>": 2777,
  "2017/": 2778,
  "2017</w>": 2779,
  "2017\u2013": 2780,
  "2017\u201318</w>": 2781,
  "2018)</w>": 2782,
  "2018,</w>": 2783,
  "2018.</w>": 2784,
  "2018/19</w>": 2785,
  "2018</w>": 2786,
  "2018\u2013": 2787,
  "2018\u201319</w>": 2788,
  "2019": 2789,
  "2019)</w>": 2790,
  "2019,</w>": 2791,
  "2019-": 2792,
  "2019-20</w>": 2793,
  "2019.</w>": 2794,
  "2019</w>": 2795,
  "2019\u2013": 2796,
  "2019\u201320</w>": 2797,
  "201</w>": 2798,
  "202": 2799,
  "2020": 2800,
  "2020).</w>": 2801,
  "2020)</w>": 2802,
  "2020,</w>": 2803,
  "2020-": 2804,
  "2020-21</w>": 2805,
  "2020.</w>": 2806,
  "2020</w>": 2807,
  "2020\u2013": 2808,
  "2020\u201321</w>": 2809,
  "2021)</w>": 2810,
  "2021,</w>": 2811,
  "2021-": 2812,
  "2021-22</w>": 2813,
  "2021.</w>": 2814,
  "2021</w>": 2815,
  "2021\u2013": 2816,
  "2021\u201322</w>": 2817,
  "2022)</w>": 2818,
  "2022,</w>": 2819,
  "2022.</w>": 2820,
  "2022</w>": 2821,
  "2022\u201323</w>": 2822,
  "2023)</w>": 2823,
  "2023,</w>": 2824,
  "2023.</w>": 2825,
  "2023</w>": 2826,
  "2023\u2013": 2827,
  "2023\u201324</w>": 2828,
  "2024)</w>": 2829,
  "2024,</w>": 2830,
  "2024-": 2831,
  "2024.</w>": 2832,
  "2024</w>": 2833,
  "2024\u201325</w>": 2834,
  "2025)</w>": 2835,
  "2025,</w>": 2836,
  "2025.</w>": 2837,
  "2025</w>": 2838,
  "2026</w>": 2839,
  "202</w>": 2840,
  "203</w>": 2841,
  "204</w>": 2842,
  "205</w>": 2843,
  "206</w>": 2844,
  "207-": 2845,
  "207</w>": 2846,
  "208</w>": 2847,
  "209</w>": 2848,
  "20</w>": 2849,
  "20s</w>": 2850,
  "20th</w>": 2851,
  "20\u2013": 2852,
  "21": 2853,
  "21)</w>": 2854,
  "21,</w>": 2855,
  "21-": 2856,
  "21.": 2857,
  "21.0</w>": 2858,
  "21.25</w>": 2859,
  "21.33</w>": 2860,
  "21.43</w>": 2861,
  "21.5</w>": 2862,
  "21.67</w>": 2863,
  "21.75</w>": 2864,
  "21.88</w>": 2865,
  "21.</w>": 2866,
  "210": 2867,
  "210</w>": 2868,
  "211</w>": 2869,
  "212</w>": 2870,
  "213</w>": 2871,
  "215</w>": 2872,
  "216</w>": 2873,
  "217</w>": 2874,
  "218,</w>": 2875,
  "218</w>": 2876,
  "219</w>": 2877,
  "21</w>": 2878,
  "21st</w>": 2879,
  "21\u2013": 2880,
  "22,</w>": 2881,
  "22-": 2882,
  "22.": 2883,
  "22.0</w>": 2884,
  "22.22</w>": 2885,
  "22.33</w>": 2886,
  "22.4</w>": 2887,
  "22.5</w>": 2888,
  "22.67</w>": 2889,
  "22.75</w>": 2890,
  "22.</w>": 2891,
  "220</w>": 2892,
  "222</w>": 2893,
  "223</w>": 2894,
  "224</w>": 2895,
  "225</w>": 2896,
  "226</w>": 2897,
  "227</w>": 2898,
  "229</w>": 2899,
  "22</w>": 2900,
  "23": 2901,
  "23,</w>": 2902,
  "23-": 2903,
  "23.": 2904,
  "23.08</w>": 2905,
  "23.0</w>": 2906,
  "23.25</w>": 2907,
  "23.2</w>": 2908,
  "23.33</w>": 2909,
  "23.53</w>": 2910,
  "23.5</w>": 2911,
  "23.67</w>": 2912,
  "23.6</w>": 2913,
  "23.75</w>": 2914,
  "230</w>": 2915,
  "231</w>": 2916,
  "232</w>": 2917,
  "233-": 2918,
  "233-9": 2919,
  "233</w>": 2920,
  "234</w>": 2921,
  "236</w>": 2922,
  "237</w>": 2923,
  "238</w>": 2924,
  "23</w>": 2925,
  "24": 2926,
  "24)</w>": 2927,
  "24,</w>": 2928,
  "24-": 2929,
  "24.": 2930,
  "24.0</w>": 2931,
  "24.14</w>": 2932,
  "24.25</w>": 2933,
  "24.33</w>": 2934,
  "24.36</w>": 2935,
  "24.5</w>": 2936,
  "24.67</w>": 2937,
  "24.75</w>": 2938,
  "24.8</w>": 2939,
  "24.</w>": 2940,
  "240</w>": 2941,
  "241</w>": 2942,
  "242</w>": 2943,
  "243</w>": 2944,
  "244</w>": 2945,
  "245</w>": 2946,
  "246</w>": 2947,
  "247</w>": 2948,
  "248</w>": 2949,
  "249</w>": 2950,
  "24</w>": 2951,
  "24th</w>": 2952,
  "25": 2953,
  "25%</w>": 2954,
  "25)</w>": 2955,
  "25,000</w>": 2956,
  "25,</w>": 2957,
  "25-": 2958,
  "25.": 2959,
  "25.0</w>": 2960,
  "25.25</w>": 2961,
  "25.2</w>": 2962,
  "25.33</w>": 2963,
  "25.5</w>": 2964,
  "25.67</w>": 2965,
  "25.6</w>": 2966,
  "25.75</w>": 2967,
  "25.86</w>": 2968,
  "25.</w>": 2969,
  "250.0</w>": 2970,
  "250</w>": 2971,
  "250th</w>": 2972,
  "251</w>": 2973,
  "252</w>": 2974,
  "253</w>": 2975,
  "254</w>": 2976,
  "256</w>": 2977,
  "257</w>": 2978,
  "258</w>": 2979,
  "25</w>": 2980,
  "25th</w>": 2981,
  "26": 2982,
  "26).</w>": 2983,
  "26)</w>": 2984,
  "26,</w>": 2985,
  "26-": 2986,
  "26-man</w>": 2987,
  "26.": 2988,
  "26.09</w>": 2989,
  "26.0</w>": 2990,
  "26.29</w>": 2991,
  "26.33</w>": 2992,
  "26.4</w>": 2993,
  "26.5</w>": 2994,
  "26.67</w>": 2995,
  "26.</w>": 2996,
  "260</w>": 2997,
  "261</w>": 2998,
  "262</w>": 2999,
  "263</w>": 3000,
  "264</w>": 3001,
  "265</w>": 3002,
  "267</w>": 3003,
  "269</w>": 3004,
  "26</w>": 3005,
  "26th</w>": 3006,
  "26\u2013": 3007,
  "27": 3008,
  "27)</w>": 3009,
  "27,</w>": 3010,
  "27.": 3011,
  "27.0</w>": 3012,
  "27.27</w>": 3013,
  "27.2</w>": 3014,
  "27.33</w>": 3015,
  "27.5</w>": 3016,
  "27.67</w>": 3017,
  "27.75</w>": 3018,
  "27.</w>": 3019,
  "270</w>": 3020,
  "271</w>": 3021,
  "272</w>": 3022,
  "273</w>": 3023,
  "274</w>": 3024,
  "276</w>": 3025,
  "277</w>": 3026,
  "278/": 3027,
  "279</w>": 3028,
  "27</w>": 3029,
  "27th</w>": 3030,
  "27\u2013": 3031,
  "28": 3032,
  "28)</w>": 3033,
  "28,</w>": 3034,
  "28-": 3035,
  "28.": 3036,
  "28.0</w>": 3037,
  "28.57</w>": 3038,
  "28.5</w>": 3039,
  "28.</w>": 3040,
  "280</w>": 3041,
  "281</w>": 3042,
  "282</w>": 3043,
  "283</w>": 3044,
  "284</w>": 3045,
  "285</w>": 3046,
  "287</w>": 3047,
  "288</w>": 3048,
  "289</w>": 3049,
  "28</w>": 3050,
  "28th</w>": 3051,
  "28\u2013": 3052,
  "29": 3053,
  "29)</w>": 3054,
  "29,</w>": 3055,
  "29-": 3056,
  "29-man</w>": 3057,
  "29.": 3058,
  "29.0</w>": 3059,
  "29.17</w>": 3060,
  "29.25</w>": 3061,
  "29.33</w>": 3062,
  "29.41</w>": 3063,
  "29.5</w>": 3064,
  "29.67</w>": 3065,
  "29.75</w>": 3066,
  "29.</w>": 3067,
  "290</w>": 3068,
  "291</w>": 3069,
  "292</w>": 3070,
  "293</w>": 3071,
  "294</w>": 3072,
  "295</w>": 3073,
  "296</w>": 3074,
  "297</w>": 3075,
  "298</w>": 3076,
  "299</w>": 3077,
  "29</w>": 3078,
  "29th</w>": 3079,
  "29\u2013": 3080,
  "2:</w>": 3081,
  "2;</w>": 3082,
  "2</w>": 3083,
  "2]</w>": 3084,
  "2nd</w>": 3085,
  "2\u2013": 3086,
  "2\u20130,</w>": 3087,
  "2\u20130.</w>": 3088,
  "2\u20130</w>": 3089,
  "2\u20131,</w>": 3090,
  "2\u20131.</w>": 3091,
  "2\u20131</w>": 3092,
  "2\u20132,</w>": 3093,
  "2\u20132.</w>": 3094,
  "2\u201323,</w>": 3095,
  "2\u201323</w>": 3096,
  "2\u20132</w>": 3097,
  "3": 3098,
  "3),</w>": 3099,
  "3).</w>": 3100,
  "3);</w>": 3101,
  "3)</w>": 3102,
  "3*</w>": 3103,
  "3,": 3104,
  "3,0": 3105,
  "3,</w>": 3106,
  "3-": 3107,
  "3-0</w>": 3108,
  "3-Day</w>": 3109,
  "3-Test</w>": 3110,
  "3-match</w>": 3111,
  "3-run</w>": 3112,
  "3-year</w>": 3113,
  "3.": 3114,
  "3.09.</w>": 3115,
  "3.0</w>": 3116,
  "3.24</w>": 3117,
  "3.26</w>": 3118,
  "3.47</w>": 3119,
  "3.57</w>": 3120,
  "3.5</w>": 3121,
  "3.69</w>": 3122,
  "3.6</w>": 3123,
  "3.85</w>": 3124,
  "3.99</w>": 3125,
  "3.</w>": 3126,
  "3/": 3127,
  "3/0": 3128,
  "3/24</w>": 3129,
  "3/7": 3130,
  "30": 3131,
  "30)</w>": 3132,
  "30,000</w>": 3133,
  "30,</w>": 3134,
  "30-": 3135,
  "30-man</w>": 3136,
  "30-yard</w>": 3137,
  "30.": 3138,
  "30.0</w>": 3139,
  "30.25</w>": 3140,
  "30.33</w>": 3141,
  "30.5</w>": 3142,
  "30.67</w>": 3143,
  "30.77</w>": 3144,
  "30.</w>": 3145,
  "300,</w>": 3146,
  "3000</w>": 3147,
  "300</w>": 3148,
  "300th</w>": 3149,
  "301</w>": 3150,
  "302</w>": 3151,
  "303</w>": 3152,
  "304</w>": 3153,
  "305</w>": 3154,
  "306</w>": 3155,
  "307</w>": 3156,
  "308</w>": 3157,
  "309</w>": 3158,
  "30</w>": 3159,
  "30th</w>": 3160,
  "30\u2013": 3161,
  "31*</w>": 3162,
  "31,</w>": 3163,
  "31-": 3164,
  "31.": 3165,
  "31.0</w>": 3166,
  "31.25</w>": 3167,
  "31.58</w>": 3168,
  "31.5</w>": 3169,
  "31.67</w>": 3170,
  "31.75</w>": 3171,
  "31.</w>": 3172,
  "311</w>": 3173,
  "312</w>": 3174,
  "313</w>": 3175,
  "314</w>": 3176,
  "317</w>": 3177,
  "318</w>": 3178,
  "319</w>": 3179,
  "31</w>": 3180,
  "31st</w>": 3181,
  "32": 3182,
  "32)</w>": 3183,
  "32,</w>": 3184,
  "32-": 3185,
  "32.": 3186,
  "32.0</w>": 3187,
  "32.11</w>": 3188,
  "32.14</w>": 3189,
  "32.33</w>": 3190,
  "32.5</w>": 3191,
  "32.67</w>": 3192,
  "32.</w>": 3193,
  "320</w>": 3194,
  "321</w>": 3195,
  "322</w>": 3196,
  "323</w>": 3197,
  "324</w>": 3198,
  "326</w>": 3199,
  "327</w>": 3200,
  "328</w>": 3201,
  "329</w>": 3202,
  "32</w>": 3203,
  "33)</w>": 3204,
  "33,</w>": 3205,
  "33-": 3206,
  "33.": 3207,
  "33.0</w>": 3208,
  "33.33</w>": 3209,
  "33.5</w>": 3210,
  "33.</w>": 3211,
  "330</w>": 3212,
  "331</w>": 3213,
  "333</w>": 3214,
  "335</w>": 3215,
  "336</w>": 3216,
  "339</w>": 3217,
  "33</w>": 3218,
  "33}}}": 3219,
  "34": 3220,
  "34)</w>": 3221,
  "34,</w>": 3222,
  "34.": 3223,
  "34.0</w>": 3224,
  "34.33</w>": 3225,
  "34.5</w>": 3226,
  "34.62</w>": 3227,
  "34.67</w>": 3228,
  "34.</w>": 3229,
  "340</w>": 3230,
  "341</w>": 3231,
  "342</w>": 3232,
  "344</w>": 3233,
  "346</w>": 3234,
  "347</w>": 3235,
  "34</w>": 3236,
  "35": 3237,
  "35)</w>": 3238,
  "35,</w>": 3239,
  "35-": 3240,
  "35.": 3241,
  "35.0</w>": 3242,
  "35.29</w>": 3243,
  "35.5</w>": 3244,
  "35.71</w>": 3245,
  "35.</w>": 3246,
  "350</w>": 3247,
  "352</w>": 3248,
  "354</w>": 3249,
  "356</w>": 3250,
  "357</w>": 3251,
  "359</w>": 3252,
  "35</w>": 3253,
  "35th</w>": 3254,
  "36": 3255,
  "36,</w>": 3256,
  "36.": 3257,
  "36.0</w>": 3258,
  "36.36</w>": 3259,
  "36.5</w>": 3260,
  "36.67</w>": 3261,
  "36.84</w>": 3262,
  "36.</w>": 3263,
  "361</w>": 3264,
  "363</w>": 3265,
  "364</w>": 3266,
  "365</w>": 3267,
  "367</w>": 3268,
  "369</w>": 3269,
  "36</w>": 3270,
  "37": 3271,
  "37)</w>": 3272,
  "37,</w>": 3273,
  "37.": 3274,
  "37.0</w>": 3275,
  "37.14</w>": 3276,
  "37.25</w>": 3277,
  "37.33</w>": 3278,
  "37.5</w>": 3279,
  "37.93</w>": 3280,
  "37.</w>": 3281,
  "371</w>": 3282,
  "373</w>": 3283,
  "374</w>": 3284,
  "376</w>": 3285,
  "377</w>": 3286,
  "378</w>": 3287,
  "37</w>": 3288,
  "37th</w>": 3289,
  "38": 3290,
  "38)</w>": 3291,
  "38,</w>": 3292,
  "38.": 3293,
  "38.0</w>": 3294,
  "38.1</w>": 3295,
  "38.33</w>": 3296,
  "38.46</w>": 3297,
  "38.5</w>": 3298,
  "38.89</w>": 3299,
  "38.</w>": 3300,
  "380</w>": 3301,
  "381</w>": 3302,
  "383</w>": 3303,
  "384</w>": 3304,
  "385</w>": 3305,
  "38</w>": 3306,
  "38th</w>": 3307,
  "39": 3308,
  "39)</w>": 3309,
  "39,</w>": 3310,
  "39-": 3311,
  "39.": 3312,
  "39.0</w>": 3313,
  "39.29</w>": 3314,
  "39.33</w>": 3315,
  "39.5</w>": 3316,
  "39.67</w>": 3317,
  "39.</w>": 3318,
  "391</w>": 3319,
  "393</w>": 3320,
  "394</w>": 3321,
  "395</w>": 3322,
  "396</w>": 3323,
  "397</w>": 3324,
  "398</w>": 3325,
  "399</w>": 3326,
  "39</w>": 3327,
  "3:</w>": 3328,
  "3;</w>": 3329,
  "3</w>": 3330,
  "3r": 3331,
  "3rd</w>": 3332,
  "3}}}": 3333,
  "3\u2013": 3334,
  "3\u20130,</w>": 3335,
  "3\u20130.</w>": 3336,
  "3\u20130</w>": 3337,
  "3\u20131,</w>": 3338,
  "3\u20131.</w>": 3339,
  "3\u20131</w>": 3340,
  "3\u20132,</w>": 3341,
  "3\u20132.</w>": 3342,
  "3\u20132</w>": 3343,
  "4": 3344,
  "4%</w>": 3345,
  "4),</w>": 3346,
  "4).</w>": 3347,
  "4);</w>": 3348,
  "4)</w>": 3349,
  "4*</w>": 3350,
  "4,": 3351,
  "4,</w>": 3352,
  "4-": 3353,
  "4-3.</w>": 3354,
  "4-Test</w>": 3355,
  "4-day</w>": 3356,
  "4-run</w>": 3357,
  "4.": 3358,
  "4.01</w>": 3359,
  "4.03</w>": 3360,
  "4.07</w>": 3361,
  "4.09</w>": 3362,
  "4.0</w>": 3363,
  "4.13</w>": 3364,
  "4.26</w>": 3365,
  "4.27</w>": 3366,
  "4.47</w>": 3367,
  "4.4</w>": 3368,
  "4.54</w>": 3369,
  "4.56</w>": 3370,
  "4.58</w>": 3371,
  "4.5</w>": 3372,
  "4.68</w>": 3373,
  "4.77</w>": 3374,
  "4.7</w>": 3375,
  "4.81</w>": 3376,
  "4.83</w>": 3377,
  "4.92</w>": 3378,
  "4.</w>": 3379,
  "4/": 3380,
  "4/4</w>": 3381,
  "4/5": 3382,
  "40": 3383,
  "40)</w>": 3384,
  "40,</w>": 3385,
  "40-": 3386,
  "40-over</w>": 3387,
  "40.": 3388,
  "40.0</w>": 3389,
  "40.5</w>": 3390,
  "40.74</w>": 3391,
  "40.91</w>": 3392,
  "40.</w>": 3393,
  "400": 3394,
  "4000</w>": 3395,
  "400</w>": 3396,
  "400th</w>": 3397,
  "401</w>": 3398,
  "402</w>": 3399,
  "403</w>": 3400,
  "404</w>": 3401,
  "405</w>": 3402,
  "406</w>": 3403,
  "407</w>": 3404,
  "408": 3405,
  "408</w>": 3406,
  "409</w>": 3407,
  "40</w>": 3408,
  "40th</w>": 3409,
  "40\u2013": 3410,
  "41)</w>": 3411,
  "41,</w>": 3412,
  "41-": 3413,
  "41.": 3414,
  "41.0</w>": 3415,
  "41.18</w>": 3416,
  "41.33</w>": 3417,
  "41.5</w>": 3418,
  "41.67</w>": 3419,
  "41.</w>": 3420,
  "416</w>": 3421,
  "418</w>": 3422,
  "419</w>": 3423,
  "41</w>": 3424,
  "42)</w>": 3425,
  "42,</w>": 3426,
  "42.": 3427,
  "42.0</w>": 3428,
  "42.11</w>": 3429,
  "42.31</w>": 3430,
  "42.5</w>": 3431,
  "42.86</w>": 3432,
  "42.</w>": 3433,
  "420</w>": 3434,
  "421</w>": 3435,
  "422</w>": 3436,
  "423</w>": 3437,
  "425</w>": 3438,
  "426</w>": 3439,
  "42</w>": 3440,
  "43": 3441,
  "43,</w>": 3442,
  "43.": 3443,
  "43.0</w>": 3444,
  "43.33</w>": 3445,
  "43.75</w>": 3446,
  "43.</w>": 3447,
  "430</w>": 3448,
  "434/": 3449,
  "434/9.</w>": 3450,
  "434</w>": 3451,
  "438/9</w>": 3452,
  "439</w>": 3453,
  "43</w>": 3454,
  "44-": 3455,
  "44.": 3456,
  "44.0</w>": 3457,
  "44.44</w>": 3458,
  "44.5</w>": 3459,
  "44.</w>": 3460,
  "440</w>": 3461,
  "443</w>": 3462,
  "444</w>": 3463,
  "446</w>": 3464,
  "449</w>": 3465,
  "44</w>": 3466,
  "45": 3467,
  "45.": 3468,
  "45.45</w>": 3469,
  "45.83</w>": 3470,
  "454</w>": 3471,
  "455</w>": 3472,
  "456</w>": 3473,
  "457</w>": 3474,
  "458</w>": 3475,
  "45</w>": 3476,
  "46": 3477,
  "46)</w>": 3478,
  "46,</w>": 3479,
  "46-": 3480,
  "46.": 3481,
  "46.0</w>": 3482,
  "46.15</w>": 3483,
  "46.33</w>": 3484,
  "46.5</w>": 3485,
  "46.67</w>": 3486,
  "46.</w>": 3487,
  "462</w>": 3488,
  "463,</w>": 3489,
  "464</w>": 3490,
  "466</w>": 3491,
  "46</w>": 3492,
  "47": 3493,
  "47)</w>": 3494,
  "47,</w>": 3495,
  "47-": 3496,
  "47.": 3497,
  "47.06</w>": 3498,
  "47.0</w>": 3499,
  "47.33</w>": 3500,
  "47.37</w>": 3501,
  "47.5</w>": 3502,
  "47.62</w>": 3503,
  "47.83</w>": 3504,
  "47.</w>": 3505,
  "472</w>": 3506,
  "473</w>": 3507,
  "475</w>": 3508,
  "477</w>": 3509,
  "478</w>": 3510,
  "479</w>": 3511,
  "47</w>": 3512,
  "47th</w>": 3513,
  "48": 3514,
  "48,</w>": 3515,
  "48.": 3516,
  "48.0</w>": 3517,
  "48.25</w>": 3518,
  "48.5</w>": 3519,
  "48.</w>": 3520,
  "482</w>": 3521,
  "484</w>": 3522,
  "486</w>": 3523,
  "487</w>": 3524,
  "488</w>": 3525,
  "489</w>": 3526,
  "48</w>": 3527,
  "49": 3528,
  "49,</w>": 3529,
  "49.": 3530,
  "49.0</w>": 3531,
  "49.5</w>": 3532,
  "49.</w>": 3533,
  "491</w>": 3534,
  "492</w>": 3535,
  "494</w>": 3536,
  "497</w>": 3537,
  "498</w>": 3538,
  "49</w>": 3539,
  "4:</w>": 3540,
  "4;</w>": 3541,
  "4</w>": 3542,
  "4th</w>": 3543,
  "4\u2013": 3544,
  "4\u20130,</w>": 3545,
  "4\u20130.</w>": 3546,
  "4\u20130</w>": 3547,
  "4\u20131,</w>": 3548,
  "4\u20131.</w>": 3549,
  "4\u20131</w>": 3550,
  "4\u201325</w>": 3551,
  "4\u201395</w>": 3552,
  "5": 3553,
  "5),</w>": 3554,
  "5).</w>": 3555,
  "5);</w>": 3556,
  "5)</w>": 3557,
  "5,": 3558,
  "5,</w>": 3559,
  "5-": 3560,
  "5-26</w>": 3561,
  "5-Test</w>": 3562,
  "5-match</w>": 3563,
  "5-run</w>": 3564,
  "5-wicket</w>": 3565,
  "5.": 3566,
  "5.0</w>": 3567,
  "5.12</w>": 3568,
  "5.19</w>": 3569,
  "5.36</w>": 3570,
  "5.37</w>": 3571,
  "5.44</w>": 3572,
  "5.64</w>": 3573,
  "5.66</w>": 3574,
  "5.68</w>": 3575,
  "5.75</w>": 3576,
  "5.76</w>": 3577,
  "5.77</w>": 3578,
  "5.82</w>": 3579,
  "5.83</w>": 3580,
  "5.8</w>": 3581,
  "5.9</w>": 3582,
  "5.</w>": 3583,
  "5/": 3584,
  "5/0": 3585,
  "5/5</w>": 3586,
  "5/6": 3587,
  "5/6</w>": 3588,
  "50": 3589,
  "50%</w>": 3590,
  "50)</w>": 3591,
  "50+</w>": 3592,
  "50,000)</w>": 3593,
  "50,000.</w>": 3594,
  "50,000</w>": 3595,
  "50,</w>": 3596,
  "50-": 3597,
  "50-over</w>": 3598,
  "50-run</w>": 3599,
  "50.": 3600,
  "50.0</w>": 3601,
  "50.5</w>": 3602,
  "50.67</w>": 3603,
  "50.</w>": 3604,
  "50/": 3605,
  "5000</w>": 3606,
  "500</w>": 3607,
  "500th</w>": 3608,
  "501</w>": 3609,
  "502</w>": 3610,
  "503</w>": 3611,
  "504</w>": 3612,
  "505</w>": 3613,
  "506</w>": 3614,
  "507</w>": 3615,
  "508</w>": 3616,
  "509</w>": 3617,
  "50</w>": 3618,
  "50s,</w>": 3619,
  "50s</w>": 3620,
  "50th</w>": 3621,
  "50\u2013": 3622,
  "51,</w>": 3623,
  "51-": 3624,
  "51.": 3625,
  "51.0</w>": 3626,
  "51.72</w>": 3627,
  "51.</w>": 3628,
  "512</w>": 3629,
  "514</w>": 3630,
  "515</w>": 3631,
  "51</w>": 3632,
  "52": 3633,
  "52,</w>": 3634,
  "52.": 3635,
  "52.0</w>": 3636,
  "52.5</w>": 3637,
  "52.63</w>": 3638,
  "52.94</w>": 3639,
  "52.</w>": 3640,
  "520</w>": 3641,
  "523</w>": 3642,
  "524</w>": 3643,
  "525</w>": 3644,
  "528</w>": 3645,
  "529</w>": 3646,
  "52</w>": 3647,
  "53": 3648,
  "53,</w>": 3649,
  "53.": 3650,
  "53.0</w>": 3651,
  "53.33</w>": 3652,
  "53.57</w>": 3653,
  "53.5</w>": 3654,
  "53.85</w>": 3655,
  "53.</w>": 3656,
  "530</w>": 3657,
  "534</w>": 3658,
  "537</w>": 3659,
  "538</w>": 3660,
  "53</w>": 3661,
  "54": 3662,
  "54,</w>": 3663,
  "54.": 3664,
  "54.0</w>": 3665,
  "54.55</w>": 3666,
  "54.67</w>": 3667,
  "54.</w>": 3668,
  "540</w>": 3669,
  "542</w>": 3670,
  "544</w>": 3671,
  "548</w>": 3672,
  "54</w>": 3673,
  "55,</w>": 3674,
  "55-": 3675,
  "55-man</w>": 3676,
  "55.": 3677,
  "55.0</w>": 3678,
  "55.25</w>": 3679,
  "55.56</w>": 3680,
  "55.5</w>": 3681,
  "55.</w>": 3682,
  "550</w>": 3683,
  "551</w>": 3684,
  "555</w>": 3685,
  "556</w>": 3686,
  "558</w>": 3687,
  "55</w>": 3688,
  "56": 3689,
  "56)</w>": 3690,
  "56,</w>": 3691,
  "56.": 3692,
  "56.0</w>": 3693,
  "56.25</w>": 3694,
  "56.67</w>": 3695,
  "56.</w>": 3696,
  "562</w>": 3697,
  "563</w>": 3698,
  "564</w>": 3699,
  "566</w>": 3700,
  "56</w>": 3701,
  "57": 3702,
  "57)</w>": 3703,
  "57,</w>": 3704,
  "57.": 3705,
  "57.0</w>": 3706,
  "57.14</w>": 3707,
  "57.5</w>": 3708,
  "57.69</w>": 3709,
  "57.89</w>": 3710,
  "57.</w>": 3711,
  "570</w>": 3712,
  "572</w>": 3713,
  "574</w>": 3714,
  "575</w>": 3715,
  "57</w>": 3716,
  "58": 3717,
  "58,</w>": 3718,
  "58-": 3719,
  "58.": 3720,
  "58.0</w>": 3721,
  "58.33</w>": 3722,
  "58.82</w>": 3723,
  "58.</w>": 3724,
  "580</w>": 3725,
  "581</w>": 3726,
  "583</w>": 3727,
  "587</w>": 3728,
  "589</w>": 3729,
  "58</w>": 3730,
  "59": 3731,
  "59,</w>": 3732,
  "59-": 3733,
  "59.": 3734,
  "59.09</w>": 3735,
  "59.0</w>": 3736,
  "59.5</w>": 3737,
  "59.</w>": 3738,
  "591</w>": 3739,
  "594</w>": 3740,
  "598</w>": 3741,
  "599</w>": 3742,
  "59</w>": 3743,
  "5:</w>": 3744,
  "5;</w>": 3745,
  "5</w>": 3746,
  "5th</w>": 3747,
  "5wI</w>": 3748,
  "5\u2013": 3749,
  "5\u20130,</w>": 3750,
  "5\u20130.</w>": 3751,
  "5\u20130</w>": 3752,
  "5\u20131.</w>": 3753,
  "6": 3754,
  "6%</w>": 3755,
  "6),</w>": 3756,
  "6).</w>": 3757,
  "6);</w>": 3758,
  "6)</w>": 3759,
  "6,": 3760,
  "6,</w>": 3761,
  "6-": 3762,
  "6.": 3763,
  "6.04</w>": 3764,
  "6.0</w>": 3765,
  "6.11</w>": 3766,
  "6.13</w>": 3767,
  "6.14</w>": 3768,
  "6.16</w>": 3769,
  "6.17</w>": 3770,
  "6.18</w>": 3771,
  "6.33</w>": 3772,
  "6.34</w>": 3773,
  "6.37</w>": 3774,
  "6.44</w>": 3775,
  "6.46</w>": 3776,
  "6.49</w>": 3777,
  "6.4</w>": 3778,
  "6.52</w>": 3779,
  "6.54</w>": 3780,
  "6.62</w>": 3781,
  "6.65</w>": 3782,
  "6.66</w>": 3783,
  "6.67</w>": 3784,
  "6.68</w>": 3785,
  "6.71</w>": 3786,
  "6.72</w>": 3787,
  "6.74</w>": 3788,
  "6.97</w>": 3789,
  "6.</w>": 3790,
  "6/": 3791,
  "6/0": 3792,
  "6/07</w>": 3793,
  "6/7": 3794,
  "6/7</w>": 3795,
  "60": 3796,
  "60)</w>": 3797,
  "60,</w>": 3798,
  "60-": 3799,
  "60.": 3800,
  "60.87</w>": 3801,
  "60.</w>": 3802,
  "6000</w>": 3803,
  "600</w>": 3804,
  "604</w>": 3805,
  "609</w>": 3806,
  "60</w>": 3807,
  "61,</w>": 3808,
  "61.": 3809,
  "61.0</w>": 3810,
  "61.11</w>": 3811,
  "61.54</w>": 3812,
  "61.5</w>": 3813,
  "61.9</w>": 3814,
  "61.</w>": 3815,
  "618</w>": 3816,
  "61</w>": 3817,
  "62": 3818,
  "62)</w>": 3819,
  "62,</w>": 3820,
  "62.": 3821,
  "62.0</w>": 3822,
  "62.5</w>": 3823,
  "62.96</w>": 3824,
  "62.</w>": 3825,
  "624</w>": 3826,
  "626</w>": 3827,
  "627</w>": 3828,
  "629</w>": 3829,
  "62</w>": 3830,
  "63": 3831,
  "63,</w>": 3832,
  "63.": 3833,
  "63.0</w>": 3834,
  "63.16</w>": 3835,
  "63.33</w>": 3836,
  "63.64</w>": 3837,
  "63.</w>": 3838,
  "631</w>": 3839,
  "633</w>": 3840,
  "635</w>": 3841,
  "636</w>": 3842,
  "637</w>": 3843,
  "63</w>": 3844,
  "64": 3845,
  "64,</w>": 3846,
  "64-": 3847,
  "64.": 3848,
  "64.0</w>": 3849,
  "64.29</w>": 3850,
  "64.71</w>": 3851,
  "64.</w>": 3852,
  "64</w>": 3853,
  "65": 3854,
  "65);</w>": 3855,
  "65,</w>": 3856,
  "65.": 3857,
  "65.0</w>": 3858,
  "65.22</w>": 3859,
  "65.38</w>": 3860,
  "65.</w>": 3861,
  "652</w>": 3862,
  "653</w>": 3863,
  "656</w>": 3864,
  "658</w>": 3865,
  "65</w>": 3866,
  "66,</w>": 3867,
  "66.": 3868,
  "66.0</w>": 3869,
  "66.67</w>": 3870,
  "66.</w>": 3871,
  "660</w>": 3872,
  "662</w>": 3873,
  "664</w>": 3874,
  "666</w>": 3875,
  "668</w>": 3876,
  "66</w>": 3877,
  "67": 3878,
  "67,</w>": 3879,
  "67.": 3880,
  "67.0</w>": 3881,
  "67.5</w>": 3882,
  "67.86</w>": 3883,
  "67.</w>": 3884,
  "675</w>": 3885,
  "678</w>": 3886,
  "679</w>": 3887,
  "67</w>": 3888,
  "68": 3889,
  "68)</w>": 3890,
  "68,</w>": 3891,
  "68.": 3892,
  "68.0</w>": 3893,
  "68.18</w>": 3894,
  "68.42</w>": 3895,
  "68.75</w>": 3896,
  "68.97</w>": 3897,
  "68.</w>": 3898,
  "685</w>": 3899,
  "68</w>": 3900,
  "69": 3901,
  "69)</w>": 3902,
  "69,</w>": 3903,
  "69.": 3904,
  "69.0</w>": 3905,
  "69.23</w>": 3906,
  "69.</w>": 3907,
  "694</w>": 3908,
  "695</w>": 3909,
  "698</w>": 3910,
  "699</w>": 3911,
  "69</w>": 3912,
  "6:</w>": 3913,
  "6;</w>": 3914,
  "6</w>": 3915,
  "6th</w>": 3916,
  "6\u2013": 3917,
  "6\u201307</w>": 3918,
  "7": 3919,
  "7),</w>": 3920,
  "7).</w>": 3921,
  "7)</w>": 3922,
  "7*</w>": 3923,
  "7,": 3924,
  "7,000</w>": 3925,
  "7,</w>": 3926,
  "7-": 3927,
  "7.": 3928,
  "7.02</w>": 3929,
  "7.06</w>": 3930,
  "7.0</w>": 3931,
  "7.15</w>": 3932,
  "7.17</w>": 3933,
  "7.18</w>": 3934,
  "7.25</w>": 3935,
  "7.34</w>": 3936,
  "7.35</w>": 3937,
  "7.3</w>": 3938,
  "7.46</w>": 3939,
  "7.50</w>": 3940,
  "7.52</w>": 3941,
  "7.74</w>": 3942,
  "7.7</w>": 3943,
  "7.84</w>": 3944,
  "7.8</w>": 3945,
  "7.91</w>": 3946,
  "7.96</w>": 3947,
  "7.</w>": 3948,
  "7/": 3949,
  "7/4": 3950,
  "70": 3951,
  "70)</w>": 3952,
  "70,</w>": 3953,
  "70.": 3954,
  "70.0</w>": 3955,
  "70.27</w>": 3956,
  "70.59</w>": 3957,
  "70.</w>": 3958,
  "700</w>": 3959,
  "702</w>": 3960,
  "707</w>": 3961,
  "70</w>": 3962,
  "71,</w>": 3963,
  "71.": 3964,
  "71.0</w>": 3965,
  "71.43</w>": 3966,
  "71.79</w>": 3967,
  "71.88</w>": 3968,
  "71.</w>": 3969,
  "710</w>": 3970,
  "712</w>": 3971,
  "719</w>": 3972,
  "71</w>": 3973,
  "72,</w>": 3974,
  "72.": 3975,
  "72.0</w>": 3976,
  "72.22</w>": 3977,
  "72.41</w>": 3978,
  "72.73</w>": 3979,
  "72.</w>": 3980,
  "721</w>": 3981,
  "726</w>": 3982,
  "72</w>": 3983,
  "73)</w>": 3984,
  "73,</w>": 3985,
  "73.": 3986,
  "73.0</w>": 3987,
  "73.33</w>": 3988,
  "73.68</w>": 3989,
  "73.91</w>": 3990,
  "73.</w>": 3991,
  "730</w>": 3992,
  "73</w>": 3993,
  "74,</w>": 3994,
  "74.": 3995,
  "74.0</w>": 3996,
  "74.</w>": 3997,
  "741</w>": 3998,
  "742</w>": 3999,
  "743</w>": 4000,
  "746</w>": 4001,
  "74</w>": 4002,
  "75": 4003,
  "75)</w>": 4004,
  "75,</w>": 4005,
  "75.": 4006,
  "75.</w>": 4007,
  "759</w>": 4008,
  "75</w>": 4009,
  "76": 4010,
  "76.": 4011,
  "76.0</w>": 4012,
  "76.47</w>": 4013,
  "76.92</w>": 4014,
  "76.</w>": 4015,
  "764</w>": 4016,
  "767</w>": 4017,
  "76</w>": 4018,
  "77,</w>": 4019,
  "77.": 4020,
  "77.27</w>": 4021,
  "77.78</w>": 4022,
  "77.</w>": 4023,
  "770</w>": 4024,
  "771</w>": 4025,
  "776</w>": 4026,
  "779</w>": 4027,
  "77</w>": 4028,
  "78,</w>": 4029,
  "78.": 4030,
  "78.0</w>": 4031,
  "78.26</w>": 4032,
  "78.57</w>": 4033,
  "78.95</w>": 4034,
  "78.</w>": 4035,
  "780</w>": 4036,
  "783</w>": 4037,
  "785</w>": 4038,
  "787</w>": 4039,
  "788</w>": 4040,
  "78</w>": 4041,
  "79": 4042,
  "79)</w>": 4043,
  "79,</w>": 4044,
  "79.": 4045,
  "79.17</w>": 4046,
  "79.</w>": 4047,
  "793</w>": 4048,
  "794</w>": 4049,
  "796</w>": 4050,
  "798</w>": 4051,
  "79</w>": 4052,
  "7:</w>": 4053,
  "7;</w>": 4054,
  "7</w>": 4055,
  "7\u2013": 4056,
  "8": 4057,
  "8%</w>": 4058,
  "8),</w>": 4059,
  "8).</w>": 4060,
  "8)</w>": 4061,
  "8,": 4062,
  "8,000</w>": 4063,
  "8,</w>": 4064,
  "8-": 4065,
  "8-99</w>": 4066,
  "8-run</w>": 4067,
  "8.": 4068,
  "8.01</w>": 4069,
  "8.05</w>": 4070,
  "8.0</w>": 4071,
  "8.14</w>": 4072,
  "8.21</w>": 4073,
  "8.32</w>": 4074,
  "8.37</w>": 4075,
  "8.48</w>": 4076,
  "8.52</w>": 4077,
  "8.5</w>": 4078,
  "8.63</w>": 4079,
  "8.6</w>": 4080,
  "8.97</w>": 4081,
  "8.</w>": 4082,
  "8/": 4083,
  "8/19</w>": 4084,
  "8/9</w>": 4085,
  "80": 4086,
  "80,</w>": 4087,
  "80.": 4088,
  "80.0</w>": 4089,
  "80.</w>": 4090,
  "803</w>": 4091,
  "805</w>": 4092,
  "806</w>": 4093,
  "807</w>": 4094,
  "808</w>": 4095,
  "80</w>": 4096,
  "81,</w>": 4097,
  "81.": 4098,
  "81.0</w>": 4099,
  "81.25</w>": 4100,
  "81.82</w>": 4101,
  "81.</w>": 4102,
  "811</w>": 4103,
  "812</w>": 4104,
  "814</w>": 4105,
  "816</w>": 4106,
  "817</w>": 4107,
  "81</w>": 4108,
  "82,</w>": 4109,
  "82-": 4110,
  "82.": 4111,
  "82.0</w>": 4112,
  "82.35</w>": 4113,
  "82.61</w>": 4114,
  "82.</w>": 4115,
  "825</w>": 4116,
  "826</w>": 4117,
  "828</w>": 4118,
  "82</w>": 4119,
  "83,</w>": 4120,
  "83.": 4121,
  "83.0</w>": 4122,
  "83.33</w>": 4123,
  "83.</w>": 4124,
  "830</w>": 4125,
  "833</w>": 4126,
  "834</w>": 4127,
  "835</w>": 4128,
  "836</w>": 4129,
  "83</w>": 4130,
  "84)</w>": 4131,
  "84,</w>": 4132,
  "84.": 4133,
  "84.0</w>": 4134,
  "84.21</w>": 4135,
  "84.62</w>": 4136,
  "84.</w>": 4137,
  "840</w>": 4138,
  "841</w>": 4139,
  "845</w>": 4140,
  "847</w>": 4141,
  "848</w>": 4142,
  "84</w>": 4143,
  "85,</w>": 4144,
  "85.": 4145,
  "85.0</w>": 4146,
  "85.71</w>": 4147,
  "85.</w>": 4148,
  "851</w>": 4149,
  "852</w>": 4150,
  "856</w>": 4151,
  "857</w>": 4152,
  "859</w>": 4153,
  "85</w>": 4154,
  "86,</w>": 4155,
  "86.": 4156,
  "86.0</w>": 4157,
  "86.11</w>": 4158,
  "86.67</w>": 4159,
  "86.</w>": 4160,
  "861</w>": 4161,
  "863</w>": 4162,
  "868</w>": 4163,
  "86</w>": 4164,
  "87,</w>": 4165,
  "87.": 4166,
  "87.0</w>": 4167,
  "87.5</w>": 4168,
  "87.</w>": 4169,
  "870</w>": 4170,
  "876</w>": 4171,
  "878</w>": 4172,
  "879</w>": 4173,
  "87</w>": 4174,
  "88)</w>": 4175,
  "88,</w>": 4176,
  "88-": 4177,
  "88.": 4178,
  "88.0</w>": 4179,
  "88.24</w>": 4180,
  "88.57</w>": 4181,
  "88.89</w>": 4182,
  "88.</w>": 4183,
  "880</w>": 4184,
  "883</w>": 4185,
  "885</w>": 4186,
  "886</w>": 4187,
  "889</w>": 4188,
  "88</w>": 4189,
  "89,</w>": 4190,
  "89.": 4191,
  "89.47</w>": 4192,
  "89.</w>": 4193,
  "892</w>": 4194,
  "897</w>": 4195,
  "899</w>": 4196,
  "89</w>": 4197,
  "8:</w>": 4198,
  "8;</w>": 4199,
  "8</w>": 4200,
  "8th</w>": 4201,
  "8\u2013": 4202,
  "9": 4203,
  "9),</w>": 4204,
  "9).</w>": 4205,
  "9)</w>": 4206,
  "9*</w>": 4207,
  "9,": 4208,
  "9,000</w>": 4209,
  "9,</w>": 4210,
  "9-": 4211,
  "9.": 4212,
  "9.04</w>": 4213,
  "9.05</w>": 4214,
  "9.07</w>": 4215,
  "9.0</w>": 4216,
  "9.11</w>": 4217,
  "9.15</w>": 4218,
  "9.24</w>": 4219,
  "9.36</w>": 4220,
  "9.6</w>": 4221,
  "9.71</w>": 4222,
  "9.86</w>": 4223,
  "9.8</w>": 4224,
  "9.</w>": 4225,
  "9/": 4226,
  "9/30": 4227,
  "9/7</w>": 4228,
  "90": 4229,
  "90,</w>": 4230,
  "90-": 4231,
  "90.": 4232,
  "90.0</w>": 4233,
  "90.48</w>": 4234,
  "90.91</w>": 4235,
  "90.</w>": 4236,
  "902</w>": 4237,
  "905</w>": 4238,
  "90</w>": 4239,
  "90s</w>": 4240,
  "91,</w>": 4241,
  "91.": 4242,
  "91.0</w>": 4243,
  "91.67</w>": 4244,
  "91.</w>": 4245,
  "910</w>": 4246,
  "912</w>": 4247,
  "913</w>": 4248,
  "915</w>": 4249,
  "917</w>": 4250,
  "919</w>": 4251,
  "91</w>": 4252,
  "92)</w>": 4253,
  "92,</w>": 4254,
  "92.": 4255,
  "92.0</w>": 4256,
  "92.31</w>": 4257,
  "92.59</w>": 4258,
  "92.86</w>": 4259,
  "92.</w>": 4260,
  "923</w>": 4261,
  "924</w>": 4262,
  "926</w>": 4263,
  "92</w>": 4264,
  "93,</w>": 4265,
  "93-": 4266,
  "93.": 4267,
  "93.0</w>": 4268,
  "93.33</w>": 4269,
  "93.75</w>": 4270,
  "93.</w>": 4271,
  "937</w>": 4272,
  "938</w>": 4273,
  "93</w>": 4274,
  "94)</w>": 4275,
  "94,</w>": 4276,
  "94.": 4277,
  "94.0</w>": 4278,
  "94.12</w>": 4279,
  "94.44</w>": 4280,
  "94.74</w>": 4281,
  "94.</w>": 4282,
  "947</w>": 4283,
  "94</w>": 4284,
  "95)</w>": 4285,
  "95,</w>": 4286,
  "95.": 4287,
  "95.0</w>": 4288,
  "95.45</w>": 4289,
  "95.83</w>": 4290,
  "95.</w>": 4291,
  "950</w>": 4292,
  "956</w>": 4293,
  "95</w>": 4294,
  "96)</w>": 4295,
  "96,</w>": 4296,
  "96.": 4297,
  "96.0</w>": 4298,
  "96.43</w>": 4299,
  "96.</w>": 4300,
  "960</w>": 4301,
  "961</w>": 4302,
  "963</w>": 4303,
  "96</w>": 4304,
  "97": 4305,
  "97)</w>": 4306,
  "97,</w>": 4307,
  "97.": 4308,
  "97.</w>": 4309,
  "970</w>": 4310,
  "973</w>": 4311,
  "974</w>": 4312,
  "976</w>": 4313,
  "978": 4314,
  "978-": 4315,
  "978-0": 4316,
  "978-0-": 4317,
  "978-0-0": 4318,
  "978-0-7": 4319,
  "978-0-75": 4320,
  "978-0-9": 4321,
  "978-1-": 4322,
  "978-1-7": 4323,
  "978-1-74": 4324,
  "978-1-8": 4325,
  "978-1-90": 4326,
  "9780": 4327,
  "97</w>": 4328,
  "98)</w>": 4329,
  "98,</w>": 4330,
  "98.": 4331,
  "98.0</w>": 4332,
  "98.</w>": 4333,
  "985</w>": 4334,
  "98</w>": 4335,
  "99)</w>": 4336,
  "99,</w>": 4337,
  "99.": 4338,
  "99.</w>": 4339,
  "990</w>": 4340,
  "991</w>": 4341,
  "998</w>": 4342,
  "99</w>": 4343,
  "9:</w>": 4344,
  "9;</w>": 4345,
  "9</w>": 4346,
  "9th</w>": 4347,
  "9\u2013": 4348,
  ":": 4349,
  "://": 4350,
  "://www.": 4351,
  ":30</w>": 4352,
  ":</w>": 4353,
  ";": 4354,
  ";</w>": 4355,
  "<": 4356,
  "</w>": 4357,
  "=": 4358,
  "=</w>": 4359,
  ">": 4360,
  "?": 4361,
  "?\".</w>": 4362,
  "?\"</w>": 4363,
  "?</w>": 4364,
  "@": 4365,
  "A": 4366,
  "A\"</w>": 4367,
  "A$": 4368,
  "A's</w>": 4369,
  "A),</w>": 4370,
  "A).</w>": 4371,
  "A)</w>": 4372,
  "A,</w>": 4373,
  "A-": 4374,
  "A.": 4375,
  "A.</w>": 4376,
  "A</w>": 4377,
  "AA</w>": 4378,
  "AAA</w>": 4379,
  "AAH</w>": 4380,
  "AAI": 4381,
  "AAIP</w>": 4382,
  "AAM</w>": 4383,
  "AAP</w>": 4384,
  "AAS</w>": 4385,
  "AAhan</w>": 4386,
  "AB": 4387,
  "AB</w>": 4388,
  "ABB</w>": 4389,
  "ABY</w>": 4390,
  "AC": 4391,
  "AC</w>": 4392,
  "ACB</w>": 4393,
  "ACC</w>": 4394,
  "ACF</w>": 4395,
  "ACI</w>": 4396,
  "ACK</w>": 4397,
  "ACL</w>": 4398,
  "ACO</w>": 4399,
  "ACR</w>": 4400,
  "ACS.</w>": 4401,
  "ACS</w>": 4402,
  "ACT</w>": 4403,
  "AD": 4404,
  "AD</w>": 4405,
  "ADD": 4406,
  "ADDLA</w>": 4407,
  "ADJ</w>": 4408,
  "ADL</w>": 4409,
  "ADR</w>": 4410,
  "ADS</w>": 4411,
  "AE</w>": 4412,
  "AEMP</w>": 4413,
  "AEN</w>": 4414,
  "AF": 4415,
  "AF</w>": 4416,
  "AFL</w>": 4417,
  "AG</w>": 4418,
  "AGC</w>": 4419,
  "AGH</w>": 4420,
  "AGR</w>": 4421,
  "AGS</w>": 4422,
  "AH</w>": 4423,
  "AHT</w>": 4424,
  "AI": 4425,
  "AI</w>": 4426,
  "AIF</w>": 4427,
  "AISD</w>": 4428,
  "AIV</w>": 4429,
  "AJ": 4430,
  "AJ</w>": 4431,
  "AJA</w>": 4432,
  "AJADDLA</w>": 4433,
  "AK</w>": 4434,
  "AKS</w>": 4435,
  "AL</w>": 4436,
  "ALKL</w>": 4437,
  "AM</w>": 4438,
  "AMA</w>": 4439,
  "AMCD</w>": 4440,
  "AMEM</w>": 4441,
  "AMN</w>": 4442,
  "AN</w>": 4443,
  "AO</w>": 4444,
  "AP": 4445,
  "AP</w>": 4446,
  "APC</w>": 4447,
  "APR</w>": 4448,
  "AR": 4449,
  "AR</w>": 4450,
  "ARA</w>": 4451,
  "ARB</w>": 4452,
  "ARG</w>": 4453,
  "ARH</w>": 4454,
  "ARI</w>": 4455,
  "ARJ</w>": 4456,
  "ARM</w>": 4457,
  "ARS</w>": 4458,
  "AS</w>": 4459,
  "ASH</w>": 4460,
  "ASJ</w>": 4461,
  "ASS</w>": 4462,
  "AT": 4463,
  "AT</w>": 4464,
  "ATE</w>": 4465,
  "ATS</w>": 4466,
  "AU": 4467,
  "AU</w>": 4468,
  "AUK": 4469,
  "AUK</w>": 4470,
  "AUKDS</w>": 4471,
  "AV</w>": 4472,
  "AW</w>": 4473,
  "AWJ</w>": 4474,
  "AWR</w>": 4475,
  "AXA</w>": 4476,
  "AY</w>": 4477,
  "AZ</w>": 4478,
  "AZM</w>": 4479,
  "Aad": 4480,
  "Aadil</w>": 4481,
  "Aaditya</w>": 4482,
  "Aaf": 4483,
  "Aaftab</w>": 4484,
  "Aag": 4485,
  "Aagri</w>": 4486,
  "Aak": 4487,
  "Aakar": 4488,
  "Aakarshit</w>": 4489,
  "Aakash</w>": 4490,
  "Aam": 4491,
  "Aamer</w>": 4492,
  "Aamir</w>": 4493,
  "Aan": 4494,
  "Aanshul</w>": 4495,
  "Aaq": 4496,
  "Aaqib</w>": 4497,
  "Aar": 4498,
  "Aari": 4499,
  "Aarif</w>": 4500,
  "Aarn": 4501,
  "Aarnav</w>": 4502,
  "Aaron,</w>": 4503,
  "Aaron</w>": 4504,
  "Aarti</w>": 4505,
  "Aarya</w>": 4506,
  "Aas": 4507,
  "Aashita</w>": 4508,
  "Aasif</w>": 4509,
  "Aay": 4510,
  "Aayan</w>": 4511,
  "Ab": 4512,
  "Aba": 4513,
  "Abab": 4514,
  "Ababu</w>": 4515,
  "Abad": 4516,
  "Abadji": 4517,
  "Abadjiev": 4518,
  "Abadjieva,</w>": 4519,
  "Abadjieva</w>": 4520,
  "Abahani</w>": 4521,
  "Abanda,</w>": 4522,
  "Abanda</w>": 4523,
  "Abb": 4524,
  "Abbas,</w>": 4525,
  "Abbas</w>": 4526,
  "Abbasi,</w>": 4527,
  "Abbasi</w>": 4528,
  "Abbe": 4529,
  "Abbott,</w>": 4530,
  "Abbott</w>": 4531,
  "Abd": 4532,
  "Abdalah</w>": 4533,
  "Abdali</w>": 4534,
  "Abdallah,</w>": 4535,
  "Abdallah</w>": 4536,
  "Abdh": 4537,
  "Abdhulla,</w>": 4538,
  "Abdhulla</w>": 4539,
  "Abdoll": 4540,
  "Abdolla": 4541,
  "Abdollah": 4542,
  "Abdollahpour</w>": 4543,
  "Abdul": 4544,
  "Abdul,</w>": 4545,
  "Abdul-": 4546,
  "Abdul-Shakoor</w>": 4547,
  "Abdul</w>": 4548,
  "Abdulkar": 4549,
  "Abdulkareem,</w>": 4550,
  "Abdulkareem</w>": 4551,
  "Abdull": 4552,
  "Abdulla,</w>": 4553,
  "Abdulla</w>": 4554,
  "Abdullah,</w>": 4555,
  "Abdullah</w>": 4556,
  "Abdulquad": 4557,
  "Abdulquadri,</w>": 4558,
  "Abdulquadri</w>": 4559,
  "Abdulrahman</w>": 4560,
  "Abdulras": 4561,
  "Abdulrasak</w>": 4562,
  "Abdur</w>": 4563,
  "Abe": 4564,
  "Abe,</w>": 4565,
  "Abe</w>": 4566,
  "Abedin</w>": 4567,
  "Abeer</w>": 4568,
  "Abeera</w>": 4569,
  "Abeg": 4570,
  "Abega,</w>": 4571,
  "Abega</w>": 4572,
  "Abel,</w>": 4573,
  "Abel</w>": 4574,
  "Abell,</w>": 4575,
  "Abell</w>": 4576,
  "Aber": 4577,
  "Abey": 4578,
  "Abeyra": 4579,
  "Abeyrat": 4580,
  "Abeyrath": 4581,
  "Abeyrathna,</w>": 4582,
  "Abeyrathna</w>": 4583,
  "Abeyrathne,</w>": 4584,
  "Abeyrathne</w>": 4585,
  "Abeyratne,</w>": 4586,
  "Abeyratne</w>": 4587,
  "Abeys": 4588,
  "Abeysinghe,</w>": 4589,
  "Abeysinghe</w>": 4590,
  "Abeywickra": 4591,
  "Abeywickrama": 4592,
  "Abeywickrama,</w>": 4593,
  "Abeywickrama</w>": 4594,
  "Abeywickramasing": 4595,
  "Abeywickramasingha,</w>": 4596,
  "Abeywickramasingha</w>": 4597,
  "Abha": 4598,
  "Abhay</w>": 4599,
  "Abhi": 4600,
  "Abhijeet</w>": 4601,
  "Abhijit</w>": 4602,
  "Abhil": 4603,
  "Abhilas": 4604,
  "Abhilash</w>": 4605,
  "Abhilasha</w>": 4606,
  "Abhiman": 4607,
  "Abhimanyu</w>": 4608,
  "Abhin": 4609,
  "Abhinav</w>": 4610,
  "Abhinay</w>": 4611,
  "Abhiraj</w>": 4612,
  "Abhisek": 4613,
  "Abhisek</w>": 4614,
  "Abhisekh</w>": 4615,
  "Abhish": 4616,
  "Abhishek</w>": 4617,
  "Abhishesh</w>": 4618,
  "Abid": 4619,
  "Abid</w>": 4620,
  "Abidin,</w>": 4621,
  "Abidin</w>": 4622,
  "Abidullah</w>": 4623,
  "Abin": 4624,
  "Abin</w>": 4625,
  "Abinash,</w>": 4626,
  "Abinash</w>": 4627,
  "Abioy": 4628,
  "Abioye,</w>": 4629,
  "Abioye</w>": 4630,
  "Abishek</w>": 4631,
  "Ablish</w>": 4632,
  "Abo": 4633,
  "Aboag": 4634,
  "Aboagye,</w>": 4635,
  "Aboagye</w>": 4636,
  "Abol": 4637,
  "Abolari": 4638,
  "Abolarin,</w>": 4639,
  "Abolarin</w>": 4640,
  "Aborigin": 4641,
  "Aboriginal</w>": 4642,
  "About</w>": 4643,
  "Abra": 4644,
  "Abraash</w>": 4645,
  "Abrahams,</w>": 4646,
  "Abrahams</w>": 4647,
  "Abrar,</w>": 4648,
  "Abrar</w>": 4649,
  "Absar</w>": 4650,
  "Abu</w>": 4651,
  "Abub": 4652,
  "Abubac": 4653,
  "Abubacarr</w>": 4654,
  "Abug": 4655,
  "Abuga,</w>": 4656,
  "Abuga</w>": 4657,
  "Abul</w>": 4658,
  "Abur": 4659,
  "Aburto</w>": 4660,
  "Abw": 4661,
  "Abwom,</w>": 4662,
  "Ac": 4663,
  "Acade": 4664,
  "Academy,</w>": 4665,
  "Academy.</w>": 4666,
  "Academy</w>": 4667,
  "Acaw": 4668,
  "Acawei,</w>": 4669,
  "Acawei</w>": 4670,
  "Acc": 4671,
  "Acces": 4672,
  "According</w>": 4673,
  "Accrington</w>": 4674,
  "Aces</w>": 4675,
  "Ach": 4676,
  "Achand": 4677,
  "Achando,</w>": 4678,
  "Achando</w>": 4679,
  "Achar": 4680,
  "Achar,</w>": 4681,
  "Achar</w>": 4682,
  "Acharjee,</w>": 4683,
  "Acharjee</w>": 4684,
  "Achel": 4685,
  "Achelam,</w>": 4686,
  "Achelam</w>": 4687,
  "Achi": 4688,
  "Achiev": 4689,
  "Achievement</w>": 4690,
  "Achilles</w>": 4691,
  "Achit</w>": 4692,
  "Achrekar</w>": 4693,
  "Acker": 4694,
  "Ackerman": 4695,
  "Ackerman,</w>": 4696,
  "Ackerman</w>": 4697,
  "Ackermann,</w>": 4698,
  "Ackermann</w>": 4699,
  "Acre": 4700,
  "Acrey</w>": 4701,
  "Across</w>": 4702,
  "Ad": 4703,
  "Ada</w>": 4704,
  "Adair,</w>": 4705,
  "Adair</w>": 4706,
  "Adam": 4707,
  "Adam,</w>": 4708,
  "Adam</w>": 4709,
  "Adama</w>": 4710,
  "Adams,</w>": 4711,
  "Adams</w>": 4712,
  "Adamson</w>": 4713,
  "Adap": 4714,
  "Adapaka</w>": 4715,
  "Adder": 4716,
  "Adderley</w>": 4717,
  "Additionally,</w>": 4718,
  "Ade": 4719,
  "Adede": 4720,
  "Adedeji,</w>": 4721,
  "Adedeji</w>": 4722,
  "Adeel,</w>": 4723,
  "Adeel</w>": 4724,
  "Adegb": 4725,
  "Adegbola,</w>": 4726,
  "Adegbola</w>": 4727,
  "Adekun": 4728,
  "Adekunle,</w>": 4729,
  "Adekunle</w>": 4730,
  "Adelai": 4731,
  "Adelaide,</w>": 4732,
  "Adelaide.</w>": 4733,
  "Adelaide</w>": 4734,
  "Ademi</w>": 4735,
  "Adewoy": 4736,
  "Adewoye,</w>": 4737,
  "Adewoye</w>": 4738,
  "Adey</w>": 4739,
  "Adhi": 4740,
  "Adhihet": 4741,
  "Adhihetty,</w>": 4742,
  "Adhihetty</w>": 4743,
  "Adhikari,</w>": 4744,
  "Adhikari</w>": 4745,
  "Adhitya</w>": 4746,
  "Adi": 4747,
  "Adikari,</w>": 4748,
  "Adikari</w>": 4749,
  "Adil,</w>": 4750,
  "Adil</w>": 4751,
  "Adit": 4752,
  "Adith": 4753,
  "Adithya</w>": 4754,
  "Aditya,</w>": 4755,
  "Aditya</w>": 4756,
  "Administra": 4757,
  "Adnan</w>": 4758,
  "Adot": 4759,
  "Adotei</w>": 4760,
  "Adri": 4761,
  "Adri</w>": 4762,
  "Adrian</w>": 4763,
  "Advani,</w>": 4764,
  "Advani</w>": 4765,
  "Adver": 4766,
  "Advertis": 4767,
  "Advisory</w>": 4768,
  "Af": 4769,
  "Afaq</w>": 4770,
  "Affair": 4771,
  "Affili": 4772,
  "Affiliate</w>": 4773,
  "Affiliates</w>": 4774,
  "Afg": 4775,
  "Afghan": 4776,
  "Afghan</w>": 4777,
  "Afghanist": 4778,
  "Afghanistan's</w>": 4779,
  "Afghanistan,</w>": 4780,
  "Afghanistan.</w>": 4781,
  "Afghanistan</w>": 4782,
  "Afi": 4783,
  "Afida</w>": 4784,
  "Afif</w>": 4785,
  "Afis</w>": 4786,
  "Afra": 4787,
  "Afrad</w>": 4788,
  "Afri": 4789,
  "Afric": 4790,
  "Africa": 4791,
  "Africa\".</w>": 4792,
  "Africa's</w>": 4793,
  "Africa,</w>": 4794,
  "Africa.</w>": 4795,
  "Africa;</w>": 4796,
  "Africa</w>": 4797,
  "African-born</w>": 4798,
  "African</w>": 4799,
  "Africans,</w>": 4800,
  "Africans.</w>": 4801,
  "Africans</w>": 4802,
  "Afridi": 4803,
  "Afridi's</w>": 4804,
  "Afridi,</w>": 4805,
  "Afridi.</w>": 4806,
  "Afridi</w>": 4807,
  "Afrik": 4808,
  "Afrika": 4809,
  "Afro": 4810,
  "Afro-Asia</w>": 4811,
  "Aftab</w>": 4812,
  "After": 4813,
  "After</w>": 4814,
  "Afterwards,</w>": 4815,
  "Aftha": 4816,
  "Afthab</w>": 4817,
  "Afz": 4818,
  "Afzaal</w>": 4819,
  "Afzai": 4820,
  "Afzail</w>": 4821,
  "Afzal,</w>": 4822,
  "Afzal</w>": 4823,
  "Ag": 4824,
  "Aga,</w>": 4825,
  "Aga</w>": 4826,
  "Agaf": 4827,
  "Agafi": 4828,
  "Agafili,</w>": 4829,
  "Agafili</w>": 4830,
  "Again": 4831,
  "Again,</w>": 4832,
  "Again</w>": 4833,
  "Against</w>": 4834,
  "Agami": 4835,
  "Agamiire</w>": 4836,
  "Agar": 4837,
  "Agar,</w>": 4838,
  "Agar</w>": 4839,
  "Agark": 4840,
  "Agarkar,</w>": 4841,
  "Agarkar</w>": 4842,
  "Agarwal,</w>": 4843,
  "Agarwal</w>": 4844,
  "Agat": 4845,
  "Agatha,</w>": 4846,
  "Agatha</w>": 4847,
  "Agathang": 4848,
  "Agathangel": 4849,
  "Agathangelou,</w>": 4850,
  "Agathangelou</w>": 4851,
  "Agaz": 4852,
  "Agazuma,</w>": 4853,
  "Agazuma</w>": 4854,
  "Agb": 4855,
  "Agbo": 4856,
  "Agbomad": 4857,
  "Agbomadzi": 4858,
  "Agbomadzie,</w>": 4859,
  "Agbomadzie</w>": 4860,
  "Agboya,</w>": 4861,
  "Agboya</w>": 4862,
  "Age</w>": 4863,
  "Aged</w>": 4864,
  "Agha</w>": 4865,
  "Agnes</w>": 4866,
  "Agnew</w>": 4867,
  "Agni": 4868,
  "Agnihot": 4869,
  "Agnihotri,</w>": 4870,
  "Agnihotri</w>": 4871,
  "Agniv</w>": 4872,
  "Ago": 4873,
  "Agoram</w>": 4874,
  "Agra": 4875,
  "Agrawal,</w>": 4876,
  "Agrawal</w>": 4877,
  "Agri": 4878,
  "Agrim</w>": 4879,
  "Aguill": 4880,
  "Aguillei": 4881,
  "Aguilleira,</w>": 4882,
  "Aguilleira</w>": 4883,
  "Ah": 4884,
  "Ahad</w>": 4885,
  "Aham": 4886,
  "Ahamad,</w>": 4887,
  "Ahamad</w>": 4888,
  "Ahamed,</w>": 4889,
  "Ahamed</w>": 4890,
  "Ahammed</w>": 4891,
  "Ahan</w>": 4892,
  "Ahang": 4893,
  "Ahangamage,</w>": 4894,
  "Ahangamage</w>": 4895,
  "Ahead</w>": 4896,
  "Ahir,</w>": 4897,
  "Ahir</w>": 4898,
  "Ahit": 4899,
  "Ahitesh</w>": 4900,
  "Ahl": 4901,
  "Ahlawa": 4902,
  "Ahlawat,</w>": 4903,
  "Ahlawat</w>": 4904,
  "Ahm": 4905,
  "Ahma": 4906,
  "Ahmad": 4907,
  "Ahmad,</w>": 4908,
  "Ahmad</w>": 4909,
  "Ahmadh": 4910,
  "Ahmadhel,</w>": 4911,
  "Ahmadhel</w>": 4912,
  "Ahmadi,</w>": 4913,
  "Ahmadi</w>": 4914,
  "Ahmadsc": 4915,
  "Ahmadscha": 4916,
  "Ahmadschah</w>": 4917,
  "Ahmadullah</w>": 4918,
  "Ahmadzai,</w>": 4919,
  "Ahmadzai</w>": 4920,
  "Ahme": 4921,
  "Ahmed,</w>": 4922,
  "Ahmed.</w>": 4923,
  "Ahmed</w>": 4924,
  "Ahmedab": 4925,
  "Ahmedabad,</w>": 4926,
  "Ahmedabad.</w>": 4927,
  "Ahmedabad</w>": 4928,
  "Ahmedi,</w>": 4929,
  "Ahmedi</w>": 4930,
  "Ahmer</w>": 4931,
  "Ahn": 4932,
  "Ahnaf": 4933,
  "Ahnaff,</w>": 4934,
  "Ahnaff</w>": 4935,
  "Aho,</w>": 4936,
  "Aho</w>": 4937,
  "Ahon": 4938,
  "Ahono,</w>": 4939,
  "Ahono</w>": 4940,
  "Ahram</w>": 4941,
  "Ahsan,</w>": 4942,
  "Ahsan</w>": 4943,
  "Ahsik</w>": 4944,
  "Ahu": 4945,
  "Ahuja,</w>": 4946,
  "Ahuja</w>": 4947,
  "Ai": 4948,
  "Aijaz</w>": 4949,
  "Aik": 4950,
  "Aiken": 4951,
  "Aikenhead,</w>": 4952,
  "Aikenhead</w>": 4953,
  "Aim": 4954,
  "Aima</w>": 4955,
  "Aimal</w>": 4956,
  "Aiman,</w>": 4957,
  "Aiman</w>": 4958,
  "Ain": 4959,
  "Aina</w>": 4960,
  "Ainna</w>": 4961,
  "Ainool</w>": 4962,
  "Ains": 4963,
  "Ainsworth,</w>": 4964,
  "Ainsworth</w>": 4965,
  "Air": 4966,
  "Air</w>": 4967,
  "Aird</w>": 4968,
  "Airee,</w>": 4969,
  "Airee</w>": 4970,
  "Ais": 4971,
  "Aish": 4972,
  "Aisha": 4973,
  "Aishah,</w>": 4974,
  "Aishah</w>": 4975,
  "Aishani</w>": 4976,
  "Aishath</w>": 4977,
  "Aishwary</w>": 4978,
  "Aisya</w>": 4979,
  "Ait": 4980,
  "Aitchi": 4981,
  "Aitchison,</w>": 4982,
  "Aitchison</w>": 4983,
  "Aitken": 4984,
  "Aitken,</w>": 4985,
  "Aitken-Drum": 4986,
  "Aitken-Drummond,</w>": 4987,
  "Aitken-Drummond</w>": 4988,
  "Aitken</w>": 4989,
  "Aizaz</w>": 4990,
  "Aj": 4991,
  "Ajantha</w>": 4992,
  "Ajay</w>": 4993,
  "Ajaz</w>": 4994,
  "Ajek": 4995,
  "Ajekun,</w>": 4996,
  "Ajekun</w>": 4997,
  "Ajhar</w>": 4998,
  "Aji": 4999,
  "Ajiambo,</w>": 5000,
  "Ajiambo</w>": 5001,
  "Ajin": 5002,
  "Ajink": 5003,
  "Ajinkya</w>": 5004,
  "Ajit": 5005,
  "Ajit</w>": 5006,
  "Ajitesh,</w>": 5007,
  "Ajitesh</w>": 5008,
  "Ajmal,</w>": 5009,
  "Ajmal</w>": 5010,
  "Ak": 5011,
  "Akach": 5012,
  "Akachukw": 5013,
  "Akachukwu,</w>": 5014,
  "Akachukwu</w>": 5015,
  "Akank": 5016,
  "Akankwasa,</w>": 5017,
  "Akankwasa</w>": 5018,
  "Akash,</w>": 5019,
  "Akash</w>": 5020,
  "Akay": 5021,
  "Akayez": 5022,
  "Akayezu,</w>": 5023,
  "Akayezu</w>": 5024,
  "Akbar": 5025,
  "Akbar,</w>": 5026,
  "Akbar-ur-Rehman,</w>": 5027,
  "Akbar-ur-Rehman</w>": 5028,
  "Akbar</w>": 5029,
  "Akbarjan,</w>": 5030,
  "Akbarjan</w>": 5031,
  "Akeem</w>": 5032,
  "Aken": 5033,
  "Akenji,</w>": 5034,
  "Akenji</w>": 5035,
  "Akers-": 5036,
  "Akh": 5037,
  "Akhi": 5038,
  "Akhig": 5039,
  "Akhigbe,</w>": 5040,
  "Akhigbe</w>": 5041,
  "Akhil,</w>": 5042,
  "Akhil</w>": 5043,
  "Akhilesh</w>": 5044,
  "Akhl": 5045,
  "Akhlaq,</w>": 5046,
  "Akhlaq</w>": 5047,
  "Akht": 5048,
  "Akhtar,</w>": 5049,
  "Akhtar</w>": 5050,
  "Akhter,</w>": 5051,
  "Akhter</w>": 5052,
  "Akhunz": 5053,
  "Akhunzada,</w>": 5054,
  "Akhunzada</w>": 5055,
  "Akif</w>": 5056,
  "Akila</w>": 5057,
  "Akit": 5058,
  "Akiteng,</w>": 5059,
  "Akiteng</w>": 5060,
  "Akmal": 5061,
  "Akmal's</w>": 5062,
  "Akmal,</w>": 5063,
  "Akmal</w>": 5064,
  "Akol": 5065,
  "Akolade</w>": 5066,
  "Akpin": 5067,
  "Akram's</w>": 5068,
  "Akram,</w>": 5069,
  "Akram.</w>": 5070,
  "Akram</w>": 5071,
  "Akramullah</w>": 5072,
  "Aks</w>": 5073,
  "Akshat</w>": 5074,
  "Akshay</w>": 5075,
  "Akter,</w>": 5076,
  "Akter</w>": 5077,
  "Akur": 5078,
  "Akuru": 5079,
  "Akurut,</w>": 5080,
  "Akurut</w>": 5081,
  "Al": 5082,
  "Al-": 5083,
  "Al-Amin,</w>": 5084,
  "Al-Amin</w>": 5085,
  "Al</w>": 5086,
  "Alag": 5087,
  "Alagaratnam,</w>": 5088,
  "Alagaratnam</w>": 5089,
  "Alako,</w>": 5090,
  "Alako</w>": 5091,
  "Alam": 5092,
  "Alam,</w>": 5093,
  "Alam</w>": 5094,
  "Alamg": 5095,
  "Alamgir,</w>": 5096,
  "Alamgir</w>": 5097,
  "Alan</w>": 5098,
  "Alang</w>": 5099,
  "Alas": 5100,
  "Alastair</w>": 5101,
  "Alat": 5102,
  "Alatasi,</w>": 5103,
  "Alatasi</w>": 5104,
  "Alauddin</w>": 5105,
  "Alber": 5106,
  "Albert,</w>": 5107,
  "Albert</w>": 5108,
  "Albin,</w>": 5109,
  "Albin</w>": 5110,
  "Alder": 5111,
  "Alder</w>": 5112,
  "Alderman</w>": 5113,
  "Aldri": 5114,
  "Aldridge,</w>": 5115,
  "Aldridge</w>": 5116,
  "Ale": 5117,
  "Alec</w>": 5118,
  "Aleem</w>": 5119,
  "Aleena</w>": 5120,
  "Aleg": 5121,
  "Alegra,</w>": 5122,
  "Alegra</w>": 5123,
  "Alemao,</w>": 5124,
  "Alemao</w>": 5125,
  "Alex": 5126,
  "Alex,</w>": 5127,
  "Alex</w>": 5128,
  "Alexand": 5129,
  "Alexander,</w>": 5130,
  "Alexander</w>": 5131,
  "Alexandra</w>": 5132,
  "Alexandros</w>": 5133,
  "Aley,</w>": 5134,
  "Aley</w>": 5135,
  "Alf": 5136,
  "Alf</w>": 5137,
  "Alfon": 5138,
  "Alfonso,</w>": 5139,
  "Alfonso</w>": 5140,
  "Alfred</w>": 5141,
  "Alfredo</w>": 5142,
  "Algar</w>": 5143,
  "Alhas": 5144,
  "Alhashmi</w>": 5145,
  "Ali": 5146,
  "Ali,</w>": 5147,
  "Ali.</w>": 5148,
  "Ali</w>": 5149,
  "Alice</w>": 5150,
  "Alick</w>": 5151,
  "Alifi": 5152,
  "Alifiya</w>": 5153,
  "Alina</w>": 5154,
  "Alis": 5155,
  "Alistair</w>": 5156,
  "Aliya</w>": 5157,
  "Alizai,</w>": 5158,
  "Alizai</w>": 5159,
  "Alkand": 5160,
  "Alkandari</w>": 5161,
  "All": 5162,
  "All-": 5163,
  "All-England</w>": 5164,
  "All-Ireland</w>": 5165,
  "All</w>": 5166,
  "Allan,</w>": 5167,
  "Allan</w>": 5168,
  "Allcock</w>": 5169,
  "Allen": 5170,
  "Allen's</w>": 5171,
  "Allen,</w>": 5172,
  "Allen</w>": 5173,
  "Allenby,</w>": 5174,
  "Allenby</w>": 5175,
  "Alley": 5176,
  "Alley</w>": 5177,
  "Alleyne,</w>": 5178,
  "Alleyne</w>": 5179,
  "Alli": 5180,
  "Allied</w>": 5181,
  "Allison,</w>": 5182,
  "Allison</w>": 5183,
  "Allom</w>": 5184,
  "Ally,</w>": 5185,
  "Ally</w>": 5186,
  "Alman": 5187,
  "Almanack": 5188,
  "Almanack,</w>": 5189,
  "Almanack.</w>": 5190,
  "Almanack</w>": 5191,
  "Almost</w>": 5192,
  "Almu": 5193,
  "Almuza": 5194,
  "Almuzahim,</w>": 5195,
  "Almuzahim</w>": 5196,
  "Alok</w>": 5197,
  "Aloko": 5198,
  "Alokozai,</w>": 5199,
  "Alokozai</w>": 5200,
  "Along</w>": 5201,
  "Alongside</w>": 5202,
  "Alot": 5203,
  "Alotai": 5204,
  "Alotaibi</w>": 5205,
  "Alp</w>": 5206,
  "Als": 5207,
  "Also,</w>": 5208,
  "Also</w>": 5209,
  "Alsop,</w>": 5210,
  "Alsop</w>": 5211,
  "Alt": 5212,
  "Alta": 5213,
  "Alta,</w>": 5214,
  "Alta</w>": 5215,
  "Altaf</w>": 5216,
  "Altaff</w>": 5217,
  "Altami": 5218,
  "Altamiran": 5219,
  "Altamirano</w>": 5220,
  "Altank": 5221,
  "Altankh": 5222,
  "Altankhuyag</w>": 5223,
  "Altern": 5224,
  "Altham,</w>": 5225,
  "Altham</w>": 5226,
  "Although</w>": 5227,
  "Altogether,</w>": 5228,
  "Alug": 5229,
  "Alugun": 5230,
  "Alugunoo": 5231,
  "Alugunoolla,</w>": 5232,
  "Alugunoolla</w>": 5233,
  "Alum": 5234,
  "Alumo,</w>": 5235,
  "Alumo</w>": 5236,
  "Alv": 5237,
  "Alvare": 5238,
  "Alvarez,</w>": 5239,
  "Alvi,</w>": 5240,
  "Alvi</w>": 5241,
  "Alvin</w>": 5242,
  "Always</w>": 5243,
  "Alwi": 5244,
  "Alwis,</w>": 5245,
  "Alwis</w>": 5246,
  "Alya</w>": 5247,
  "Alys": 5248,
  "Alyssa</w>": 5249,
  "Alz": 5250,
  "Am": 5251,
  "Ama": 5252,
  "Amad</w>": 5253,
  "Amado,</w>": 5254,
  "Amado</w>": 5255,
  "Amah,</w>": 5256,
  "Amah</w>": 5257,
  "Amal</w>": 5258,
  "Amalin</w>": 5259,
  "Amame": 5260,
  "Amameth,</w>": 5261,
  "Aman,</w>": 5262,
  "Aman</w>": 5263,
  "Amandeep</w>": 5264,
  "Amantha,</w>": 5265,
  "Amantha</w>": 5266,
  "Amanullah</w>": 5267,
  "Amar,</w>": 5268,
  "Amar</w>": 5269,
  "Amarasinghe,</w>": 5270,
  "Amari</w>": 5271,
  "Amarj": 5272,
  "Amarjarg": 5273,
  "Amarjargal,</w>": 5274,
  "Amarjargal</w>": 5275,
  "Amarm": 5276,
  "Amarmen": 5277,
  "Amarmend,</w>": 5278,
  "Amarmend</w>": 5279,
  "Amarn": 5280,
  "Amarnath,</w>": 5281,
  "Amarnath</w>": 5282,
  "Amarpal</w>": 5283,
  "Amarshi,</w>": 5284,
  "Amarshi</w>": 5285,
  "Amate": 5286,
  "Amateur</w>": 5287,
  "Amateurs</w>": 5288,
  "Amaya</w>": 5289,
  "Amaz": 5290,
  "Amazon</w>": 5291,
  "Amb": 5292,
  "Ambassador</w>": 5293,
  "Ambik": 5294,
  "Ambikeshwar</w>": 5295,
  "Ambo</w>": 5296,
  "Ambris,</w>": 5297,
  "Ambris</w>": 5298,
  "Ambros": 5299,
  "Ambrose,</w>": 5300,
  "Ambrose</w>": 5301,
  "Ameel</w>": 5302,
  "Ameen,</w>": 5303,
  "Ameen</w>": 5304,
  "Ameer,</w>": 5305,
  "Ameer</w>": 5306,
  "Amelia</w>": 5307,
  "Amer": 5308,
  "Amerasinghe</w>": 5309,
  "Ameri": 5310,
  "Americ": 5311,
  "America,</w>": 5312,
  "America.</w>": 5313,
  "America</w>": 5314,
  "American</w>": 5315,
  "Americas</w>": 5316,
  "Ames,</w>": 5317,
  "Ames</w>": 5318,
  "Ami": 5319,
  "Amiangshu</w>": 5320,
  "Amid</w>": 5321,
  "Amin": 5322,
  "Amin,</w>": 5323,
  "Amin</w>": 5324,
  "Aminata</w>": 5325,
  "Amini,</w>": 5326,
  "Amini</w>": 5327,
  "Aminou,</w>": 5328,
  "Aminou</w>": 5329,
  "Aminuddin</w>": 5330,
  "Aminul</w>": 5331,
  "Aminullah</w>": 5332,
  "Amir": 5333,
  "Amir,</w>": 5334,
  "Amir</w>": 5335,
  "Amirdal": 5336,
  "Amirdaling": 5337,
  "Amiss</w>": 5338,
  "Amit</w>": 5339,
  "Amjad,</w>": 5340,
  "Amjad</w>": 5341,
  "Aml": 5342,
  "Amla,</w>": 5343,
  "Amla</w>": 5344,
  "Amlanj": 5345,
  "Amlanjyoti</w>": 5346,
  "Amma</w>": 5347,
  "Ammad</w>": 5348,
  "Ammar</w>": 5349,
  "Amna</w>": 5350,
  "Amod</w>": 5351,
  "Amoluk</w>": 5352,
  "Among": 5353,
  "Among</w>": 5354,
  "Amongin</w>": 5355,
  "Amongst</w>": 5356,
  "Amos</w>": 5357,
  "Amri": 5358,
  "Amrit</w>": 5359,
  "Amrita</w>": 5360,
  "Amshi</w>": 5361,
  "Amster": 5362,
  "Amsterd": 5363,
  "Amsterdam,</w>": 5364,
  "Amsterdam</w>": 5365,
  "Amuge</w>": 5366,
  "Amul": 5367,
  "Amulya</w>": 5368,
  "Amus": 5369,
  "Amusa,</w>": 5370,
  "Amusa</w>": 5371,
  "Amy</w>": 5372,
  "An": 5373,
  "An</w>": 5374,
  "Ana,</w>": 5375,
  "Ana</w>": 5376,
  "Anaal</w>": 5377,
  "Anafi": 5378,
  "Anafie,</w>": 5379,
  "Anafie</w>": 5380,
  "Anal": 5381,
  "Anam": 5382,
  "Anam</w>": 5383,
  "Anamul</w>": 5384,
  "Anan": 5385,
  "Ananama": 5386,
  "Ananama-Brere": 5387,
  "Anand,</w>": 5388,
  "Anand</w>": 5389,
  "Ananda</w>": 5390,
  "Anandakuma": 5391,
  "Ananta</w>": 5392,
  "Ananya,</w>": 5393,
  "Ananya</w>": 5394,
  "Anas</w>": 5395,
  "Anasim</w>": 5396,
  "Anay": 5397,
  "Anayo</w>": 5398,
  "And": 5399,
  "And</w>": 5400,
  "Andani,</w>": 5401,
  "Andani</w>": 5402,
  "Ander": 5403,
  "Anders": 5404,
  "Anders,</w>": 5405,
  "Anders</w>": 5406,
  "Andersen,</w>": 5407,
  "Andersen</w>": 5408,
  "Anderson's</w>": 5409,
  "Anderson,</w>": 5410,
  "Anderson.</w>": 5411,
  "Anderson</w>": 5412,
  "Andersson,</w>": 5413,
  "Andersson</w>": 5414,
  "Andhra</w>": 5415,
  "Andr": 5416,
  "Andre": 5417,
  "Andre</w>": 5418,
  "Andreano,</w>": 5419,
  "Andreano</w>": 5420,
  "Andrew": 5421,
  "Andrew's</w>": 5422,
  "Andrew,</w>": 5423,
  "Andrew</w>": 5424,
  "Andrews,</w>": 5425,
  "Andrews</w>": 5426,
  "Andrey</w>": 5427,
  "Andri": 5428,
  "Andrian": 5429,
  "Andrianatos,</w>": 5430,
  "Andrianatos</w>": 5431,
  "Andriani,</w>": 5432,
  "Andriani</w>": 5433,
  "Andy</w>": 5434,
  "Ane": 5435,
  "Anee": 5436,
  "Aneesh</w>": 5437,
  "Aneeta</w>": 5438,
  "Anefi": 5439,
  "Anefie,</w>": 5440,
  "Anefie</w>": 5441,
  "Ang": 5442,
  "Angara</w>": 5443,
  "Ange": 5444,
  "Ange,</w>": 5445,
  "Ange</w>": 5446,
  "Angela</w>": 5447,
  "Angele": 5448,
  "Angeletti,</w>": 5449,
  "Angeletti</w>": 5450,
  "Angelo</w>": 5451,
  "Anggra": 5452,
  "Anggraeni,</w>": 5453,
  "Anglican</w>": 5454,
  "Anglo": 5455,
  "Anglo-": 5456,
  "Angus</w>": 5457,
  "Ani,</w>": 5458,
  "Ani</w>": 5459,
  "Anik": 5460,
  "Anik</w>": 5461,
  "Anike": 5462,
  "Aniket</w>": 5463,
  "Anikethreddy</w>": 5464,
  "Anil,</w>": 5465,
  "Anil</w>": 5466,
  "Anique</w>": 5467,
  "Anir": 5468,
  "Anirud": 5469,
  "Anirudd": 5470,
  "Aniruddha</w>": 5471,
  "Anirudh</w>": 5472,
  "Anirudha,</w>": 5473,
  "Anirudha</w>": 5474,
  "Anish,</w>": 5475,
  "Anish</w>": 5476,
  "Anj": 5477,
  "Anjali</w>": 5478,
  "Anjar</w>": 5479,
  "Anjula,</w>": 5480,
  "Anjula</w>": 5481,
  "Anjuli</w>": 5482,
  "Anjum,</w>": 5483,
  "Anjum</w>": 5484,
  "Ank": 5485,
  "Ankad,</w>": 5486,
  "Ankad</w>": 5487,
  "Ankit</w>": 5488,
  "Ankita</w>": 5489,
  "Ankitkar</w>": 5490,
  "Ankole": 5491,
  "Ankolekar,</w>": 5492,
  "Ankolekar</w>": 5493,
  "Ankon,</w>": 5494,
  "Ankon</w>": 5495,
  "Ankrah,</w>": 5496,
  "Ankrah</w>": 5497,
  "Ankur</w>": 5498,
  "Anle": 5499,
  "Anlezar": 5500,
  "Anlezark</w>": 5501,
  "Anmo": 5502,
  "Anmol": 5503,
  "Anmol</w>": 5504,
  "Anmoldeep</w>": 5505,
  "Anmolpreet</w>": 5506,
  "Ann": 5507,
  "Ann</w>": 5508,
  "Anna</w>": 5509,
  "Annab": 5510,
  "Annand,</w>": 5511,
  "Annand</w>": 5512,
  "Anne</w>": 5513,
  "Annie</w>": 5514,
  "Annu": 5515,
  "Annual,</w>": 5516,
  "Annual</w>": 5517,
  "Ano": 5518,
  "Anoo": 5519,
  "Anoop</w>": 5520,
  "Anop</w>": 5521,
  "Another</w>": 5522,
  "Anow": 5523,
  "Anowar": 5524,
  "Anowarul</w>": 5525,
  "Ans": 5526,
  "Ansar</w>": 5527,
  "Ansari,</w>": 5528,
  "Ansari</w>": 5529,
  "Ansell,</w>": 5530,
  "Ansell</w>": 5531,
  "Anser</w>": 5532,
  "Ansh</w>": 5533,
  "Anshu": 5534,
  "Anshul</w>": 5535,
  "Anshuman</w>": 5536,
  "Ansk": 5537,
  "Anskumar</w>": 5538,
  "Ant": 5539,
  "Antelope</w>": 5540,
  "Anth": 5541,
  "Anthony</w>": 5542,
  "Anti": 5543,
  "Anti-": 5544,
  "Anti-Corruption</w>": 5545,
  "Antigu": 5546,
  "Antigua,</w>": 5547,
  "Antigua.</w>": 5548,
  "Antigua</w>": 5549,
  "Anto,</w>": 5550,
  "Anto</w>": 5551,
  "Anton": 5552,
  "Antony</w>": 5553,
  "Anuj": 5554,
  "Anuj</w>": 5555,
  "Anujin,</w>": 5556,
  "Anujin</w>": 5557,
  "Anuk</w>": 5558,
  "Anun": 5559,
  "Anunay</w>": 5560,
  "Anur": 5561,
  "Anura": 5562,
  "Anuradha</w>": 5563,
  "Anurag</w>": 5564,
  "Anureet</w>": 5565,
  "Anusha</w>": 5566,
  "Anwar,</w>": 5567,
  "Anwar</w>": 5568,
  "Anwer</w>": 5569,
  "Any": 5570,
  "Any</w>": 5571,
  "Anyai": 5572,
  "Anyait,</w>": 5573,
  "Anyait</w>": 5574,
  "Anyi": 5575,
  "Anyigo</w>": 5576,
  "Anyipo,</w>": 5577,
  "Anyipo</w>": 5578,
  "Anyon,</w>": 5579,
  "Anyon</w>": 5580,
  "Aoin": 5581,
  "Aoina,</w>": 5582,
  "Aoina</w>": 5583,
  "Ap": 5584,
  "Apara": 5585,
  "Aparaji": 5586,
  "Aparajith,</w>": 5587,
  "Aparajith</w>": 5588,
  "Apart</w>": 5589,
  "Aph": 5590,
  "Aphsal</w>": 5591,
  "Api": 5592,
  "Apio,</w>": 5593,
  "Apio</w>": 5594,
  "Apon": 5595,
  "Apon</w>": 5596,
  "Aponso,</w>": 5597,
  "Aponso</w>": 5598,
  "App": 5599,
  "Appanna</w>": 5600,
  "Appe": 5601,
  "Appeal</w>": 5602,
  "Appel</w>": 5603,
  "Appendi": 5604,
  "Appendix</w>": 5605,
  "Apperley</w>": 5606,
  "Apple": 5607,
  "Applebe": 5608,
  "Applebee,</w>": 5609,
  "Appleyard</w>": 5610,
  "Appoin": 5611,
  "Appointed</w>": 5612,
  "Appu": 5613,
  "Appuham": 5614,
  "Appuhami,</w>": 5615,
  "Appuhami</w>": 5616,
  "Appus": 5617,
  "Appusamy,</w>": 5618,
  "Appusamy</w>": 5619,
  "Apri": 5620,
  "April,</w>": 5621,
  "April.</w>": 5622,
  "April</w>": 5623,
  "Apsari</w>": 5624,
  "Aq": 5625,
  "Aqeel,</w>": 5626,
  "Aqeel</w>": 5627,
  "Aqib</w>": 5628,
  "Aqif</w>": 5629,
  "Ar": 5630,
  "Ara": 5631,
  "Araa,</w>": 5632,
  "Araa</w>": 5633,
  "Arab</w>": 5634,
  "Arabi": 5635,
  "Arabind</w>": 5636,
  "Arachchi": 5637,
  "Arachchige,</w>": 5638,
  "Arachchige</w>": 5639,
  "Arachchilage</w>": 5640,
  "Arachi": 5641,
  "Arachichi": 5642,
  "Arachichige,</w>": 5643,
  "Arachichige</w>": 5644,
  "Araf": 5645,
  "Arafat,</w>": 5646,
  "Arafat</w>": 5647,
  "Arali": 5648,
  "Araliya,</w>": 5649,
  "Araliya</w>": 5650,
  "Aras,</w>": 5651,
  "Aras</w>": 5652,
  "Aravin": 5653,
  "Aravind,</w>": 5654,
  "Aravind</w>": 5655,
  "Aravinda</w>": 5656,
  "Aravindd": 5657,
  "Aravinddaraj</w>": 5658,
  "Arb": 5659,
  "Arbaaz,</w>": 5660,
  "Arbaaz</w>": 5661,
  "Arch": 5662,
  "Archara</w>": 5663,
  "Archer,</w>": 5664,
  "Archer</w>": 5665,
  "Archi": 5666,
  "Archibal": 5667,
  "Archibald</w>": 5668,
  "Archie</w>": 5669,
  "Archive.</w>": 5670,
  "Archive</w>": 5671,
  "Archived</w>": 5672,
  "Arda,</w>": 5673,
  "Arda</w>": 5674,
  "Are": 5675,
  "Aree": 5676,
  "Areeb</w>": 5677,
  "Arfan,</w>": 5678,
  "Arfan</w>": 5679,
  "Arg": 5680,
  "Argent": 5681,
  "Argentina,</w>": 5682,
  "Argentina.</w>": 5683,
  "Argentina</w>": 5684,
  "Argentine</w>": 5685,
  "Argy": 5686,
  "Argyrop": 5687,
  "Argyropoulou,</w>": 5688,
  "Argyropoulou</w>": 5689,
  "Ari": 5690,
  "Ariani,</w>": 5691,
  "Ariani</w>": 5692,
  "Arianna</w>": 5693,
  "Arief,</w>": 5694,
  "Arief</w>": 5695,
  "Arif,</w>": 5696,
  "Arif</w>": 5697,
  "Arifin</w>": 5698,
  "Ariful</w>": 5699,
  "Arin": 5700,
  "Arinai": 5701,
  "Arinaitw": 5702,
  "Arinaitwe,</w>": 5703,
  "Arinaitwe</w>": 5704,
  "Ariok": 5705,
  "Arioko": 5706,
  "Ariokot,</w>": 5707,
  "Ariokot</w>": 5708,
  "Arish</w>": 5709,
  "Aritha": 5710,
  "Aritharan,</w>": 5711,
  "Aritra</w>": 5712,
  "Ariunt": 5713,
  "Ariuntsetseg,</w>": 5714,
  "Ariuntsetseg</w>": 5715,
  "Ariyan,</w>": 5716,
  "Ariyan</w>": 5717,
  "Ariyas": 5718,
  "Ariyasingha": 5719,
  "Ariyasinghage</w>": 5720,
  "Arj": 5721,
  "Arjit</w>": 5722,
  "Arjun": 5723,
  "Arjun</w>": 5724,
  "Arjuna</w>": 5725,
  "Arjunan,</w>": 5726,
  "Arjunan</w>": 5727,
  "Arkap": 5728,
  "Arkapra": 5729,
  "Arkaprabha</w>": 5730,
  "Arl": 5731,
  "Arlott,</w>": 5732,
  "Arlott</w>": 5733,
  "Arm": 5734,
  "Arma": 5735,
  "Armg": 5736,
  "Armghan</w>": 5737,
  "Armit": 5738,
  "Armitage,</w>": 5739,
  "Armitage</w>": 5740,
  "Arms</w>": 5741,
  "Armstr": 5742,
  "Armstrong's</w>": 5743,
  "Armstrong,</w>": 5744,
  "Armstrong.</w>": 5745,
  "Armstrong</w>": 5746,
  "Army,</w>": 5747,
  "Army.</w>": 5748,
  "Army</w>": 5749,
  "Arn": 5750,
  "Arnab</w>": 5751,
  "Arnav</w>": 5752,
  "Arnel,</w>": 5753,
  "Arnel</w>": 5754,
  "Arno": 5755,
  "Arnol": 5756,
  "Arnold,</w>": 5757,
  "Arnold</w>": 5758,
  "Aro": 5759,
  "Aroob</w>": 5760,
  "Arooja,</w>": 5761,
  "Arora,</w>": 5762,
  "Arora</w>": 5763,
  "Arothe,</w>": 5764,
  "Arothe</w>": 5765,
  "Around</w>": 5766,
  "Arpit</w>": 5767,
  "Arrigh": 5768,
  "Arrighi,</w>": 5769,
  "Arrighi</w>": 5770,
  "Ars": 5771,
  "Arsakulasuriya,</w>": 5772,
  "Arsakulasuriya</w>": 5773,
  "Arsalan</w>": 5774,
  "Arsen": 5775,
  "Arsenal</w>": 5776,
  "Arshad,</w>": 5777,
  "Arshad</w>": 5778,
  "Arshdeep</w>": 5779,
  "Arsl": 5780,
  "Arslan</w>": 5781,
  "Art": 5782,
  "Art</w>": 5783,
  "Arta": 5784,
  "Arta,</w>": 5785,
  "Arta</w>": 5786,
  "Artawan,</w>": 5787,
  "Artawan</w>": 5788,
  "Arth": 5789,
  "Arthur,</w>": 5790,
  "Arthur</w>": 5791,
  "Artic": 5792,
  "Article</w>": 5793,
  "Artill": 5794,
  "Artillery</w>": 5795,
  "Arts</w>": 5796,
  "Artur,</w>": 5797,
  "Artur</w>": 5798,
  "Arua,</w>": 5799,
  "Arua</w>": 5800,
  "Arud": 5801,
  "Arudin,</w>": 5802,
  "Arudin</w>": 5803,
  "Arun": 5804,
  "Arun</w>": 5805,
  "Arundel</w>": 5806,
  "Arunkumar,</w>": 5807,
  "Arunkumar</w>": 5808,
  "Arup</w>": 5809,
  "Arya,</w>": 5810,
  "Arya</w>": 5811,
  "Aryal</w>": 5812,
  "Aryaman</w>": 5813,
  "Aryan</w>": 5814,
  "As": 5815,
  "As</w>": 5816,
  "Asad</w>": 5817,
  "Asadu": 5818,
  "Asadullah</w>": 5819,
  "Asaduzzaman</w>": 5820,
  "Asal": 5821,
  "Asalanka,</w>": 5822,
  "Asalanka</w>": 5823,
  "Asanka</w>": 5824,
  "Asfan</w>": 5825,
  "Asg": 5826,
  "Asghar,</w>": 5827,
  "Asghar</w>": 5828,
  "Ash": 5829,
  "Asha,</w>": 5830,
  "Asha</w>": 5831,
  "Ashan,</w>": 5832,
  "Ashan</w>": 5833,
  "Ashar</w>": 5834,
  "Ashel,</w>": 5835,
  "Ashel</w>": 5836,
  "Ashen,</w>": 5837,
  "Ashen</w>": 5838,
  "Ashes,</w>": 5839,
  "Ashes.</w>": 5840,
  "Ashes</w>": 5841,
  "Ashf": 5842,
  "Ashfaq</w>": 5843,
  "Ashi": 5844,
  "Ashi</w>": 5845,
  "Ashiqullah</w>": 5846,
  "Ashiqur</w>": 5847,
  "Ashir</w>": 5848,
  "Ashish</w>": 5849,
  "Ashith</w>": 5850,
  "Ashley-": 5851,
  "Ashley-Cooper</w>": 5852,
  "Ashley</w>": 5853,
  "Ashok": 5854,
  "Ashok</w>": 5855,
  "Ashokan,</w>": 5856,
  "Ashokan</w>": 5857,
  "Ashraf": 5858,
  "Ashraf,</w>": 5859,
  "Ashraf</w>": 5860,
  "Ashraful,</w>": 5861,
  "Ashraful</w>": 5862,
  "Asht": 5863,
  "Ashton</w>": 5864,
  "Ashtuti</w>": 5865,
  "Ashu": 5866,
  "Ashutosh</w>": 5867,
  "Ashwani</w>": 5868,
  "Ashwath": 5869,
  "Ashwathnara": 5870,
  "Ashwathnarayana,</w>": 5871,
  "Ashwathnarayana</w>": 5872,
  "Ashwell</w>": 5873,
  "Ashwin,</w>": 5874,
  "Ashwin</w>": 5875,
  "Ashwini</w>": 5876,
  "Asi": 5877,
  "Asia,</w>": 5878,
  "Asia-": 5879,
  "Asia-Pacific</w>": 5880,
  "Asia.</w>": 5881,
  "Asia</w>": 5882,
  "Asian</w>": 5883,
  "Aside</w>": 5884,
  "Asif,</w>": 5885,
  "Asif</w>": 5886,
  "Asika,</w>": 5887,
  "Asika</w>": 5888,
  "Asim,</w>": 5889,
  "Asim</w>": 5890,
  "Asj": 5891,
  "Asjath</w>": 5892,
  "Asjed,</w>": 5893,
  "Asjed</w>": 5894,
  "Asl": 5895,
  "Aslam,</w>": 5896,
  "Aslam</w>": 5897,
  "Aslan</w>": 5898,
  "Asm": 5899,
  "Asma": 5900,
  "Asma</w>": 5901,
  "Asmavia</w>": 5902,
  "Asmuss": 5903,
  "Asmussen,</w>": 5904,
  "Asmussen</w>": 5905,
  "Asno": 5906,
  "Asnod": 5907,
  "Asnodkar,</w>": 5908,
  "Asnodkar</w>": 5909,
  "Aspin": 5910,
  "Aspinwall,</w>": 5911,
  "Aspinwall</w>": 5912,
  "Asra": 5913,
  "Asrar</w>": 5914,
  "Ass": 5915,
  "Assad</w>": 5916,
  "Assam": 5917,
  "Assam</w>": 5918,
  "Asseg": 5919,
  "Assem": 5920,
  "Assembly</w>": 5921,
  "Assist": 5922,
  "Assistant</w>": 5923,
  "Associ": 5924,
  "Associate</w>": 5925,
  "Associates</w>": 5926,
  "Association's</w>": 5927,
  "Association,</w>": 5928,
  "Association.</w>": 5929,
  "Association</w>": 5930,
  "Assunc": 5931,
  "Assuncao,</w>": 5932,
  "Assuncao</w>": 5933,
  "Assurance</w>": 5934,
  "Ast": 5935,
  "Astle,</w>": 5936,
  "Astle</w>": 5937,
  "Aston</w>": 5938,
  "Asuma": 5939,
  "Asura": 5940,
  "Asuraman": 5941,
  "Asuramanage,</w>": 5942,
  "Asuramanage</w>": 5943,
  "Aswani,</w>": 5944,
  "Aswin</w>": 5945,
  "At": 5946,
  "At</w>": 5947,
  "Atai,</w>": 5948,
  "Atai</w>": 5949,
  "Atal,</w>": 5950,
  "Atal</w>": 5951,
  "Atan": 5952,
  "Atanasova,</w>": 5953,
  "Atanasova</w>": 5954,
  "Atang": 5955,
  "Atangana,</w>": 5956,
  "Atangana</w>": 5957,
  "Atap": 5958,
  "Atapatt": 5959,
  "Atapattu,</w>": 5960,
  "Atapattu</w>": 5961,
  "Atau": 5962,
  "Ataullah,</w>": 5963,
  "Ataullah</w>": 5964,
  "Ate": 5965,
  "Ateak,</w>": 5966,
  "Ateak</w>": 5967,
  "Ateeq</w>": 5968,
  "Ath": 5969,
  "Atha": 5970,
  "Athan": 5971,
  "Athanaz": 5972,
  "Athanaze,</w>": 5973,
  "Athanaze</w>": 5974,
  "Athapath": 5975,
  "Athapaththu,</w>": 5976,
  "Athapaththu</w>": 5977,
  "Athar": 5978,
  "Athar,</w>": 5979,
  "Athar</w>": 5980,
  "Atharag": 5981,
  "Atharagall": 5982,
  "Atharagalla,</w>": 5983,
  "Atharagalla</w>": 5984,
  "Atharva</w>": 5985,
  "Athav": 5986,
  "Athavale,</w>": 5987,
  "Athavale</w>": 5988,
  "Atherton's</w>": 5989,
  "Atherton,</w>": 5990,
  "Atherton</w>": 5991,
  "Athey</w>": 5992,
  "Athis": 5993,
  "Athisay": 5994,
  "Athisayaraj</w>": 5995,
  "Athle": 5996,
  "Athletic</w>": 5997,
  "Athum": 5998,
  "Ati": 5999,
  "Atiela,</w>": 6000,
  "Atiela</w>": 6001,
  "Atif-": 6002,
  "Atif-Ur": 6003,
  "Atif-Ur-": 6004,
  "Atif-Ur-Rehman,</w>": 6005,
  "Atif-Ur-Rehman</w>": 6006,
  "Atif</w>": 6007,
  "Atk": 6008,
  "Atkins,</w>": 6009,
  "Atkins</w>": 6010,
  "Atkinson,</w>": 6011,
  "Atkinson</w>": 6012,
  "Atlan": 6013,
  "Atma": 6014,
  "Atmaca</w>": 6015,
  "Att": 6016,
  "Attanayake,</w>": 6017,
  "Attanayake</w>": 6018,
  "Attarwala</w>": 6019,
  "Attewell</w>": 6020,
  "Atti": 6021,
  "Attia</w>": 6022,
  "Au": 6023,
  "Aub": 6024,
  "Aubrey</w>": 6025,
  "Auck": 6026,
  "Auckland,</w>": 6027,
  "Auckland.</w>": 6028,
  "Auckland</w>": 6029,
  "Auction,</w>": 6030,
  "Auction</w>": 6031,
  "Audi": 6032,
  "Audiogeni": 6033,
  "Aug": 6034,
  "Augast": 6035,
  "Augastin,</w>": 6036,
  "Augastin</w>": 6037,
  "Augus": 6038,
  "August,</w>": 6039,
  "August.</w>": 6040,
  "August</w>": 6041,
  "Auguste,</w>": 6042,
  "Auguste</w>": 6043,
  "Augustus</w>": 6044,
  "Aul": 6045,
  "Aulakh</w>": 6046,
  "Aulia</w>": 6047,
  "Aun": 6048,
  "Aung,</w>": 6049,
  "Aung</w>": 6050,
  "Auo": 6051,
  "Auora</w>": 6052,
  "Auqib</w>": 6053,
  "Aur": 6054,
  "Aurora</w>": 6055,
  "Aurum</w>": 6056,
  "Aus": 6057,
  "Aussi": 6058,
  "Aussie</w>": 6059,
  "Austin</w>": 6060,
  "Austra": 6061,
  "Austral": 6062,
  "Austral-Asia</w>": 6063,
  "Australasi": 6064,
  "Australasian</w>": 6065,
  "Australi": 6066,
  "Australia": 6067,
  "Australia\".</w>": 6068,
  "Australia's</w>": 6069,
  "Australia),</w>": 6070,
  "Australia)</w>": 6071,
  "Australia,</w>": 6072,
  "Australia.</w>": 6073,
  "Australia:</w>": 6074,
  "Australia;</w>": 6075,
  "Australia</w>": 6076,
  "Australian,</w>": 6077,
  "Australian-born</w>": 6078,
  "Australian.</w>": 6079,
  "Australian</w>": 6080,
  "Australians": 6081,
  "Australians'</w>": 6082,
  "Australians,</w>": 6083,
  "Australians.</w>": 6084,
  "Australians</w>": 6085,
  "Austri": 6086,
  "Austria</w>": 6087,
  "Autho": 6088,
  "Authority</w>": 6089,
  "Auto": 6090,
  "Autobiography</w>": 6091,
  "Auward": 6092,
  "Auwardt</w>": 6093,
  "Av": 6094,
  "Available</w>": 6095,
  "Avas": 6096,
  "Avasthi</w>": 6097,
  "Avdy": 6098,
  "Avdyl": 6099,
  "Avdylaj,</w>": 6100,
  "Avdylaj</w>": 6101,
  "Ave,</w>": 6102,
  "Ave</w>": 6103,
  "Aven": 6104,
  "Avend": 6105,
  "Avendano,</w>": 6106,
  "Avendano</w>": 6107,
  "Avenue,</w>": 6108,
  "Aver": 6109,
  "Avery,</w>": 6110,
  "Avery</w>": 6111,
  "Avesh</w>": 6112,
  "Avi": 6113,
  "Avi</w>": 6114,
  "Avijit</w>": 6115,
  "Avin": 6116,
  "Avinash</w>": 6117,
  "Avishek</w>": 6118,
  "Avishka,</w>": 6119,
  "Avishka</w>": 6120,
  "Avn": 6121,
  "Avneesh</w>": 6122,
  "Avok</w>": 6123,
  "Avsh</w>": 6124,
  "Aw": 6125,
  "Awa": 6126,
  "Awad</w>": 6127,
  "Awais,</w>": 6128,
  "Awais</w>": 6129,
  "Awala,</w>": 6130,
  "Awala</w>": 6131,
  "Awan</w>": 6132,
  "Awana,</w>": 6133,
  "Awana</w>": 6134,
  "Award,</w>": 6135,
  "Award.</w>": 6136,
  "Award</w>": 6137,
  "Awards,</w>": 6138,
  "Awards.</w>": 6139,
  "Awards</w>": 6140,
  "Awas": 6141,
  "Awasthi,</w>": 6142,
  "Awasthi</w>": 6143,
  "Away</w>": 6144,
  "Awek": 6145,
  "Aweko,</w>": 6146,
  "Aweko</w>": 6147,
  "Awi": 6148,
  "Awiah,</w>": 6149,
  "Awiah</w>": 6150,
  "Awin": 6151,
  "Awino,</w>": 6152,
  "Awino</w>": 6153,
  "Awuah</w>": 6154,
  "Ax": 6155,
  "Axtell</w>": 6156,
  "Ay": 6157,
  "Ayan,</w>": 6158,
  "Ayan</w>": 6159,
  "Ayannai": 6160,
  "Ayannaike,</w>": 6161,
  "Ayannaike</w>": 6162,
  "Ayas": 6163,
  "Ayasha</w>": 6164,
  "Ayaz</w>": 6165,
  "Aybu": 6166,
  "Aybui,</w>": 6167,
  "Aybui</w>": 6168,
  "Aye,</w>": 6169,
  "Aye</w>": 6170,
  "Ayesha</w>": 6171,
  "Aymes</w>": 6172,
  "Ayon</w>": 6173,
  "Ayre</w>": 6174,
  "Aysha,</w>": 6175,
  "Aysha</w>": 6176,
  "Ayu</w>": 6177,
  "Ayub,</w>": 6178,
  "Ayub</w>": 6179,
  "Ayup": 6180,
  "Ayupala,</w>": 6181,
  "Ayupala</w>": 6182,
  "Ayush</w>": 6183,
  "Ayy": 6184,
  "Ayyappa,</w>": 6185,
  "Ayyappa</w>": 6186,
  "Ayyav": 6187,
  "Ayyavoo": 6188,
  "Ayyaz</w>": 6189,
  "Az": 6190,
  "Azab</w>": 6191,
  "Azad,</w>": 6192,
  "Azad</w>": 6193,
  "Azam,</w>": 6194,
  "Azam</w>": 6195,
  "Azan</w>": 6196,
  "Azeem</w>": 6197,
  "Azeez</w>": 6198,
  "Azhar": 6199,
  "Azhar</w>": 6200,
  "Azharudd": 6201,
  "Azharudde": 6202,
  "Azharuddeen,</w>": 6203,
  "Azharuddeen</w>": 6204,
  "Azharuddin,</w>": 6205,
  "Azharuddin</w>": 6206,
  "Azharullah,</w>": 6207,
  "Azharullah</w>": 6208,
  "Azi": 6209,
  "Azim</w>": 6210,
  "Azin</w>": 6211,
  "Aziz": 6212,
  "Aziz,</w>": 6213,
  "Aziz</w>": 6214,
  "Azizul</w>": 6215,
  "Azmat</w>": 6216,
  "Azmatullah</w>": 6217,
  "Azmi,</w>": 6218,
  "Azmi</w>": 6219,
  "Azmin</w>": 6220,
  "Azri</w>": 6221,
  "Azur": 6222,
  "Azurdeen</w>": 6223,
  "Azyan</w>": 6224,
  "Azz": 6225,
  "Azzam,</w>": 6226,
  "Azzam</w>": 6227,
  "B": 6228,
  "B&H</w>": 6229,
  "B's</w>": 6230,
  "B.": 6231,
  "B.</w>": 6232,
  "B.A.</w>": 6233,
  "B</w>": 6234,
  "BA</w>": 6235,
  "BAA</w>": 6236,
  "BAC</w>": 6237,
  "BAD</w>": 6238,
  "BAM</w>": 6239,
  "BAW</w>": 6240,
  "BB": 6241,
  "BB</w>": 6242,
  "BBA</w>": 6243,
  "BBC": 6244,
  "BBC's</w>": 6245,
  "BBC</w>": 6246,
  "BBJL</w>": 6247,
  "BBL": 6248,
  "BBL,</w>": 6249,
  "BBL</w>": 6250,
  "BBL|": 6251,
  "BC</w>": 6252,
  "BCA</w>": 6253,
  "BCB</w>": 6254,
  "BCC": 6255,
  "BCCI": 6256,
  "BCCI's</w>": 6257,
  "BCCI.</w>": 6258,
  "BCCI</w>": 6259,
  "BCJ</w>": 6260,
  "BD</w>": 6261,
  "BDH</w>": 6262,
  "BDU</w>": 6263,
  "BE</w>": 6264,
  "BEW</w>": 6265,
  "BF</w>": 6266,
  "BFW</w>": 6267,
  "BG</w>": 6268,
  "BGF</w>": 6269,
  "BGS</w>": 6270,
  "BH</w>": 6271,
  "BI</w>": 6272,
  "BJ</w>": 6273,
  "BJJ</w>": 6274,
  "BJR</w>": 6275,
  "BK": 6276,
  "BK</w>": 6277,
  "BKB</w>": 6278,
  "BKEL</w>": 6279,
  "BKG</w>": 6280,
  "BL</w>": 6281,
  "BLCS</w>": 6282,
  "BM": 6283,
  "BM</w>": 6284,
  "BMA</w>": 6285,
  "BMAJ</w>": 6286,
  "BMJ</w>": 6287,
  "BMR": 6288,
  "BMR</w>": 6289,
  "BMRNB</w>": 6290,
  "BMSM</w>": 6291,
  "BN</w>": 6292,
  "BNJ</w>": 6293,
  "BO</w>": 6294,
  "BOL</w>": 6295,
  "BOP</w>": 6296,
  "BP": 6297,
  "BP</w>": 6298,
  "BPL</w>": 6299,
  "BR</w>": 6300,
  "BRM</w>": 6301,
  "BS</w>": 6302,
  "BT</w>": 6303,
  "BTJ</w>": 6304,
  "BV</w>": 6305,
  "BW</w>": 6306,
  "BWM</w>": 6307,
  "BY</w>": 6308,
  "BYA</w>": 6309,
  "Ba": 6310,
  "Baal": 6311,
  "Baaleri,</w>": 6312,
  "Baaleri</w>": 6313,
  "Baard,</w>": 6314,
  "Baard</w>": 6315,
  "Baart": 6316,
  "Baartman,</w>": 6317,
  "Baartman</w>": 6318,
  "Bab": 6319,
  "Babar,</w>": 6320,
  "Babar</w>": 6321,
  "Babir": 6322,
  "Babirye,</w>": 6323,
  "Babirye</w>": 6324,
  "Babu,</w>": 6325,
  "Babu</w>": 6326,
  "Babul</w>": 6327,
  "Baby,</w>": 6328,
  "Baby</w>": 6329,
  "Bac": 6330,
  "Bacar": 6331,
  "Bacarese,</w>": 6332,
  "Bacarese</w>": 6333,
  "Bach": 6334,
  "Bachel": 6335,
  "Bachelor</w>": 6336,
  "Bacher,</w>": 6337,
  "Bacher</w>": 6338,
  "Bachhav,</w>": 6339,
  "Bachhav</w>": 6340,
  "Back</w>": 6341,
  "Bacon,</w>": 6342,
  "Bacon</w>": 6343,
  "Bad": 6344,
  "Badal": 6345,
  "Badal</w>": 6346,
  "Badalge,</w>": 6347,
  "Badalge</w>": 6348,
  "Badani,</w>": 6349,
  "Badani</w>": 6350,
  "Badar,</w>": 6351,
  "Badar</w>": 6352,
  "Baden": 6353,
  "Badenhor": 6354,
  "Badenhorst,</w>": 6355,
  "Badenhorst</w>": 6356,
  "Bader,</w>": 6357,
  "Bader</w>": 6358,
  "Badoni,</w>": 6359,
  "Badoni</w>": 6360,
  "Badree,</w>": 6361,
  "Badree</w>": 6362,
  "Badrin": 6363,
  "Badrinath,</w>": 6364,
  "Badrinath</w>": 6365,
  "Baek,</w>": 6366,
  "Baek</w>": 6367,
  "Bag": 6368,
  "Bagab": 6369,
  "Bagabena,</w>": 6370,
  "Bagabena</w>": 6371,
  "Bagai,</w>": 6372,
  "Bagai</w>": 6373,
  "Bagenda,</w>": 6374,
  "Bagenda</w>": 6375,
  "Bagg": 6376,
  "Baggy</w>": 6377,
  "Bagh": 6378,
  "Bagh</w>": 6379,
  "Baghel,</w>": 6380,
  "Baghel</w>": 6381,
  "Baguma,</w>": 6382,
  "Baguma</w>": 6383,
  "Bah": 6384,
  "Bah,</w>": 6385,
  "Bah</w>": 6386,
  "Baha": 6387,
  "Bahad": 6388,
  "Bahadur,</w>": 6389,
  "Bahadur</w>": 6390,
  "Bahamas</w>": 6391,
  "Bahawal": 6392,
  "Bahawalpur</w>": 6393,
  "Bahut": 6394,
  "Bahutule</w>": 6395,
  "Bai": 6396,
  "Baichan</w>": 6397,
  "Baid": 6398,
  "Baidw": 6399,
  "Baidwan,</w>": 6400,
  "Baidwan</w>": 6401,
  "Baig,</w>": 6402,
  "Baig</w>": 6403,
  "Bail": 6404,
  "Bailey's</w>": 6405,
  "Bailey,</w>": 6406,
  "Bailey.</w>": 6407,
  "Bailey</w>": 6408,
  "Bailha": 6409,
  "Bailhach": 6410,
  "Bain": 6411,
  "Bainbridge</w>": 6412,
  "Bains,</w>": 6413,
  "Bains</w>": 6414,
  "Bair": 6415,
  "Baird,</w>": 6416,
  "Baird</w>": 6417,
  "Bairsto": 6418,
  "Bairstow,</w>": 6419,
  "Bairstow.</w>": 6420,
  "Bairstow</w>": 6421,
  "Bais": 6422,
  "Bais,</w>": 6423,
  "Bais</w>": 6424,
  "Baisya,</w>": 6425,
  "Baisya</w>": 6426,
  "Baj": 6427,
  "Bajwa,</w>": 6428,
  "Bajwa</w>": 6429,
  "Bak": 6430,
  "Baker,</w>": 6431,
  "Baker</w>": 6432,
  "Bakewell</w>": 6433,
  "Bakh": 6434,
  "Bakha": 6435,
  "Bakhti": 6436,
  "Bakhtiar</w>": 6437,
  "Bakhty": 6438,
  "Bakhtyar</w>": 6439,
  "Baki": 6440,
  "Bakiwe": 6441,
  "Bakiweye": 6442,
  "Bakiweyem,</w>": 6443,
  "Bakiweyem</w>": 6444,
  "Bakum,</w>": 6445,
  "Bakum</w>": 6446,
  "Bal": 6447,
  "Bal,</w>": 6448,
  "Bal</w>": 6449,
  "Bala,</w>": 6450,
  "Bala</w>": 6451,
  "Balad": 6452,
  "Baladraf</w>": 6453,
  "Balaji,</w>": 6454,
  "Balaji</w>": 6455,
  "Balakrishnan,</w>": 6456,
  "Balakrishnan</w>": 6457,
  "Balala,</w>": 6458,
  "Balala</w>": 6459,
  "Balasoori": 6460,
  "Balasooriya,</w>": 6461,
  "Balasooriya</w>": 6462,
  "Balbir": 6463,
  "Balbirnie,</w>": 6464,
  "Balbirnie</w>": 6465,
  "Balcombe,</w>": 6466,
  "Balcombe</w>": 6467,
  "Balder": 6468,
  "Balderson,</w>": 6469,
  "Balderson</w>": 6470,
  "Balderstone</w>": 6471,
  "Baldw": 6472,
  "Baldwin</w>": 6473,
  "Bale": 6474,
  "Baleicik": 6475,
  "Baleiciko": 6476,
  "Baleicikoib": 6477,
  "Baleicikoibia,</w>": 6478,
  "Baleicikoibia</w>": 6479,
  "Baleri,</w>": 6480,
  "Baleri</w>": 6481,
  "Balfour-": 6482,
  "Balfour-Melville</w>": 6483,
  "Bali,</w>": 6484,
  "Bali</w>": 6485,
  "Baliyan</w>": 6486,
  "Balj": 6487,
  "Baljinder</w>": 6488,
  "Baljit</w>": 6489,
  "Balk": 6490,
  "Balkis</w>": 6491,
  "Balkris": 6492,
  "Balkrisna,</w>": 6493,
  "Ball": 6494,
  "Ball,</w>": 6495,
  "Ball</w>": 6496,
  "Balla,</w>": 6497,
  "Balla</w>": 6498,
  "Ballan": 6499,
  "Ballance,</w>": 6500,
  "Ballance</w>": 6501,
  "Ballinger,</w>": 6502,
  "Ballinger</w>": 6503,
  "Balls</w>": 6504,
  "Balma": 6505,
  "Balochi": 6506,
  "Balou": 6507,
  "Balouch,</w>": 6508,
  "Balouch</w>": 6509,
  "Balt,</w>": 6510,
  "Balt</w>": 6511,
  "Balte": 6512,
  "Baltej</w>": 6513,
  "Balu": 6514,
  "Baluch,</w>": 6515,
  "Baluch</w>": 6516,
  "Bam": 6517,
  "Bam,</w>": 6518,
  "Bam</w>": 6519,
  "Bamal,</w>": 6520,
  "Bamal</w>": 6521,
  "Bamb": 6522,
  "Bamber,</w>": 6523,
  "Bamber</w>": 6524,
  "Bameri</w>": 6525,
  "Ban": 6526,
  "Bana,</w>": 6527,
  "Banamali</w>": 6528,
  "Bancroft,</w>": 6529,
  "Bancroft</w>": 6530,
  "Band": 6531,
  "Bandara,</w>": 6532,
  "Bandara</w>": 6533,
  "Bandaru</w>": 6534,
  "Banday,</w>": 6535,
  "Banday</w>": 6536,
  "Bandeep</w>": 6537,
  "Bandekar,</w>": 6538,
  "Bandekar</w>": 6539,
  "Bandi": 6540,
  "Bandiwar</w>": 6541,
  "Baner": 6542,
  "Banerjee</w>": 6543,
  "Bang": 6544,
  "Bangaband": 6545,
  "Bangabandhu</w>": 6546,
  "Bangal": 6547,
  "Bangalore,</w>": 6548,
  "Bangalore.</w>": 6549,
  "Bangalore</w>": 6550,
  "Bangalzai,</w>": 6551,
  "Bangalzai</w>": 6552,
  "Bangar,</w>": 6553,
  "Bangar</w>": 6554,
  "Bangera,</w>": 6555,
  "Bangera</w>": 6556,
  "Bangla</w>": 6557,
  "Banglad": 6558,
  "Bangladesh": 6559,
  "Bangladesh's</w>": 6560,
  "Bangladesh,</w>": 6561,
  "Bangladesh.</w>": 6562,
  "Bangladesh</w>": 6563,
  "Bangladeshi</w>": 6564,
  "Bangur</w>": 6565,
  "Bangura,</w>": 6566,
  "Bangura</w>": 6567,
  "Banik,</w>": 6568,
  "Banik</w>": 6569,
  "Bank": 6570,
  "Bank</w>": 6571,
  "Banks,</w>": 6572,
  "Banks</w>": 6573,
  "Bann": 6574,
  "Banner,</w>": 6575,
  "Banner</w>": 6576,
  "Bannerman</w>": 6577,
  "Bannister</w>": 6578,
  "Bano,</w>": 6579,
  "Bano</w>": 6580,
  "Banting,</w>": 6581,
  "Banting</w>": 6582,
  "Banton,</w>": 6583,
  "Banton</w>": 6584,
  "Banuna": 6585,
  "Banunaek,</w>": 6586,
  "Banunaek</w>": 6587,
  "Bap": 6588,
  "Bappa</w>": 6589,
  "Bar": 6590,
  "Bara": 6591,
  "Bara</w>": 6592,
  "Barad,</w>": 6593,
  "Barad</w>": 6594,
  "Barath,</w>": 6595,
  "Barath</w>": 6596,
  "Barb": 6597,
  "Barbad": 6598,
  "Barbadi": 6599,
  "Barbadian</w>": 6600,
  "Barbados": 6601,
  "Barbados,</w>": 6602,
  "Barbados.</w>": 6603,
  "Barbados</w>": 6604,
  "Barbara</w>": 6605,
  "Barbari": 6606,
  "Barber,</w>": 6607,
  "Barber</w>": 6608,
  "Barboza</w>": 6609,
  "Barbud": 6610,
  "Barc": 6611,
  "Barcel": 6612,
  "Barcelona</w>": 6613,
  "Barcl": 6614,
  "Barclays</w>": 6615,
  "Bard": 6616,
  "Bardai,</w>": 6617,
  "Bardai</w>": 6618,
  "Bardi": 6619,
  "Bardis</w>": 6620,
  "Bardsley,</w>": 6621,
  "Bardsley</w>": 6622,
  "Baret,</w>": 6623,
  "Baret</w>": 6624,
  "Bargna</w>": 6625,
  "Bari": 6626,
  "Bari</w>": 6627,
  "Barik</w>": 6628,
  "Barisal</w>": 6629,
  "Barisha": 6630,
  "Bark": 6631,
  "Barkania,</w>": 6632,
  "Barkania</w>": 6633,
  "Barkat,</w>": 6634,
  "Barkat</w>": 6635,
  "Barker,</w>": 6636,
  "Barker</w>": 6637,
  "Barlow</w>": 6638,
  "Barma,</w>": 6639,
  "Barma</w>": 6640,
  "Barman,</w>": 6641,
  "Barman</w>": 6642,
  "Barn": 6643,
  "Barnard,</w>": 6644,
  "Barnard</w>": 6645,
  "Barnato</w>": 6646,
  "Barnes's</w>": 6647,
  "Barnes,</w>": 6648,
  "Barnes.</w>": 6649,
  "Barnes</w>": 6650,
  "Barnett,</w>": 6651,
  "Barnett</w>": 6652,
  "Barnwell,</w>": 6653,
  "Barnwell</w>": 6654,
  "Baro": 6655,
  "Barod": 6656,
  "Baroda.</w>": 6657,
  "Baroda</w>": 6658,
  "Baroka</w>": 6659,
  "Baron,</w>": 6660,
  "Baron</w>": 6661,
  "Baronet,</w>": 6662,
  "Baronet</w>": 6663,
  "Barot,</w>": 6664,
  "Barot</w>": 6665,
  "Barr,</w>": 6666,
  "Barr</w>": 6667,
  "Barre": 6668,
  "Barres": 6669,
  "Barresi,</w>": 6670,
  "Barresi</w>": 6671,
  "Barrett,</w>": 6672,
  "Barrett</w>": 6673,
  "Barrie</w>": 6674,
  "Barrington</w>": 6675,
  "Barrow,</w>": 6676,
  "Barrow</w>": 6677,
  "Barry,</w>": 6678,
  "Barry</w>": 6679,
  "Bars": 6680,
  "Barsby,</w>": 6681,
  "Barsby</w>": 6682,
  "Bartho": 6683,
  "Bartholem": 6684,
  "Bartholemew</w>": 6685,
  "Bartle": 6686,
  "Bartlett,</w>": 6687,
  "Bartlett</w>": 6688,
  "Bartley,</w>": 6689,
  "Bartley</w>": 6690,
  "Bartol": 6691,
  "Bartolome": 6692,
  "Bartolomeo</w>": 6693,
  "Barton,</w>": 6694,
  "Barton</w>": 6695,
  "Bartra": 6696,
  "Bartram,</w>": 6697,
  "Bartram</w>": 6698,
  "Baruah,</w>": 6699,
  "Baruah</w>": 6700,
  "Bas": 6701,
  "Basant</w>": 6702,
  "Bascome,</w>": 6703,
  "Bascome</w>": 6704,
  "Base": 6705,
  "Baseball</w>": 6706,
  "Based</w>": 6707,
  "Baseer</w>": 6708,
  "Bash.</w>": 6709,
  "Bash</w>": 6710,
  "Basha": 6711,
  "Basha,</w>": 6712,
  "Basha</w>": 6713,
  "Bashar,</w>": 6714,
  "Bashar</w>": 6715,
  "Basharat</w>": 6716,
  "Bashid</w>": 6717,
  "Bashir,</w>": 6718,
  "Bashir</w>": 6719,
  "Basil,</w>": 6720,
  "Basil</w>": 6721,
  "Basile,</w>": 6722,
  "Basile</w>": 6723,
  "Basin</w>": 6724,
  "Basingsto": 6725,
  "Basingstoke</w>": 6726,
  "Basir</w>": 6727,
  "Basiru</w>": 6728,
  "Basith,</w>": 6729,
  "Basith</w>": 6730,
  "Bask": 6731,
  "Baskaran,</w>": 6732,
  "Baskaran</w>": 6733,
  "Basketball</w>": 6734,
  "Baskota,</w>": 6735,
  "Baskota</w>": 6736,
  "Basnayak": 6737,
  "Basnayaka,</w>": 6738,
  "Basnayaka</w>": 6739,
  "Basnayake,</w>": 6740,
  "Basnayake</w>": 6741,
  "Basra,</w>": 6742,
  "Basra</w>": 6743,
  "Bast": 6744,
  "Bastak": 6745,
  "Bastaki</w>": 6746,
  "Bastari,</w>": 6747,
  "Basti": 6748,
  "Bastiamp": 6749,
  "Bastiampill": 6750,
  "Bastiampillai,</w>": 6751,
  "Bastiampillai</w>": 6752,
  "Bastians": 6753,
  "Bastiansz,</w>": 6754,
  "Bastiansz</w>": 6755,
  "Bastin</w>": 6756,
  "Bat": 6757,
  "Bat</w>": 6758,
  "Bateman,</w>": 6759,
  "Bateman</w>": 6760,
  "Bates,</w>": 6761,
  "Bates</w>": 6762,
  "Bath": 6763,
  "Bath,</w>": 6764,
  "Bath.</w>": 6765,
  "Bath</w>": 6766,
  "Batham,</w>": 6767,
  "Batham</w>": 6768,
  "Bathurst</w>": 6769,
  "Batin": 6770,
  "Batinib": 6771,
  "Batinibulu,</w>": 6772,
  "Batinibulu</w>": 6773,
  "Batis": 6774,
  "Batisani,</w>": 6775,
  "Batisani</w>": 6776,
  "Batj": 6777,
  "Batjarg": 6778,
  "Batkh": 6779,
  "Batkhuyag</w>": 6780,
  "Batnas": 6781,
  "Batnasan,</w>": 6782,
  "Batnasan</w>": 6783,
  "Batool</w>": 6784,
  "Batris": 6785,
  "Batrisy": 6786,
  "Batrisyia</w>": 6787,
  "Batsman</w>": 6788,
  "Batsmen</w>": 6789,
  "Batt": 6790,
  "Battage</w>": 6791,
  "Battali": 6792,
  "Battalion,</w>": 6793,
  "Battalion</w>": 6794,
  "Batters</w>": 6795,
  "Batting</w>": 6796,
  "Battle</w>": 6797,
  "Batty,</w>": 6798,
  "Batty</w>": 6799,
  "Batuwi": 6800,
  "Batuwit": 6801,
  "Batuwitarachchi,</w>": 6802,
  "Bau": 6803,
  "Bau,</w>": 6804,
  "Bau</w>": 6805,
  "Bauer</w>": 6806,
  "Baugh": 6807,
  "Baugh,</w>": 6808,
  "Baugh</w>": 6809,
  "Bav": 6810,
  "Bavan": 6811,
  "Bavanaka</w>": 6812,
  "Bavuma,</w>": 6813,
  "Bavuma</w>": 6814,
  "Baw": 6815,
  "Bawa,</w>": 6816,
  "Bawa</w>": 6817,
  "Bawne,</w>": 6818,
  "Bawne</w>": 6819,
  "Bax": 6820,
  "Baxter</w>": 6821,
  "Bay": 6822,
  "Bay,</w>": 6823,
  "Bay</w>": 6824,
  "Bayarj": 6825,
  "Bayarjav": 6826,
  "Bayarjavkhl": 6827,
  "Bayarjavkhlan,</w>": 6828,
  "Bayarjavkhlan</w>": 6829,
  "Bayl": 6830,
  "Bayliss</w>": 6831,
  "Bayou": 6832,
  "Bayoumy,</w>": 6833,
  "Bayoumy</w>": 6834,
  "Bayrak": 6835,
  "Bayrakt": 6836,
  "Bayraktar,</w>": 6837,
  "Bayram,</w>": 6838,
  "Bayram</w>": 6839,
  "Baz": 6840,
  "Baz</w>": 6841,
  "Bazball</w>": 6842,
  "Bazid</w>": 6843,
  "Bazil,</w>": 6844,
  "Bazil</w>": 6845,
  "Bazir": 6846,
  "Bazirhak</w>": 6847,
  "Bazley,</w>": 6848,
  "Bazley</w>": 6849,
  "Be": 6850,
  "Be</w>": 6851,
  "Bea": 6852,
  "Beach</w>": 6853,
  "Bead": 6854,
  "Beadle</w>": 6855,
  "Beam": 6856,
  "Beams,</w>": 6857,
  "Beams</w>": 6858,
  "Bean,</w>": 6859,
  "Bean</w>": 6860,
  "Beard": 6861,
  "Beard,</w>": 6862,
  "Beard</w>": 6863,
  "Beardman,</w>": 6864,
  "Beardman</w>": 6865,
  "Beat": 6866,
  "Beaton,</w>": 6867,
  "Beaton</w>": 6868,
  "Beau": 6869,
  "Beaumon": 6870,
  "Beaumont,</w>": 6871,
  "Beaumont</w>": 6872,
  "Because</w>": 6873,
  "Beck": 6874,
  "Becken": 6875,
  "Beckenham</w>": 6876,
  "Beckford</w>": 6877,
  "Bed": 6878,
  "Bedford</w>": 6879,
  "Bedfordshire,</w>": 6880,
  "Bedfordshire.</w>": 6881,
  "Bedfordshire</w>": 6882,
  "Bedi</w>": 6883,
  "Bedingham,</w>": 6884,
  "Bedingham</w>": 6885,
  "Bedja</w>": 6886,
  "Beds": 6887,
  "Bedser,</w>": 6888,
  "Bedser</w>": 6889,
  "Bee": 6890,
  "Beek,</w>": 6891,
  "Beek</w>": 6892,
  "Beer,</w>": 6893,
  "Beer</w>": 6894,
  "Beest</w>": 6895,
  "Beet</w>": 6896,
  "Before</w>": 6897,
  "Beg": 6898,
  "Begam,</w>": 6899,
  "Begam</w>": 6900,
  "Begg": 6901,
  "Beggs,</w>": 6902,
  "Beggs</w>": 6903,
  "Begh": 6904,
  "Beghin,</w>": 6905,
  "Beghin</w>": 6906,
  "Beginning</w>": 6907,
  "Beh": 6908,
  "Beh</w>": 6909,
  "Behar": 6910,
  "Behar</w>": 6911,
  "Behardi": 6912,
  "Behardien,</w>": 6913,
  "Behardien</w>": 6914,
  "Behera,</w>": 6915,
  "Behera</w>": 6916,
  "Behind</w>": 6917,
  "Behr,</w>": 6918,
  "Behr</w>": 6919,
  "Behren": 6920,
  "Behrendor": 6921,
  "Behrendorff,</w>": 6922,
  "Behrendorff</w>": 6923,
  "Beidas</w>": 6924,
  "Being</w>": 6925,
  "Beit": 6926,
  "Beitaki,</w>": 6927,
  "Beitaki</w>": 6928,
  "Beji": 6929,
  "Bejide,</w>": 6930,
  "Bejide</w>": 6931,
  "Bek": 6932,
  "Bekker,</w>": 6933,
  "Bekker</w>": 6934,
  "Bel": 6935,
  "Belbas": 6936,
  "Belbashi,</w>": 6937,
  "Belbashi</w>": 6938,
  "Belfast,</w>": 6939,
  "Belfast.</w>": 6940,
  "Belfast</w>": 6941,
  "Belgi": 6942,
  "Belgrove,</w>": 6943,
  "Belgrove</w>": 6944,
  "Belinda</w>": 6945,
  "Bell": 6946,
  "Bell,</w>": 6947,
  "Bell-Drum": 6948,
  "Bell-Drummond,</w>": 6949,
  "Bell-Drummond</w>": 6950,
  "Bell</w>": 6951,
  "Bella</w>": 6952,
  "Belleri": 6953,
  "Bellerive</w>": 6954,
  "Bellot</w>": 6955,
  "Below</w>": 6956,
  "Belt</w>": 6957,
  "Ben": 6958,
  "Ben</w>": 6959,
  "Benade,</w>": 6960,
  "Benade</w>": 6961,
  "Benat": 6962,
  "Benatar,</w>": 6963,
  "Benatar</w>": 6964,
  "Benau": 6965,
  "Benaud's</w>": 6966,
  "Benaud,</w>": 6967,
  "Benaud.</w>": 6968,
  "Benaud</w>": 6969,
  "Bencraft</w>": 6970,
  "Bendi": 6971,
  "Bendigo</w>": 6972,
  "Beng": 6973,
  "Bengal": 6974,
  "Bengal,</w>": 6975,
  "Bengal.</w>": 6976,
  "Bengal</w>": 6977,
  "Bengali</w>": 6978,
  "Bengaluru.</w>": 6979,
  "Bengaluru</w>": 6980,
  "Benj": 6981,
  "Benjam": 6982,
  "Benjamin,</w>": 6983,
  "Benjamin</w>": 6984,
  "Benkenste": 6985,
  "Benkenstein,</w>": 6986,
  "Benkenstein</w>": 6987,
  "Benn": 6988,
  "Benn,</w>": 6989,
  "Benn</w>": 6990,
  "Bennett,</w>": 6991,
  "Bennett</w>": 6992,
  "Benoi": 6993,
  "Benoit,</w>": 6994,
  "Benoit</w>": 6995,
  "Benoy</w>": 6996,
  "Benson</w>": 6997,
  "Bent": 6998,
  "Bentley</w>": 6999,
  "Benton,</w>": 7000,
  "Benton</w>": 7001,
  "Ber": 7002,
  "Berbi": 7003,
  "Berej": 7004,
  "Berejo,</w>": 7005,
  "Berejo</w>": 7006,
  "Bereng": 7007,
  "Berenger,</w>": 7008,
  "Berenger</w>": 7009,
  "Beres": 7010,
  "Beresford,</w>": 7011,
  "Beresford-": 7012,
  "Beresford-Peir": 7013,
  "Beresford-Peirse,</w>": 7014,
  "Beresford-Peirse</w>": 7015,
  "Beresford</w>": 7016,
  "Berg,</w>": 7017,
  "Berg</w>": 7018,
  "Bergh,</w>": 7019,
  "Bergh</w>": 7020,
  "Beri,</w>": 7021,
  "Berk": 7022,
  "Berkshire,</w>": 7023,
  "Berkshire.</w>": 7024,
  "Berkshire</w>": 7025,
  "Berlia,</w>": 7026,
  "Berlia</w>": 7027,
  "Berm": 7028,
  "Bermingham,</w>": 7029,
  "Bermingham</w>": 7030,
  "Bermu": 7031,
  "Bermud": 7032,
  "Bermuda,</w>": 7033,
  "Bermuda.</w>": 7034,
  "Bermuda</w>": 7035,
  "Bermudian</w>": 7036,
  "Bern": 7037,
  "Bernard,</w>": 7038,
  "Bernard</w>": 7039,
  "Berring": 7040,
  "Berrington,</w>": 7041,
  "Berrington</w>": 7042,
  "Berry,</w>": 7043,
  "Berry</w>": 7044,
  "Bert": 7045,
  "Bert</w>": 7046,
  "Berthe,</w>": 7047,
  "Berthe</w>": 7048,
  "Bertus,</w>": 7049,
  "Bertus</w>": 7050,
  "Bes": 7051,
  "Besides</w>": 7052,
  "Bess": 7053,
  "Bess,</w>": 7054,
  "Bess</w>": 7055,
  "Bessala,</w>": 7056,
  "Bessala</w>": 7057,
  "Best": 7058,
  "Best,</w>": 7059,
  "Best</w>": 7060,
  "Bester,</w>": 7061,
  "Bester</w>": 7062,
  "Bestwi": 7063,
  "Bestwick</w>": 7064,
  "Bet": 7065,
  "Beth": 7066,
  "Bethell,</w>": 7067,
  "Bethell</w>": 7068,
  "Bettel": 7069,
  "Bettelhe": 7070,
  "Bettelheim,</w>": 7071,
  "Bettelheim</w>": 7072,
  "Betts,</w>": 7073,
  "Betts</w>": 7074,
  "Betty</w>": 7075,
  "Between</w>": 7076,
  "Beuge,</w>": 7077,
  "Beuge</w>": 7078,
  "Beuk": 7079,
  "Beukes,</w>": 7080,
  "Beukes</w>": 7081,
  "Bev": 7082,
  "Bevan,</w>": 7083,
  "Bevan</w>": 7084,
  "Bever": 7085,
  "Bevil": 7086,
  "Bevilaq": 7087,
  "Bevilaqua,</w>": 7088,
  "Bevilaqua</w>": 7089,
  "Bevin,</w>": 7090,
  "Bevin</w>": 7091,
  "Bevinj": 7092,
  "Bevinje,</w>": 7093,
  "Bevinje</w>": 7094,
  "Bex": 7095,
  "Bey,</w>": 7096,
  "Bey</w>": 7097,
  "Beyond</w>": 7098,
  "Bezu": 7099,
  "Bezuiden": 7100,
  "Bezuidenh": 7101,
  "Bezuidenhout,</w>": 7102,
  "Bezuidenhout</w>": 7103,
  "Bh": 7104,
  "Bha": 7105,
  "Bhad": 7106,
  "Bhadauri": 7107,
  "Bhadauria,</w>": 7108,
  "Bhado": 7109,
  "Bhadoriya</w>": 7110,
  "Bhadri": 7111,
  "Bhadriraju</w>": 7112,
  "Bhag": 7113,
  "Bhagath</w>": 7114,
  "Bhagmen": 7115,
  "Bhagmender</w>": 7116,
  "Bhagwan,</w>": 7117,
  "Bhagwan</w>": 7118,
  "Bhagwat</w>": 7119,
  "Bhai</w>": 7120,
  "Bhaksha": 7121,
  "Bhakshala,</w>": 7122,
  "Bhakshala</w>": 7123,
  "Bhalla,</w>": 7124,
  "Bhalla</w>": 7125,
  "Bham": 7126,
  "Bhamb": 7127,
  "Bhambhu</w>": 7128,
  "Bhambri,</w>": 7129,
  "Bhambri</w>": 7130,
  "Bhammar,</w>": 7131,
  "Bhamu</w>": 7132,
  "Bhan": 7133,
  "Bhand": 7134,
  "Bhandage,</w>": 7135,
  "Bhandage</w>": 7136,
  "Bhandari,</w>": 7137,
  "Bhandari</w>": 7138,
  "Bhanu</w>": 7139,
  "Bhanuka,</w>": 7140,
  "Bhanuka</w>": 7141,
  "Bhanusha": 7142,
  "Bhanushali</w>": 7143,
  "Bhar": 7144,
  "Bhara": 7145,
  "Bharadwaj,</w>": 7146,
  "Bharadwaj</w>": 7147,
  "Bharaj,</w>": 7148,
  "Bharaj</w>": 7149,
  "Bharat,</w>": 7150,
  "Bharat</w>": 7151,
  "Bharath</w>": 7152,
  "Bharathi,</w>": 7153,
  "Bharathi</w>": 7154,
  "Bhardwaj,</w>": 7155,
  "Bhardwaj</w>": 7156,
  "Bharg": 7157,
  "Bhargava</w>": 7158,
  "Bhari,</w>": 7159,
  "Bhari</w>": 7160,
  "Bhart,</w>": 7161,
  "Bhart</w>": 7162,
  "Bharti,</w>": 7163,
  "Bharti</w>": 7164,
  "Bharwad,</w>": 7165,
  "Bhas": 7166,
  "Bhasin,</w>": 7167,
  "Bhasin</w>": 7168,
  "Bhask": 7169,
  "Bhaskar,</w>": 7170,
  "Bhaskar</w>": 7171,
  "Bhaskara,</w>": 7172,
  "Bhaskara</w>": 7173,
  "Bhat": 7174,
  "Bhata": 7175,
  "Bhatawa": 7176,
  "Bhatawadekar,</w>": 7177,
  "Bhatawadekar</w>": 7178,
  "Bhati": 7179,
  "Bhati,</w>": 7180,
  "Bhati</w>": 7181,
  "Bhatia,</w>": 7182,
  "Bhatia</w>": 7183,
  "Bhatkal</w>": 7184,
  "Bhatt": 7185,
  "Bhatt,</w>": 7186,
  "Bhatt</w>": 7187,
  "Bhatta": 7188,
  "Bhatta,</w>": 7189,
  "Bhatta</w>": 7190,
  "Bhattachar": 7191,
  "Bhattacharjee</w>": 7192,
  "Bhattarai</w>": 7193,
  "Bhatti,</w>": 7194,
  "Bhatti</w>": 7195,
  "Bhav": 7196,
  "Bhavesh</w>": 7197,
  "Bhavik</w>": 7198,
  "Bhavs": 7199,
  "Bhavsar,</w>": 7200,
  "Bhavsar</w>": 7201,
  "Bhi": 7202,
  "Bhikari</w>": 7203,
  "Bhim": 7204,
  "Bhima</w>": 7205,
  "Bhimji</w>": 7206,
  "Bhog": 7207,
  "Bhogle,</w>": 7208,
  "Bhogle</w>": 7209,
  "Bhonkar,</w>": 7210,
  "Bhoo": 7211,
  "Bhoola,</w>": 7212,
  "Bhoola</w>": 7213,
  "Bhu": 7214,
  "Bhudi": 7215,
  "Bhudia,</w>": 7216,
  "Bhudia</w>": 7217,
  "Bhui,</w>": 7218,
  "Bhui</w>": 7219,
  "Bhuiy": 7220,
  "Bhuiyan,</w>": 7221,
  "Bhuiyan</w>": 7222,
  "Bhula,</w>": 7223,
  "Bhula</w>": 7224,
  "Bhull": 7225,
  "Bhullar,</w>": 7226,
  "Bhullar</w>": 7227,
  "Bhum": 7228,
  "Bhumes": 7229,
  "Bhumeshs": 7230,
  "Bhumeshswar</w>": 7231,
  "Bhumi": 7232,
  "Bhumij</w>": 7233,
  "Bhupinder</w>": 7234,
  "Bhurt": 7235,
  "Bhurtel,</w>": 7236,
  "Bhurtel</w>": 7237,
  "Bhus": 7238,
  "Bhushan</w>": 7239,
  "Bhut</w>": 7240,
  "Bhute</w>": 7241,
  "Bhuti": 7242,
  "Bhutia,</w>": 7243,
  "Bhutia</w>": 7244,
  "Bhuv": 7245,
  "Bhuvnesh": 7246,
  "Bhuvneshwar</w>": 7247,
  "Bi": 7248,
  "Biak": 7249,
  "Biakthan": 7250,
  "Bib": 7251,
  "Bibe": 7252,
  "Bibek</w>": 7253,
  "Bibi,</w>": 7254,
  "Bibi</w>": 7255,
  "Bibina</w>": 7256,
  "Bicer</w>": 7257,
  "Bich": 7258,
  "Bichard,</w>": 7259,
  "Bichard</w>": 7260,
  "Bichel,</w>": 7261,
  "Bichel</w>": 7262,
  "Bickn": 7263,
  "Bicknell,</w>": 7264,
  "Bicknell</w>": 7265,
  "Bid": 7266,
  "Bidais": 7267,
  "Bidaisee,</w>": 7268,
  "Bidaisee</w>": 7269,
  "Bidari</w>": 7270,
  "Bidd": 7271,
  "Biddappa,</w>": 7272,
  "Biddappa</w>": 7273,
  "Bidh": 7274,
  "Bidha</w>": 7275,
  "Bidhuri,</w>": 7276,
  "Bidhuri</w>": 7277,
  "Bier": 7278,
  "Bierwis": 7279,
  "Bierwisch,</w>": 7280,
  "Bierwisch</w>": 7281,
  "Big": 7282,
  "Big</w>": 7283,
  "Bigula,</w>": 7284,
  "Bigula</w>": 7285,
  "Bihar</w>": 7286,
  "Bij": 7287,
  "Bijey": 7288,
  "Bijeyata</w>": 7289,
  "Bik": 7290,
  "Bikas</w>": 7291,
  "Bikash</w>": 7292,
  "Biko</w>": 7293,
  "Bikram": 7294,
  "Bikram</w>": 7295,
  "Bikramkumar</w>": 7296,
  "Bil": 7297,
  "Bilakhi": 7298,
  "Bilakhia,</w>": 7299,
  "Bilakhia</w>": 7300,
  "Bilal,</w>": 7301,
  "Bilal</w>": 7302,
  "Bilawa": 7303,
  "Bilawal</w>": 7304,
  "Bilj": 7305,
  "Biljon,</w>": 7306,
  "Biljon</w>": 7307,
  "Bill": 7308,
  "Bill</w>": 7309,
  "Billah,</w>": 7310,
  "Billah</w>": 7311,
  "Billcli": 7312,
  "Billcliff,</w>": 7313,
  "Billcliff</w>": 7314,
  "Billing": 7315,
  "Billings,</w>": 7316,
  "Billings</w>": 7317,
  "Bills</w>": 7318,
  "Billy</w>": 7319,
  "Bim": 7320,
  "Bimeny": 7321,
  "Bimenyi": 7322,
  "Bimenyimana,</w>": 7323,
  "Bimenyimana</w>": 7324,
  "Bin": 7325,
  "Bin</w>": 7326,
  "Binch</w>": 7327,
  "Bing": 7328,
  "Binks</w>": 7329,
  "Binn": 7330,
  "Binny,</w>": 7331,
  "Binny</w>": 7332,
  "Biog": 7333,
  "Biogra": 7334,
  "Biographi": 7335,
  "Biographies,</w>": 7336,
  "Biography.</w>": 7337,
  "Biography</w>": 7338,
  "Bip": 7339,
  "Bipin</w>": 7340,
  "Bipl": 7341,
  "Biplob,</w>": 7342,
  "Biplob</w>": 7343,
  "Bipul</w>": 7344,
  "Bir": 7345,
  "Birch,</w>": 7346,
  "Birch</w>": 7347,
  "Bird's</w>": 7348,
  "Bird,</w>": 7349,
  "Bird</w>": 7350,
  "Birken": 7351,
  "Birkenshaw</w>": 7352,
  "Birkensto": 7353,
  "Birkenstock,</w>": 7354,
  "Birkenstock</w>": 7355,
  "Birkett,</w>": 7356,
  "Birkett</w>": 7357,
  "Birla</w>": 7358,
  "Birley</w>": 7359,
  "Birm": 7360,
  "Birmingham": 7361,
  "Birmingham,</w>": 7362,
  "Birmingham.</w>": 7363,
  "Birmingham</w>": 7364,
  "Birrell,</w>": 7365,
  "Birrell</w>": 7366,
  "Birt,</w>": 7367,
  "Birt</w>": 7368,
  "Birth": 7369,
  "Birthday</w>": 7370,
  "Bis": 7371,
  "Bish": 7372,
  "Bishaw": 7373,
  "Bishawnath</w>": 7374,
  "Bishno": 7375,
  "Bishnoi,</w>": 7376,
  "Bishnoi</w>": 7377,
  "Bishoo,</w>": 7378,
  "Bishoo</w>": 7379,
  "Bishop,</w>": 7380,
  "Bishop</w>": 7381,
  "Bisht,</w>": 7382,
  "Bisht</w>": 7383,
  "Bishworjit</w>": 7384,
  "Bisla,</w>": 7385,
  "Bisla</w>": 7386,
  "Bismah</w>": 7387,
  "Bismill": 7388,
  "Bismillah</w>": 7389,
  "Biss": 7390,
  "Biss</w>": 7391,
  "Bisset</w>": 7392,
  "Bissett</w>": 7393,
  "Bisson,</w>": 7394,
  "Bisson</w>": 7395,
  "Bist": 7396,
  "Bist,</w>": 7397,
  "Bist</w>": 7398,
  "Bista,</w>": 7399,
  "Bista</w>": 7400,
  "Biswa,</w>": 7401,
  "Biswa</w>": 7402,
  "Biswas</w>": 7403,
  "Bitis,</w>": 7404,
  "Bitis</w>": 7405,
  "Biu,</w>": 7406,
  "Biu</w>": 7407,
  "Biza,</w>": 7408,
  "Biza</w>": 7409,
  "Bl": 7410,
  "Black": 7411,
  "Black,</w>": 7412,
  "Black</w>": 7413,
  "Blackburn</w>": 7414,
  "Blackham</w>": 7415,
  "Blackhe": 7416,
  "Blackheath</w>": 7417,
  "Blackpool</w>": 7418,
  "Blacks</w>": 7419,
  "Blackwell,</w>": 7420,
  "Blackwell</w>": 7421,
  "Blackwood,</w>": 7422,
  "Blackwood</w>": 7423,
  "Blades</w>": 7424,
  "Blag": 7425,
  "Blagg,</w>": 7426,
  "Blagg</w>": 7427,
  "Blain,</w>": 7428,
  "Blain</w>": 7429,
  "Blair</w>": 7430,
  "Blak": 7431,
  "Blake,</w>": 7432,
  "Blake</w>": 7433,
  "Blakely,</w>": 7434,
  "Blakely</w>": 7435,
  "Blampi": 7436,
  "Blampied,</w>": 7437,
  "Blampied</w>": 7438,
  "Blas": 7439,
  "Blast,</w>": 7440,
  "Blast.</w>": 7441,
  "Blast</w>": 7442,
  "Blather": 7443,
  "Blatherwick,</w>": 7444,
  "Blatherwick</w>": 7445,
  "Ble": 7446,
  "Blew": 7447,
  "Blewett</w>": 7448,
  "Bli": 7449,
  "Bligh</w>": 7450,
  "Blignau": 7451,
  "Blignaut,</w>": 7452,
  "Blignaut</w>": 7453,
  "Blin": 7454,
  "Blinkh": 7455,
  "Blinkhorn-": 7456,
  "Blinkhorn-Jones,</w>": 7457,
  "Blinkhorn-Jones</w>": 7458,
  "Blizz": 7459,
  "Blizzard,</w>": 7460,
  "Blizzard</w>": 7461,
  "Blo": 7462,
  "Bloem": 7463,
  "Bloemen,</w>": 7464,
  "Bloemen</w>": 7465,
  "Bloemfonte": 7466,
  "Blof": 7467,
  "Bloom": 7468,
  "Bloomfield</w>": 7469,
  "Blows,</w>": 7470,
  "Blows</w>": 7471,
  "Blu": 7472,
  "Blue,</w>": 7473,
  "Blue.</w>": 7474,
  "Blue</w>": 7475,
  "Blues</w>": 7476,
  "Blunde": 7477,
  "Blundell's</w>": 7478,
  "Blundell,</w>": 7479,
  "Blundell</w>": 7480,
  "Bly": 7481,
  "Blythe": 7482,
  "Blythe's</w>": 7483,
  "Blythe,</w>": 7484,
  "Blythe</w>": 7485,
  "Blythin,</w>": 7486,
  "Bo": 7487,
  "Boam,</w>": 7488,
  "Boam</w>": 7489,
  "Board's</w>": 7490,
  "Board,</w>": 7491,
  "Board.</w>": 7492,
  "Board</w>": 7493,
  "Boas,</w>": 7494,
  "Boas</w>": 7495,
  "Boast</w>": 7496,
  "Bob</w>": 7497,
  "Bobby</w>": 7498,
  "Bocock,</w>": 7499,
  "Bocock</w>": 7500,
  "Bod": 7501,
  "Bodav": 7502,
  "Bodavara": 7503,
  "Bodavarapu</w>": 7504,
  "Boden": 7505,
  "Bodenste": 7506,
  "Bodenstein,</w>": 7507,
  "Bodenstein</w>": 7508,
  "Bodha,</w>": 7509,
  "Bodha</w>": 7510,
  "Bodi,</w>": 7511,
  "Bodi</w>": 7512,
  "Bodibe,</w>": 7513,
  "Bodibe</w>": 7514,
  "Bodylin": 7515,
  "Bodyline,</w>": 7516,
  "Bodyline.</w>": 7517,
  "Bodyline</w>": 7518,
  "Boer</w>": 7519,
  "Bog": 7520,
  "Bogdan": 7521,
  "Bogdanos,</w>": 7522,
  "Bogdanos</w>": 7523,
  "Bogdanova,</w>": 7524,
  "Bogdanova</w>": 7525,
  "Bogdo": 7526,
  "Bogdos,</w>": 7527,
  "Bohann": 7528,
  "Bohannon,</w>": 7529,
  "Bohannon</w>": 7530,
  "Bohara,</w>": 7531,
  "Bohara</w>": 7532,
  "Boio</w>": 7533,
  "Bois": 7534,
  "Boissev": 7535,
  "Boissevain,</w>": 7536,
  "Boissevain</w>": 7537,
  "Bojang,</w>": 7538,
  "Bojang</w>": 7539,
  "Boje,</w>": 7540,
  "Boje</w>": 7541,
  "Bok": 7542,
  "Bokako</w>": 7543,
  "Bol": 7544,
  "Boland's</w>": 7545,
  "Boland,</w>": 7546,
  "Boland</w>": 7547,
  "Boll": 7548,
  "Bollinger,</w>": 7549,
  "Bollinger</w>": 7550,
  "Bolly": 7551,
  "Bollywood</w>": 7552,
  "Bolton,</w>": 7553,
  "Bolton</w>": 7554,
  "Bom": 7555,
  "Bomb": 7556,
  "Bombay's</w>": 7557,
  "Bombay,</w>": 7558,
  "Bombay.</w>": 7559,
  "Bombay</w>": 7560,
  "Bomm": 7561,
  "Bommare": 7562,
  "Bommaredd": 7563,
  "Bommareddy,</w>": 7564,
  "Bommareddy</w>": 7565,
  "Bomny": 7566,
  "Bomnyu": 7567,
  "Bon": 7568,
  "Bond": 7569,
  "Bond's</w>": 7570,
  "Bond,</w>": 7571,
  "Bond</w>": 7572,
  "Bonner,</w>": 7573,
  "Bonner</w>": 7574,
  "Bonny</w>": 7575,
  "Bono": 7576,
  "Bonora,</w>": 7577,
  "Bonora</w>": 7578,
  "Boo": 7579,
  "Boocha": 7580,
  "Boochatham,</w>": 7581,
  "Boochatham</w>": 7582,
  "Bood": 7583,
  "Boodram,</w>": 7584,
  "Boodram</w>": 7585,
  "Book": 7586,
  "Book</w>": 7587,
  "Books,</w>": 7588,
  "Books.</w>": 7589,
  "Books</w>": 7590,
  "Boon's</w>": 7591,
  "Boon,</w>": 7592,
  "Boon</w>": 7593,
  "Boons": 7594,
  "Boonsuk": 7595,
  "Boonsukham,</w>": 7596,
  "Boonsukham</w>": 7597,
  "Boor": 7598,
  "Boorder,</w>": 7599,
  "Boorder</w>": 7600,
  "Boorman,</w>": 7601,
  "Boorman</w>": 7602,
  "Boota,</w>": 7603,
  "Boota</w>": 7604,
  "Booth's</w>": 7605,
  "Booth,</w>": 7606,
  "Booth</w>": 7607,
  "Bop": 7608,
  "Bopage</w>": 7609,
  "Bopara,</w>": 7610,
  "Bopara</w>": 7611,
  "Bor": 7612,
  "Borak": 7613,
  "Borakambi</w>": 7614,
  "Borde</w>": 7615,
  "Borden,</w>": 7616,
  "Borden</w>": 7617,
  "Border": 7618,
  "Border's</w>": 7619,
  "Border,</w>": 7620,
  "Border-": 7621,
  "Border-Gavaskar</w>": 7622,
  "Border.</w>": 7623,
  "Border</w>": 7624,
  "Border\u2013": 7625,
  "Border\u2013Gavaskar</w>": 7626,
  "Borg": 7627,
  "Borgas,</w>": 7628,
  "Borgas</w>": 7629,
  "Borham,</w>": 7630,
  "Borham</w>": 7631,
  "Born</w>": 7632,
  "Borom": 7633,
  "Borough</w>": 7634,
  "Borren,</w>": 7635,
  "Borren</w>": 7636,
  "Borrington,</w>": 7637,
  "Borrington</w>": 7638,
  "Borris": 7639,
  "Borson</w>": 7640,
  "Borthwi": 7641,
  "Borthwick,</w>": 7642,
  "Borthwick</w>": 7643,
  "Bos": 7644,
  "Bosan": 7645,
  "Bosch,</w>": 7646,
  "Bosch</w>": 7647,
  "Bosco</w>": 7648,
  "Bose,</w>": 7649,
  "Bose</w>": 7650,
  "Bosh": 7651,
  "Bosho": 7652,
  "Boshoff,</w>": 7653,
  "Boshoff</w>": 7654,
  "Bosis": 7655,
  "Bosisto,</w>": 7656,
  "Bosisto</w>": 7657,
  "Bosman,</w>": 7658,
  "Bosman</w>": 7659,
  "Bosn": 7660,
  "Bosnj": 7661,
  "Bosnjak,</w>": 7662,
  "Bosnjak</w>": 7663,
  "Boston</w>": 7664,
  "Bot": 7665,
  "Botej": 7666,
  "Boteju</w>": 7667,
  "Both</w>": 7668,
  "Botha,</w>": 7669,
  "Botha</w>": 7670,
  "Botham's</w>": 7671,
  "Botham,</w>": 7672,
  "Botham.</w>": 7673,
  "Botham</w>": 7674,
  "Botsw": 7675,
  "Botswana</w>": 7676,
  "Bou": 7677,
  "Bouch": 7678,
  "Boucher,</w>": 7679,
  "Boucher</w>": 7680,
  "Bouchi": 7681,
  "Bouchier,</w>": 7682,
  "Bouchier</w>": 7683,
  "Boul": 7684,
  "Boult,</w>": 7685,
  "Boult</w>": 7686,
  "Boun": 7687,
  "Bound": 7688,
  "Bour": 7689,
  "Bourda</w>": 7690,
  "Bourgai": 7691,
  "Bourgaize</w>": 7692,
  "Bourke</w>": 7693,
  "Bourn": 7694,
  "Bourne,</w>": 7695,
  "Bourne</w>": 7696,
  "Bournem": 7697,
  "Bournemouth.</w>": 7698,
  "Bournemouth</w>": 7699,
  "Bov": 7700,
  "Bovell,</w>": 7701,
  "Bovell</w>": 7702,
  "Bow": 7703,
  "Bowden,</w>": 7704,
  "Bowden</w>": 7705,
  "Bowe</w>": 7706,
  "Bowell</w>": 7707,
  "Bowers-": 7708,
  "Bowers-Fleming</w>": 7709,
  "Bowes,</w>": 7710,
  "Bowes</w>": 7711,
  "Bowl": 7712,
  "Bowl,</w>": 7713,
  "Bowl.</w>": 7714,
  "Bowl</w>": 7715,
  "Bowled</w>": 7716,
  "Bowler</w>": 7717,
  "Bowlers</w>": 7718,
  "Bowley,</w>": 7719,
  "Bowley</w>": 7720,
  "Bowling</w>": 7721,
  "Bowman,</w>": 7722,
  "Bowman</w>": 7723,
  "Box": 7724,
  "Box</w>": 7725,
  "Boxing</w>": 7726,
  "Boy": 7727,
  "Boyagoda,</w>": 7728,
  "Boyagoda</w>": 7729,
  "Boyc": 7730,
  "Boyce,</w>": 7731,
  "Boyce</w>": 7732,
  "Boycott's</w>": 7733,
  "Boycott,</w>": 7734,
  "Boycott.</w>": 7735,
  "Boycott</w>": 7736,
  "Boyd</w>": 7737,
  "Boyden,</w>": 7738,
  "Boyden</w>": 7739,
  "Boylan,</w>": 7740,
  "Boylan</w>": 7741,
  "Boyle,</w>": 7742,
  "Boyle</w>": 7743,
  "Boys'</w>": 7744,
  "Boys</w>": 7745,
  "Br": 7746,
  "Bra": 7747,
  "Braak,</w>": 7748,
  "Braak</w>": 7749,
  "Braat,</w>": 7750,
  "Braat</w>": 7751,
  "Brabourne</w>": 7752,
  "Brac": 7753,
  "Bracewell,</w>": 7754,
  "Bracewell</w>": 7755,
  "Bracey,</w>": 7756,
  "Bracey</w>": 7757,
  "Bracke": 7758,
  "Bracken,</w>": 7759,
  "Bracken</w>": 7760,
  "Brad": 7761,
  "Brad</w>": 7762,
  "Bradfield</w>": 7763,
  "Bradford,</w>": 7764,
  "Bradford.</w>": 7765,
  "Bradford</w>": 7766,
  "Bradman": 7767,
  "Bradman's</w>": 7768,
  "Bradman,</w>": 7769,
  "Bradman.</w>": 7770,
  "Bradman</w>": 7771,
  "Bradshaw,</w>": 7772,
  "Bradshaw</w>": 7773,
  "Brag": 7774,
  "Bragg,</w>": 7775,
  "Bragg</w>": 7776,
  "Brain</w>": 7777,
  "Bram": 7778,
  "Brama": 7779,
  "Bramall</w>": 7780,
  "Bramble,</w>": 7781,
  "Bramble</w>": 7782,
  "Bran": 7783,
  "Brand,</w>": 7784,
  "Brand</w>": 7785,
  "Brandes</w>": 7786,
  "Brang": 7787,
  "Brangman,</w>": 7788,
  "Brangman</w>": 7789,
  "Brar,</w>": 7790,
  "Brar</w>": 7791,
  "Bras": 7792,
  "Brasen": 7793,
  "Brasenose</w>": 7794,
  "Brasi": 7795,
  "Brasier</w>": 7796,
  "Brass": 7797,
  "Brassell,</w>": 7798,
  "Brassell</w>": 7799,
  "Brathwaite,</w>": 7800,
  "Brathwaite</w>": 7801,
  "Braund</w>": 7802,
  "Brav": 7803,
  "Brave</w>": 7804,
  "Bravish</w>": 7805,
  "Bravo,</w>": 7806,
  "Bravo.</w>": 7807,
  "Bravo</w>": 7808,
  "Bray": 7809,
  "Bray,</w>": 7810,
  "Bray</w>": 7811,
  "Braz": 7812,
  "Brazell,</w>": 7813,
  "Brazell</w>": 7814,
  "Brazi": 7815,
  "Brazil</w>": 7816,
  "Brazilian</w>": 7817,
  "Bre": 7818,
  "Brea": 7819,
  "Break": 7820,
  "Brealey,</w>": 7821,
  "Brealey</w>": 7822,
  "Brear": 7823,
  "Brearley,</w>": 7824,
  "Brearley</w>": 7825,
  "Breban</w>": 7826,
  "Bred": 7827,
  "Breda</w>": 7828,
  "Bredenkamp,</w>": 7829,
  "Bredenkamp</w>": 7830,
  "Breese,</w>": 7831,
  "Breese</w>": 7832,
  "Breetz": 7833,
  "Breetzke,</w>": 7834,
  "Breetzke</w>": 7835,
  "Breeze</w>": 7836,
  "Brelive": 7837,
  "Brelivet,</w>": 7838,
  "Brelivet</w>": 7839,
  "Bremar,</w>": 7840,
  "Bremar</w>": 7841,
  "Brendan</w>": 7842,
  "Brendon</w>": 7843,
  "Brennan,</w>": 7844,
  "Brennan</w>": 7845,
  "Brent": 7846,
  "Brent,</w>": 7847,
  "Brent</w>": 7848,
  "Bres": 7849,
  "Bresnan,</w>": 7850,
  "Bresnan</w>": 7851,
  "Bretech": 7852,
  "Breteche,</w>": 7853,
  "Breteche</w>": 7854,
  "Breton,</w>": 7855,
  "Breton</w>": 7856,
  "Brett,</w>": 7857,
  "Brett</w>": 7858,
  "Brevis,</w>": 7859,
  "Brevis</w>": 7860,
  "Brew": 7861,
  "Brewa": 7862,
  "Brewah,</w>": 7863,
  "Brewer,</w>": 7864,
  "Brewer</w>": 7865,
  "Brewster</w>": 7866,
  "Bri": 7867,
  "Brian</w>": 7868,
  "Bridg": 7869,
  "Bridge": 7870,
  "Bridge,</w>": 7871,
  "Bridge.</w>": 7872,
  "Bridge</w>": 7873,
  "Bridgetown,</w>": 7874,
  "Bridgetown.</w>": 7875,
  "Bridgetown</w>": 7876,
  "Brig": 7877,
  "Brigade</w>": 7878,
  "Brigg": 7879,
  "Briggs,</w>": 7880,
  "Briggs</w>": 7881,
  "Brigh": 7882,
  "Brighton,</w>": 7883,
  "Brighton</w>": 7884,
  "Brin": 7885,
  "Brind": 7886,
  "Brindle,</w>": 7887,
  "Brindle</w>": 7888,
  "Bris": 7889,
  "Brisban": 7890,
  "Brisbane,</w>": 7891,
  "Brisbane.</w>": 7892,
  "Brisbane</w>": 7893,
  "Brisco": 7894,
  "Bristo": 7895,
  "Bristol,</w>": 7896,
  "Bristol.</w>": 7897,
  "Bristol</w>": 7898,
  "Brit": 7899,
  "Britain": 7900,
  "Britain,</w>": 7901,
  "Britain.</w>": 7902,
  "Britain</w>": 7903,
  "British</w>": 7904,
  "Brits,</w>": 7905,
  "Brits</w>": 7906,
  "Britt,</w>": 7907,
  "Britt</w>": 7908,
  "Britton,</w>": 7909,
  "Britton</w>": 7910,
  "Bro": 7911,
  "Broad": 7912,
  "Broad's</w>": 7913,
  "Broad,</w>": 7914,
  "Broad.</w>": 7915,
  "Broad</w>": 7916,
  "Broadcas": 7917,
  "Broadcasting</w>": 7918,
  "Broadhalf": 7919,
  "Broadhalfpenny</w>": 7920,
  "Broadmore,</w>": 7921,
  "Broadmore</w>": 7922,
  "Brock,</w>": 7923,
  "Brock-": 7924,
  "Brock-Nielsen,</w>": 7925,
  "Brock-Nielsen</w>": 7926,
  "Brock</w>": 7927,
  "Brodie,</w>": 7928,
  "Brodie</w>": 7929,
  "Brodin,</w>": 7930,
  "Brodin</w>": 7931,
  "Brodri": 7932,
  "Brodrib": 7933,
  "Brodrick,</w>": 7934,
  "Brodrick</w>": 7935,
  "Brom": 7936,
  "Bromley</w>": 7937,
  "Bromwich</w>": 7938,
  "Bron": 7939,
  "Broo": 7940,
  "Brook": 7941,
  "Brook,</w>": 7942,
  "Brook</w>": 7943,
  "Brooke</w>": 7944,
  "Brookes,</w>": 7945,
  "Brookes</w>": 7946,
  "Brooks,</w>": 7947,
  "Brooks</w>": 7948,
  "Broom,</w>": 7949,
  "Broom</w>": 7950,
  "Brother": 7951,
  "Brothers</w>": 7952,
  "Broughe,</w>": 7953,
  "Broughe</w>": 7954,
  "Brow": 7955,
  "Brown": 7956,
  "Brown's</w>": 7957,
  "Brown,</w>": 7958,
  "Brown-Carr": 7959,
  "Brown-Carrera,</w>": 7960,
  "Brown-Carrera</w>": 7961,
  "Brown.</w>": 7962,
  "Brown</w>": 7963,
  "Browne,</w>": 7964,
  "Browne</w>": 7965,
  "Browning,</w>": 7966,
  "Browning</w>": 7967,
  "Brownli": 7968,
  "Brownlie,</w>": 7969,
  "Brownlie</w>": 7970,
  "Bru": 7971,
  "Bruce,</w>": 7972,
  "Bruce</w>": 7973,
  "Brun": 7974,
  "Bruning</w>": 7975,
  "Bruno,</w>": 7976,
  "Bruno</w>": 7977,
  "Brunsg": 7978,
  "Brunsgaard,</w>": 7979,
  "Brunsgaard</w>": 7980,
  "Brunswick</w>": 7981,
  "Brunt,</w>": 7982,
  "Brunt</w>": 7983,
  "Bruy": 7984,
  "Bruyn,</w>": 7985,
  "Bruyn</w>": 7986,
  "Bry": 7987,
  "Bryan": 7988,
  "Bryan,</w>": 7989,
  "Bryan</w>": 7990,
  "Bryant,</w>": 7991,
  "Bryant</w>": 7992,
  "Bryce,</w>": 7993,
  "Bryce</w>": 7994,
  "Bu": 7995,
  "Bucci": 7996,
  "Buccimaz": 7997,
  "Buccimazza,</w>": 7998,
  "Buccimazza</w>": 7999,
  "Bucha": 8000,
  "Buchake,</w>": 8001,
  "Buchan": 8002,
  "Buchanan,</w>": 8003,
  "Buchanan</w>": 8004,
  "Buck": 8005,
  "Buck,</w>": 8006,
  "Buck</w>": 8007,
  "Buckingham": 8008,
  "Buckingham,</w>": 8009,
  "Buckingham</w>": 8010,
  "Buckinghamshire,</w>": 8011,
  "Buckinghamshire.</w>": 8012,
  "Buckinghamshire</w>": 8013,
  "Buckn": 8014,
  "Bucknor</w>": 8015,
  "Buckston</w>": 8016,
  "Bucu": 8017,
  "Bucuane,</w>": 8018,
  "Bucuane</w>": 8019,
  "Bud": 8020,
  "Buday": 8021,
  "Budayair,</w>": 8022,
  "Budayair</w>": 8023,
  "Budaza,</w>": 8024,
  "Budaza</w>": 8025,
  "Budd": 8026,
  "Budd</w>": 8027,
  "Buddhi,</w>": 8028,
  "Buddhi</w>": 8029,
  "Buddika,</w>": 8030,
  "Buddika</w>": 8031,
  "Budge,</w>": 8032,
  "Budge</w>": 8033,
  "Budh": 8034,
  "Budha": 8035,
  "Budhath": 8036,
  "Budhathoki</w>": 8037,
  "Budhwar</w>": 8038,
  "Budiar": 8039,
  "Budiarta,</w>": 8040,
  "Budiarta</w>": 8041,
  "Budinger,</w>": 8042,
  "Budinger</w>": 8043,
  "Buen": 8044,
  "Buenos</w>": 8045,
  "Buff": 8046,
  "Bug": 8047,
  "Bugingo</w>": 8048,
  "Buil": 8049,
  "Building</w>": 8050,
  "Buk": 8051,
  "Buken": 8052,
  "Bukenya,</w>": 8053,
  "Bukenya</w>": 8054,
  "Bukhar</w>": 8055,
  "Bukhari,</w>": 8056,
  "Bukhari</w>": 8057,
  "Bul": 8058,
  "Bulawa": 8059,
  "Bulaway": 8060,
  "Bulawayo,</w>": 8061,
  "Bulawayo.</w>": 8062,
  "Bulawayo</w>": 8063,
  "Bulbu": 8064,
  "Bulbulia,</w>": 8065,
  "Bulbulia</w>": 8066,
  "Bule": 8067,
  "Bulele,</w>": 8068,
  "Bulele</w>": 8069,
  "Buley</w>": 8070,
  "Bull": 8071,
  "Bull,</w>": 8072,
  "Bull</w>": 8073,
  "Buller</w>": 8074,
  "Bulls</w>": 8075,
  "Bulow,</w>": 8076,
  "Bulow</w>": 8077,
  "Bulpit": 8078,
  "Bulpitt,</w>": 8079,
  "Bulpitt</w>": 8080,
  "Bum": 8081,
  "Bumrah": 8082,
  "Bumrah,</w>": 8083,
  "Bumrah</w>": 8084,
  "Bun": 8085,
  "Bund": 8086,
  "Bundab": 8087,
  "Bundaber": 8088,
  "Bunge,</w>": 8089,
  "Bunge</w>": 8090,
  "Bunting</w>": 8091,
  "Bur": 8092,
  "Bur</w>": 8093,
  "Bura": 8094,
  "Burak</w>": 8095,
  "Burde": 8096,
  "Burdekin,</w>": 8097,
  "Burdekin</w>": 8098,
  "Burdett</w>": 8099,
  "Burdon,</w>": 8100,
  "Burdon</w>": 8101,
  "Burg": 8102,
  "Burge</w>": 8103,
  "Burger,</w>": 8104,
  "Burger</w>": 8105,
  "Burgess,</w>": 8106,
  "Burgess</w>": 8107,
  "Burgh": 8108,
  "Burgher</w>": 8109,
  "Burgoy": 8110,
  "Burgoyne,</w>": 8111,
  "Burgoyne</w>": 8112,
  "Burhan,</w>": 8113,
  "Burhan</w>": 8114,
  "Burin": 8115,
  "Burinaga,</w>": 8116,
  "Burinaga</w>": 8117,
  "Burke,</w>": 8118,
  "Burke</w>": 8119,
  "Burki</w>": 8120,
  "Burl,</w>": 8121,
  "Burl</w>": 8122,
  "Burn": 8123,
  "Burnet</w>": 8124,
  "Burnham,</w>": 8125,
  "Burnham</w>": 8126,
  "Burnley</w>": 8127,
  "Burns,</w>": 8128,
  "Burns</w>": 8129,
  "Burnup</w>": 8130,
  "Burrow": 8131,
  "Burrows,</w>": 8132,
  "Burrows</w>": 8133,
  "Burton,</w>": 8134,
  "Burton</w>": 8135,
  "Buruka,</w>": 8136,
  "Buruka</w>": 8137,
  "Bury</w>": 8138,
  "Bus": 8139,
  "Busa,</w>": 8140,
  "Busa</w>": 8141,
  "Bush": 8142,
  "Bush</w>": 8143,
  "Bushell,</w>": 8144,
  "Bushn": 8145,
  "Bushnell,</w>": 8146,
  "Bushnell</w>": 8147,
  "Bushrang": 8148,
  "Business</w>": 8149,
  "Busing": 8150,
  "Busing-Volschen": 8151,
  "Busing-Volschenk,</w>": 8152,
  "Busing-Volschenk</w>": 8153,
  "Busingye,</w>": 8154,
  "Busingye</w>": 8155,
  "Busra</w>": 8156,
  "But": 8157,
  "But,</w>": 8158,
  "But</w>": 8159,
  "Butcher,</w>": 8160,
  "Butcher</w>": 8161,
  "Butler,</w>": 8162,
  "Butler</w>": 8163,
  "Butt,</w>": 8164,
  "Butt</w>": 8165,
  "Butte</w>": 8166,
  "Butter": 8167,
  "Butterworth</w>": 8168,
  "Buttl": 8169,
  "Buttle": 8170,
  "Buttleman,</w>": 8171,
  "Buttleman</w>": 8172,
  "Buttler's</w>": 8173,
  "Buttler,</w>": 8174,
  "Buttler</w>": 8175,
  "Buur": 8176,
  "Buuren,</w>": 8177,
  "Buuren</w>": 8178,
  "Buurman,</w>": 8179,
  "Buurman</w>": 8180,
  "Bwan": 8181,
  "Bwanali,</w>": 8182,
  "Bwanali</w>": 8183,
  "By": 8184,
  "By</w>": 8185,
  "Byas</w>": 8186,
  "Byr": 8187,
  "Byrne</w>": 8188,
  "Byrom,</w>": 8189,
  "Byrom</w>": 8190,
  "Byron,</w>": 8191,
  "Byron</w>": 8192,
  "C": 8193,
  "C&": 8194,
  "C&G</w>": 8195,
  "C),</w>": 8196,
  "C)</w>": 8197,
  "C,</w>": 8198,
  "C.,</w>": 8199,
  "C.</w>": 8200,
  "C.C.</w>": 8201,
  "C</w>": 8202,
  "CA)</w>": 8203,
  "CA</w>": 8204,
  "CAE</w>": 8205,
  "CAH</w>": 8206,
  "CAJ</w>": 8207,
  "CAK</w>": 8208,
  "CAL</w>": 8209,
  "CAW</w>": 8210,
  "CB": 8211,
  "CB),</w>": 8212,
  "CB).</w>": 8213,
  "CB)</w>": 8214,
  "CB,</w>": 8215,
  "CB.</w>": 8216,
  "CB</w>": 8217,
  "CBE</w>": 8218,
  "CBR": 8219,
  "CBRLS</w>": 8220,
  "CC": 8221,
  "CC</w>": 8222,
  "CD</w>": 8223,
  "CDJ</w>": 8224,
  "CE</w>": 8225,
  "CEO</w>": 8226,
  "CF": 8227,
  "CF</w>": 8228,
  "CFK</w>": 8229,
  "CFX</w>": 8230,
  "CG</w>": 8231,
  "CH</w>": 8232,
  "CI</w>": 8233,
  "CJ": 8234,
  "CJ</w>": 8235,
  "CJA</w>": 8236,
  "CJB</w>": 8237,
  "CJC</w>": 8238,
  "CJD</w>": 8239,
  "CJL</w>": 8240,
  "CJM</w>": 8241,
  "CJO</w>": 8242,
  "CJPF</w>": 8243,
  "CK</w>": 8244,
  "CKB</w>": 8245,
  "CL": 8246,
  "CL</w>": 8247,
  "CM</w>": 8248,
  "CMA</w>": 8249,
  "CMG</w>": 8250,
  "CMJ</w>": 8251,
  "CMKK</w>": 8252,
  "CMW</w>": 8253,
  "CN</w>": 8254,
  "CNI": 8255,
  "CNIM</w>": 8256,
  "CO": 8257,
  "CO</w>": 8258,
  "COV": 8259,
  "COVID": 8260,
  "COVID-": 8261,
  "COVID-19.</w>": 8262,
  "COVID-19</w>": 8263,
  "CP": 8264,
  "CP</w>": 8265,
  "CPL</w>": 8266,
  "CPPM</w>": 8267,
  "CR</w>": 8268,
  "CRD</w>": 8269,
  "CRM</w>": 8270,
  "CS</w>": 8271,
  "CSA</w>": 8272,
  "CSK</w>": 8273,
  "CSN</w>": 8274,
  "CT</w>": 8275,
  "CUCC": 8276,
  "CV</w>": 8277,
  "CW</w>": 8278,
  "CWJ</w>": 8279,
  "CWR</w>": 8280,
  "CZ</w>": 8281,
  "Ca": 8282,
  "Cab": 8283,
  "Cabeb": 8284,
  "Cabebula</w>": 8285,
  "Cach": 8286,
  "Cachop": 8287,
  "Cachopa,</w>": 8288,
  "Cachopa</w>": 8289,
  "Cad": 8290,
  "Caddick,</w>": 8291,
  "Caddick</w>": 8292,
  "Cagn": 8293,
  "Cagne": 8294,
  "Cagnewa,</w>": 8295,
  "Cahn's</w>": 8296,
  "Cai": 8297,
  "Cai,</w>": 8298,
  "Cai</w>": 8299,
  "Cair": 8300,
  "Caires,</w>": 8301,
  "Caires</w>": 8302,
  "Cairn": 8303,
  "Cairns,</w>": 8304,
  "Cairns</w>": 8305,
  "Cais": 8306,
  "Caisley,</w>": 8307,
  "Caisley</w>": 8308,
  "Cakir</w>": 8309,
  "Cal": 8310,
  "Calcut": 8311,
  "Calcutta,</w>": 8312,
  "Calcutta.</w>": 8313,
  "Calcutta</w>": 8314,
  "Cali": 8315,
  "Califor": 8316,
  "Calitz,</w>": 8317,
  "Calitz</w>": 8318,
  "Call": 8319,
  "Callaway</w>": 8320,
  "Callum</w>": 8321,
  "Calthor": 8322,
  "Calthorpe</w>": 8323,
  "Cam": 8324,
  "Cama": 8325,
  "Cama,</w>": 8326,
  "Cama</w>": 8327,
  "Camb": 8328,
  "Cambri": 8329,
  "Cambridg": 8330,
  "Cambridge,</w>": 8331,
  "Cambridge.</w>": 8332,
  "Cambridge</w>": 8333,
  "Cambridgeshi": 8334,
  "Cambridgeshire,</w>": 8335,
  "Cambridgeshire.</w>": 8336,
  "Cambridgeshire</w>": 8337,
  "Came,</w>": 8338,
  "Came</w>": 8339,
  "Camer": 8340,
  "Cameron,</w>": 8341,
  "Cameron-": 8342,
  "Cameron-D": 8343,
  "Cameron-Dow": 8344,
  "Cameron-Dow,</w>": 8345,
  "Cameron-Dow</w>": 8346,
  "Cameron</w>": 8347,
  "Camila</w>": 8348,
  "Camp": 8349,
  "Campb": 8350,
  "Campbell": 8351,
  "Campbell,</w>": 8352,
  "Campbell</w>": 8353,
  "Campbelle,</w>": 8354,
  "Campbelle</w>": 8355,
  "Campher,</w>": 8356,
  "Campher</w>": 8357,
  "Campopi": 8358,
  "Campopiano,</w>": 8359,
  "Campopiano</w>": 8360,
  "Campuses</w>": 8361,
  "Can": 8362,
  "Can</w>": 8363,
  "Canad": 8364,
  "Canada's</w>": 8365,
  "Canada,</w>": 8366,
  "Canada.</w>": 8367,
  "Canada</w>": 8368,
  "Canadi": 8369,
  "Canadian</w>": 8370,
  "Canav": 8371,
  "Canavarc": 8372,
  "Canavarci,</w>": 8373,
  "Canavarci</w>": 8374,
  "Canber": 8375,
  "Canberra,</w>": 8376,
  "Canberra</w>": 8377,
  "Cancer</w>": 8378,
  "Cand": 8379,
  "Candiru,</w>": 8380,
  "Candiru</w>": 8381,
  "Candy</w>": 8382,
  "Caness": 8383,
  "Canessane,</w>": 8384,
  "Canessane</w>": 8385,
  "Cang": 8386,
  "Cangc": 8387,
  "Cangcang,</w>": 8388,
  "Cangcang</w>": 8389,
  "Cann,</w>": 8390,
  "Cann</w>": 8391,
  "Canning,</w>": 8392,
  "Canning</w>": 8393,
  "Cannings</w>": 8394,
  "Canter": 8395,
  "Canterbury,</w>": 8396,
  "Canterbury.</w>": 8397,
  "Canterbury</w>": 8398,
  "Cap": 8399,
  "Cap</w>": 8400,
  "Cape</w>": 8401,
  "Capel</w>": 8402,
  "Capit": 8403,
  "Capital</w>": 8404,
  "Capitals.</w>": 8405,
  "Capitals</w>": 8406,
  "Caps</w>": 8407,
  "Capsey,</w>": 8408,
  "Capsey</w>": 8409,
  "Captain": 8410,
  "Captain</w>": 8411,
  "Captaining</w>": 8412,
  "Captains</w>": 8413,
  "Car": 8414,
  "Cara": 8415,
  "Carava,</w>": 8416,
  "Carava</w>": 8417,
  "Carber": 8418,
  "Carberry,</w>": 8419,
  "Carberry</w>": 8420,
  "Card": 8421,
  "Carder,</w>": 8422,
  "Carder</w>": 8423,
  "Cardi": 8424,
  "Cardiff": 8425,
  "Cardiff,</w>": 8426,
  "Cardiff.</w>": 8427,
  "Cardiff</w>": 8428,
  "Cardo": 8429,
  "Cardos": 8430,
  "Cardos,</w>": 8431,
  "Cardos</w>": 8432,
  "Cardoso,</w>": 8433,
  "Cardoso</w>": 8434,
  "Cardus,</w>": 8435,
  "Cardus</w>": 8436,
  "Career</w>": 8437,
  "Carey,</w>": 8438,
  "Carey</w>": 8439,
  "Carg": 8440,
  "Cargou": 8441,
  "Cargouet,</w>": 8442,
  "Cargouet</w>": 8443,
  "Cari": 8444,
  "Cariah,</w>": 8445,
  "Cariah</w>": 8446,
  "Cariappa,</w>": 8447,
  "Cariappa</w>": 8448,
  "Carib</w>": 8449,
  "Caribbe": 8450,
  "Caribbean,</w>": 8451,
  "Caribbean.</w>": 8452,
  "Caribbean</w>": 8453,
  "Caris": 8454,
  "Carisbrook,</w>": 8455,
  "Carl": 8456,
  "Carl</w>": 8457,
  "Carless</w>": 8458,
  "Carlis": 8459,
  "Carlisle,</w>": 8460,
  "Carlisle</w>": 8461,
  "Carlot,</w>": 8462,
  "Carlot</w>": 8463,
  "Carlson,</w>": 8464,
  "Carlson</w>": 8465,
  "Carlton</w>": 8466,
  "Carly": 8467,
  "Carlyon,</w>": 8468,
  "Carlyon</w>": 8469,
  "Carman</w>": 8470,
  "Carmar": 8471,
  "Carmi": 8472,
  "Carmichael,</w>": 8473,
  "Carmichael</w>": 8474,
  "Carney,</w>": 8475,
  "Carney</w>": 8476,
  "Carol": 8477,
  "Carolyn</w>": 8478,
  "Carpenter</w>": 8479,
  "Carr,</w>": 8480,
  "Carr</w>": 8481,
  "Carri": 8482,
  "Carrington,</w>": 8483,
  "Carrington</w>": 8484,
  "Carro": 8485,
  "Carroll,</w>": 8486,
  "Carroll</w>": 8487,
  "Carse,</w>": 8488,
  "Carse</w>": 8489,
  "Carsel": 8490,
  "Carseld": 8491,
  "Carseldine,</w>": 8492,
  "Carseldine</w>": 8493,
  "Carson,</w>": 8494,
  "Carson</w>": 8495,
  "Carter,</w>": 8496,
  "Carter</w>": 8497,
  "Carters,</w>": 8498,
  "Carters</w>": 8499,
  "Carthew": 8500,
  "Carthew,</w>": 8501,
  "Carthew</w>": 8502,
  "Cartw": 8503,
  "Cartwrigh": 8504,
  "Cartwright,</w>": 8505,
  "Cartwright</w>": 8506,
  "Carty,</w>": 8507,
  "Carty</w>": 8508,
  "Caru": 8509,
  "Caruana,</w>": 8510,
  "Caruana</w>": 8511,
  "Carver,</w>": 8512,
  "Carver</w>": 8513,
  "Cas": 8514,
  "Casas": 8515,
  "Casasola,</w>": 8516,
  "Casasola</w>": 8517,
  "Case,</w>": 8518,
  "Case</w>": 8519,
  "Casim": 8520,
  "Casime</w>": 8521,
  "Cass": 8522,
  "Cass</w>": 8523,
  "Cassell,</w>": 8524,
  "Cassell</w>": 8525,
  "Cassim</w>": 8526,
  "Casson</w>": 8527,
  "Castill": 8528,
  "Castillo,</w>": 8529,
  "Castillo</w>": 8530,
  "Castin": 8531,
  "Castinei": 8532,
  "Castineiras,</w>": 8533,
  "Castineiras</w>": 8534,
  "Castle": 8535,
  "Castle,</w>": 8536,
  "Castle</w>": 8537,
  "Cat": 8538,
  "Categ": 8539,
  "Cath": 8540,
  "Cathedra": 8541,
  "Cathedral</w>": 8542,
  "Cather": 8543,
  "Catherine</w>": 8544,
  "Catherwood</w>": 8545,
  "Catho": 8546,
  "Catholic</w>": 8547,
  "Cato,</w>": 8548,
  "Cato</w>": 8549,
  "Catter": 8550,
  "Catton,</w>": 8551,
  "Catton</w>": 8552,
  "Caught</w>": 8553,
  "Cav": 8554,
  "Cavali": 8555,
  "Cavaliers</w>": 8556,
  "Cave</w>": 8557,
  "Caw": 8558,
  "Cawley,</w>": 8559,
  "Cawley</w>": 8560,
  "Cawte,</w>": 8561,
  "Cawte</w>": 8562,
  "Cay": 8563,
  "Cayman</w>": 8564,
  "Ce": 8565,
  "Cecil</w>": 8566,
  "Cel": 8567,
  "Cele": 8568,
  "Cele</w>": 8569,
  "Celebra": 8570,
  "Celebration</w>": 8571,
  "Celebri": 8572,
  "Celebrity</w>": 8573,
  "Celest": 8574,
  "Celestine,</w>": 8575,
  "Celestine</w>": 8576,
  "Celik,</w>": 8577,
  "Celik</w>": 8578,
  "Celtic</w>": 8579,
  "Cem": 8580,
  "Cemeter": 8581,
  "Cemetery.</w>": 8582,
  "Cemetery</w>": 8583,
  "Cen": 8584,
  "Cengi": 8585,
  "Cengiz,</w>": 8586,
  "Cengiz</w>": 8587,
  "Cenik,</w>": 8588,
  "Cenik</w>": 8589,
  "Cent": 8590,
  "Centenary</w>": 8591,
  "Central</w>": 8592,
  "Centre</w>": 8593,
  "Centur": 8594,
  "Centuri": 8595,
  "Centurion.</w>": 8596,
  "Centurion</w>": 8597,
  "Century.</w>": 8598,
  "Century</w>": 8599,
  "Cer": 8600,
  "Certain": 8601,
  "Cespe": 8602,
  "Cet": 8603,
  "Cetin,</w>": 8604,
  "Cetin</w>": 8605,
  "Cey": 8606,
  "Ceylon": 8607,
  "Ceylon</w>": 8608,
  "Ch": 8609,
  "Cha": 8610,
  "Cha</w>": 8611,
  "Chab": 8612,
  "Chabila</w>": 8613,
  "Chadha,</w>": 8614,
  "Chadha</w>": 8615,
  "Chado</w>": 8616,
  "Chahal,</w>": 8617,
  "Chahal</w>": 8618,
  "Chahar,</w>": 8619,
  "Chahar</w>": 8620,
  "Chai": 8621,
  "Chair": 8622,
  "Chairman</w>": 8623,
  "Chait": 8624,
  "Chaitanya</w>": 8625,
  "Chaiwa": 8626,
  "Chaiwai,</w>": 8627,
  "Chaiwai</w>": 8628,
  "Chak": 8629,
  "Chakab": 8630,
  "Chakabva,</w>": 8631,
  "Chakabva</w>": 8632,
  "Chakrabor": 8633,
  "Chakraborty,</w>": 8634,
  "Chakraborty</w>": 8635,
  "Chakrap": 8636,
  "Chakrapani,</w>": 8637,
  "Chal": 8638,
  "Chalk</w>": 8639,
  "Chall": 8640,
  "Challen": 8641,
  "Challeng": 8642,
  "Challenge,</w>": 8643,
  "Challenge.</w>": 8644,
  "Challenge</w>": 8645,
  "Challenger</w>": 8646,
  "Challengers</w>": 8647,
  "Challu,</w>": 8648,
  "Challu</w>": 8649,
  "Cham": 8650,
  "Cham</w>": 8651,
  "Chama": 8652,
  "Chamari</w>": 8653,
  "Chamath</w>": 8654,
  "Chamber": 8655,
  "Chamberlain,</w>": 8656,
  "Chamberlain</w>": 8657,
  "Chambers</w>": 8658,
  "Chameera,</w>": 8659,
  "Chameera</w>": 8660,
  "Chaminda</w>": 8661,
  "Chamoli</w>": 8662,
  "Champi": 8663,
  "Champion": 8664,
  "Champion</w>": 8665,
  "Champions</w>": 8666,
  "Championship": 8667,
  "Championship,</w>": 8668,
  "Championship-winning</w>": 8669,
  "Championship.</w>": 8670,
  "Championship;</w>": 8671,
  "Championship</w>": 8672,
  "Championships,</w>": 8673,
  "Championships.</w>": 8674,
  "Championships</w>": 8675,
  "Chamto,</w>": 8676,
  "Chamto</w>": 8677,
  "Chamund": 8678,
  "Chamundaiah</w>": 8679,
  "Chan": 8680,
  "Chan,</w>": 8681,
  "Chan</w>": 8682,
  "Chance,</w>": 8683,
  "Chance</w>": 8684,
  "Chancellor</w>": 8685,
  "Chand": 8686,
  "Chand,</w>": 8687,
  "Chand</w>": 8688,
  "Chandan</w>": 8689,
  "Chandana,</w>": 8690,
  "Chandana</w>": 8691,
  "Chande": 8692,
  "Chandel,</w>": 8693,
  "Chandel</w>": 8694,
  "Chandela,</w>": 8695,
  "Chandela</w>": 8696,
  "Chanderp": 8697,
  "Chanderpal</w>": 8698,
  "Chanderpaul": 8699,
  "Chanderpaul,</w>": 8700,
  "Chanderpaul</w>": 8701,
  "Chandhra": 8702,
  "Chandhrase": 8703,
  "Chandhrasekar,</w>": 8704,
  "Chandhrasekar</w>": 8705,
  "Chandi": 8706,
  "Chandigar": 8707,
  "Chandigarh</w>": 8708,
  "Chandila,</w>": 8709,
  "Chandila</w>": 8710,
  "Chandimal,</w>": 8711,
  "Chandimal</w>": 8712,
  "Chandler,</w>": 8713,
  "Chandler</w>": 8714,
  "Chandra": 8715,
  "Chandragup": 8716,
  "Chandraguptha,</w>": 8717,
  "Chandraguptha</w>": 8718,
  "Chandrakant</w>": 8719,
  "Chandrakar,</w>": 8720,
  "Chandrakar</w>": 8721,
  "Chandramo": 8722,
  "Chandramohan,</w>": 8723,
  "Chandramohan</w>": 8724,
  "Chandran,</w>": 8725,
  "Chandran</w>": 8726,
  "Chandrasek": 8727,
  "Chandrasekhar</w>": 8728,
  "Chandrasinghe,</w>": 8729,
  "Chandri": 8730,
  "Chandrika,</w>": 8731,
  "Chandrika</w>": 8732,
  "Chandu</w>": 8733,
  "Chang": 8734,
  "Chang,</w>": 8735,
  "Chang</w>": 8736,
  "Channa,</w>": 8737,
  "Channa</w>": 8738,
  "Channel</w>": 8739,
  "Chant": 8740,
  "Chantam,</w>": 8741,
  "Chantam</w>": 8742,
  "Chanth": 8743,
  "Chanthuka,</w>": 8744,
  "Chanthuka</w>": 8745,
  "Chaoana,</w>": 8746,
  "Chaoana</w>": 8747,
  "Chap": 8748,
  "Chapman's</w>": 8749,
  "Chapman,</w>": 8750,
  "Chapman</w>": 8751,
  "Chapp": 8752,
  "Chappell": 8753,
  "Chappell's</w>": 8754,
  "Chappell,</w>": 8755,
  "Chappell.</w>": 8756,
  "Chappell</w>": 8757,
  "Chappell\u2013": 8758,
  "Chappell\u2013Hadlee</w>": 8759,
  "Chapple,</w>": 8760,
  "Chapple</w>": 8761,
  "Chapran": 8762,
  "Chaprana,</w>": 8763,
  "Chaprana</w>": 8764,
  "Char": 8765,
  "Charani,</w>": 8766,
  "Charani</w>": 8767,
  "Charanjeet</w>": 8768,
  "Chare</w>": 8769,
  "Charg": 8770,
  "Chargers,</w>": 8771,
  "Chargers</w>": 8772,
  "Chari": 8773,
  "Chari,</w>": 8774,
  "Chari</w>": 8775,
  "Charl": 8776,
  "Charles": 8777,
  "Charles,</w>": 8778,
  "Charles</w>": 8779,
  "Charlesworth,</w>": 8780,
  "Charlesworth</w>": 8781,
  "Charlie,</w>": 8782,
  "Charlie</w>": 8783,
  "Charlot": 8784,
  "Charlotte</w>": 8785,
  "Charlton</w>": 8786,
  "Charter": 8787,
  "Charterhouse</w>": 8788,
  "Chase,</w>": 8789,
  "Chase</w>": 8790,
  "Chasing</w>": 8791,
  "Chat": 8792,
  "Chatai": 8793,
  "Chataira</w>": 8794,
  "Chatara,</w>": 8795,
  "Chatara</w>": 8796,
  "Chathli,</w>": 8797,
  "Chathli</w>": 8798,
  "Chathu": 8799,
  "Chathuranga,</w>": 8800,
  "Chathuranga</w>": 8801,
  "Chathurani,</w>": 8802,
  "Chathurani</w>": 8803,
  "Chaton": 8804,
  "Chatonz": 8805,
  "Chatonzwa,</w>": 8806,
  "Chatonzwa</w>": 8807,
  "Chatpha": 8808,
  "Chatphais": 8809,
  "Chatphaisan,</w>": 8810,
  "Chatphaisan</w>": 8811,
  "Chatter": 8812,
  "Chattergo": 8813,
  "Chattergoon,</w>": 8814,
  "Chattergoon</w>": 8815,
  "Chatterj": 8816,
  "Chatterjee,</w>": 8817,
  "Chatterjee</w>": 8818,
  "Chatterji,</w>": 8819,
  "Chatterji</w>": 8820,
  "Chatterton</w>": 8821,
  "Chattog": 8822,
  "Chattogram</w>": 8823,
  "Chatu": 8824,
  "Chatur": 8825,
  "Chaturanga,</w>": 8826,
  "Chaturanga</w>": 8827,
  "Chaturong": 8828,
  "Chaturongratt": 8829,
  "Chaturongrattana,</w>": 8830,
  "Chaturongrattana</w>": 8831,
  "Chaturved,</w>": 8832,
  "Chaturved</w>": 8833,
  "Chaturvedi,</w>": 8834,
  "Chaturvedi</w>": 8835,
  "Chau": 8836,
  "Chaub": 8837,
  "Chaubey,</w>": 8838,
  "Chaubey</w>": 8839,
  "Chaudhar": 8840,
  "Chaudhary,</w>": 8841,
  "Chaudhary</w>": 8842,
  "Chauhan,</w>": 8843,
  "Chauhan</w>": 8844,
  "Chavan</w>": 8845,
  "Chaw": 8846,
  "Chawla,</w>": 8847,
  "Chawla</w>": 8848,
  "Chaya</w>": 8849,
  "Chayan": 8850,
  "Chayanisa</w>": 8851,
  "Che": 8852,
  "Cheat": 8853,
  "Cheatle,</w>": 8854,
  "Cheatle</w>": 8855,
  "Chee": 8856,
  "Cheema,</w>": 8857,
  "Cheema</w>": 8858,
  "Cheepu": 8859,
  "Cheepurapalli</w>": 8860,
  "Cheetham</w>": 8861,
  "Chej": 8862,
  "Chejay,</w>": 8863,
  "Chejay</w>": 8864,
  "Cheki</w>": 8865,
  "Chel": 8866,
  "Chelm": 8867,
  "Chelms": 8868,
  "Chelmsford,</w>": 8869,
  "Chelmsford</w>": 8870,
  "Chelsea</w>": 8871,
  "Chelten": 8872,
  "Cheltenham,</w>": 8873,
  "Cheltenham</w>": 8874,
  "Cheluv": 8875,
  "Cheluvaraj,</w>": 8876,
  "Chem": 8877,
  "Chen": 8878,
  "Chen</w>": 8879,
  "Cheng": 8880,
  "Chengk": 8881,
  "Chengkam</w>": 8882,
  "Chenhao</w>": 8883,
  "Chenn": 8884,
  "Chennai": 8885,
  "Chennai,</w>": 8886,
  "Chennai.</w>": 8887,
  "Chennai</w>": 8888,
  "Chentha": 8889,
  "Chenthamara</w>": 8890,
  "Chepau": 8891,
  "Chepauk</w>": 8892,
  "Cher": 8893,
  "Chere": 8894,
  "Chereches</w>": 8895,
  "Cherri": 8896,
  "Cherriath,</w>": 8897,
  "Cherriath</w>": 8898,
  "Chert": 8899,
  "Ches": 8900,
  "Cheshi": 8901,
  "Cheshire,</w>": 8902,
  "Cheshire.</w>": 8903,
  "Cheshire</w>": 8904,
  "Chester": 8905,
  "Chester,</w>": 8906,
  "Chester-": 8907,
  "Chester-le-": 8908,
  "Chester</w>": 8909,
  "Chesterfield</w>": 8910,
  "Chet": 8911,
  "Chetan</w>": 8912,
  "Chete,</w>": 8913,
  "Chete</w>": 8914,
  "Cheteshwar</w>": 8915,
  "Chethan,</w>": 8916,
  "Chetri,</w>": 8917,
  "Chetri</w>": 8918,
  "Chetry,</w>": 8919,
  "Chetry</w>": 8920,
  "Chett": 8921,
  "Chetty,</w>": 8922,
  "Chetty</w>": 8923,
  "Cheung,</w>": 8924,
  "Cheung</w>": 8925,
  "Chhatt": 8926,
  "Chhattis": 8927,
  "Chhattisgar": 8928,
  "Chhet": 8929,
  "Chhetri,</w>": 8930,
  "Chhetri</w>": 8931,
  "Chhetry</w>": 8932,
  "Chi": 8933,
  "Chial": 8934,
  "Chialouf": 8935,
  "Chialoufas,</w>": 8936,
  "Chialoufas</w>": 8937,
  "Chibha": 8938,
  "Chibhab": 8939,
  "Chibhabha,</w>": 8940,
  "Chibhabha</w>": 8941,
  "Chicago</w>": 8942,
  "Chicu": 8943,
  "Chicuele,</w>": 8944,
  "Chid": 8945,
  "Chidambara": 8946,
  "Chidambaram</w>": 8947,
  "Chidg": 8948,
  "Chief</w>": 8949,
  "Chig": 8950,
  "Chigora,</w>": 8951,
  "Chigora</w>": 8952,
  "Chigumbu": 8953,
  "Chigumbura,</w>": 8954,
  "Chigumbura</w>": 8955,
  "Chik": 8956,
  "Chikk": 8957,
  "Chikkannai": 8958,
  "Chikkannaiah,</w>": 8959,
  "Chikkannaiah</w>": 8960,
  "Chil": 8961,
  "Child</w>": 8962,
  "Chile": 8963,
  "Chileman": 8964,
  "Chilemanya,</w>": 8965,
  "Chilemanya</w>": 8966,
  "Chilia,</w>": 8967,
  "Chilia</w>": 8968,
  "Chilong": 8969,
  "Chilongia,</w>": 8970,
  "Chilongia</w>": 8971,
  "Chilton</w>": 8972,
  "Chin": 8973,
  "Chin,</w>": 8974,
  "Chin</w>": 8975,
  "China,</w>": 8976,
  "China</w>": 8977,
  "Chinawa,</w>": 8978,
  "Chinawa</w>": 8979,
  "Chinese</w>": 8980,
  "Ching": 8981,
  "Chingai": 8982,
  "Chingaipe,</w>": 8983,
  "Chingaipe</w>": 8984,
  "Chingak": 8985,
  "Chingakham,</w>": 8986,
  "Chingakham</w>": 8987,
  "Chingang": 8988,
  "Chingangbam,</w>": 8989,
  "Chinn": 8990,
  "Chinnaswamy</w>": 8991,
  "Chinou": 8992,
  "Chinouya,</w>": 8993,
  "Chinouya</w>": 8994,
  "Chinta</w>": 8995,
  "Chintan</w>": 8996,
  "Chintap": 8997,
  "Chintapalli</w>": 8998,
  "Chinunga,</w>": 8999,
  "Chinunga</w>": 9000,
  "Chinyen": 9001,
  "Chinyenum</w>": 9002,
  "Chip": 9003,
  "Chipanga,</w>": 9004,
  "Chipanga</w>": 9005,
  "Chipare,</w>": 9006,
  "Chipare</w>": 9007,
  "Chipli,</w>": 9008,
  "Chipli</w>": 9009,
  "Chipol": 9010,
  "Chipolina</w>": 9011,
  "Chira": 9012,
  "Chirache": 9013,
  "Chiracheque,</w>": 9014,
  "Chiracheque</w>": 9015,
  "Chirag</w>": 9016,
  "Chirali": 9017,
  "Chiralile,</w>": 9018,
  "Chiralile</w>": 9019,
  "Chiri": 9020,
  "Chirila,</w>": 9021,
  "Chirila</w>": 9022,
  "Chishi,</w>": 9023,
  "Chishi</w>": 9024,
  "Chisor": 9025,
  "Chisoro,</w>": 9026,
  "Chisoro</w>": 9027,
  "Chit": 9028,
  "Chitn": 9029,
  "Chitnis,</w>": 9030,
  "Chitnis</w>": 9031,
  "Chittag": 9032,
  "Chittagong,</w>": 9033,
  "Chittagong.</w>": 9034,
  "Chittagong</w>": 9035,
  "Chiv": 9036,
  "Chivanga,</w>": 9037,
  "Chivanga</w>": 9038,
  "Cho": 9039,
  "Cho,</w>": 9040,
  "Choamba,</w>": 9041,
  "Choamba</w>": 9042,
  "Chod": 9043,
  "Choden,</w>": 9044,
  "Choden</w>": 9045,
  "Chohan,</w>": 9046,
  "Chohan</w>": 9047,
  "Choi": 9048,
  "Choi,</w>": 9049,
  "Choi</w>": 9050,
  "Chol": 9051,
  "Cholass": 9052,
  "Cholasseri,</w>": 9053,
  "Cholasseri</w>": 9054,
  "Chong": 9055,
  "Chongtham</w>": 9056,
  "Chop": 9057,
  "Chopel</w>": 9058,
  "Chophel,</w>": 9059,
  "Chopise</w>": 9060,
  "Chopl": 9061,
  "Chopla</w>": 9062,
  "Chopra,</w>": 9063,
  "Chopra</w>": 9064,
  "Chore,</w>": 9065,
  "Chore</w>": 9066,
  "Chou": 9067,
  "Choudary</w>": 9068,
  "Choudh": 9069,
  "Choudhar": 9070,
  "Choudhary,</w>": 9071,
  "Choudhary</w>": 9072,
  "Choudhry,</w>": 9073,
  "Choudhry</w>": 9074,
  "Choudhury,</w>": 9075,
  "Choudhury</w>": 9076,
  "Choudry</w>": 9077,
  "Chouhan,</w>": 9078,
  "Chouhan</w>": 9079,
  "Chow": 9080,
  "Chowd": 9081,
  "Chowdary,</w>": 9082,
  "Chowdary</w>": 9083,
  "Chowdh": 9084,
  "Chowdhar": 9085,
  "Chowdhary,</w>": 9086,
  "Chowdhary</w>": 9087,
  "Chowdhury,</w>": 9088,
  "Chowdhury</w>": 9089,
  "Chri": 9090,
  "Chris": 9091,
  "Chris</w>": 9092,
  "Christ": 9093,
  "Christ's</w>": 9094,
  "Christ</w>": 9095,
  "Christchur": 9096,
  "Christchurch,</w>": 9097,
  "Christchurch.</w>": 9098,
  "Christchurch</w>": 9099,
  "Christensen</w>": 9100,
  "Christi": 9101,
  "Christian,</w>": 9102,
  "Christian</w>": 9103,
  "Christiani</w>": 9104,
  "Christie,</w>": 9105,
  "Christie</w>": 9106,
  "Christina</w>": 9107,
  "Christmas</w>": 9108,
  "Christo": 9109,
  "Christoph": 9110,
  "Christopher</w>": 9111,
  "Christopherson,</w>": 9112,
  "Christopherson</w>": 9113,
  "Chron": 9114,
  "Chronic": 9115,
  "Chronicle</w>": 9116,
  "Chu,</w>": 9117,
  "Chu</w>": 9118,
  "Chud": 9119,
  "Chudas": 9120,
  "Chudasama,</w>": 9121,
  "Chudasama</w>": 9122,
  "Chugh": 9123,
  "Chught": 9124,
  "Chughtai,</w>": 9125,
  "Chughtai</w>": 9126,
  "Chuk": 9127,
  "Chukkap": 9128,
  "Chukkapall": 9129,
  "Chukkapalli-": 9130,
  "Chukkapalli-L": 9131,
  "Chukkapalli-Llin": 9132,
  "Chukkapalli-Llinares</w>": 9133,
  "Chukw": 9134,
  "Chukwu": 9135,
  "Chukwuon": 9136,
  "Chukwuonye,</w>": 9137,
  "Chukwuonye</w>": 9138,
  "Chum": 9139,
  "Chuma,</w>": 9140,
  "Chuma</w>": 9141,
  "Chumney,</w>": 9142,
  "Chumney</w>": 9143,
  "Chunan</w>": 9144,
  "Chur": 9145,
  "Church,</w>": 9146,
  "Church</w>": 9147,
  "Churchill</w>": 9148,
  "Chuv": 9149,
  "Ci": 9150,
  "Cin": 9151,
  "Cir": 9152,
  "Circ": 9153,
  "Cirli": 9154,
  "Cirlig,</w>": 9155,
  "Cirlig</w>": 9156,
  "City,</w>": 9157,
  "City.</w>": 9158,
  "City</w>": 9159,
  "Civil</w>": 9160,
  "Cl": 9161,
  "Cla": 9162,
  "Claas": 9163,
  "Claassen</w>": 9164,
  "Claire</w>": 9165,
  "Clap": 9166,
  "Clar": 9167,
  "Clare</w>": 9168,
  "Clarem": 9169,
  "Clarence</w>": 9170,
  "Clari": 9171,
  "Claridge,</w>": 9172,
  "Claridge</w>": 9173,
  "Clark": 9174,
  "Clark's</w>": 9175,
  "Clark,</w>": 9176,
  "Clark</w>": 9177,
  "Clarke's</w>": 9178,
  "Clarke,</w>": 9179,
  "Clarke.</w>": 9180,
  "Clarke</w>": 9181,
  "Clarkson,</w>": 9182,
  "Clarkson</w>": 9183,
  "Clarrie</w>": 9184,
  "Clas": 9185,
  "Class</w>": 9186,
  "Classen</w>": 9187,
  "Classi": 9188,
  "Clau": 9189,
  "Claude,</w>": 9190,
  "Claude</w>": 9191,
  "Claxton,</w>": 9192,
  "Claxton</w>": 9193,
  "Clay": 9194,
  "Clay</w>": 9195,
  "Claydon,</w>": 9196,
  "Claydon</w>": 9197,
  "Clayton,</w>": 9198,
  "Clayton</w>": 9199,
  "Cle": 9200,
  "Cleary,</w>": 9201,
  "Cleary</w>": 9202,
  "Cleas": 9203,
  "Cleator,</w>": 9204,
  "Cleator</w>": 9205,
  "Cleav": 9206,
  "Cleaver,</w>": 9207,
  "Cleaver</w>": 9208,
  "Cleet": 9209,
  "Clem</w>": 9210,
  "Clement</w>": 9211,
  "Clep": 9212,
  "Clephane</w>": 9213,
  "Cli": 9214,
  "Clif": 9215,
  "Cliff,</w>": 9216,
  "Cliff</w>": 9217,
  "Clifford</w>": 9218,
  "Clifton</w>": 9219,
  "Clinton,</w>": 9220,
  "Clither": 9221,
  "Clive</w>": 9222,
  "Clo": 9223,
  "Cloete,</w>": 9224,
  "Cloete</w>": 9225,
  "Clos": 9226,
  "Close's</w>": 9227,
  "Close,</w>": 9228,
  "Close</w>": 9229,
  "Clout</w>": 9230,
  "Club": 9231,
  "Club's</w>": 9232,
  "Club,</w>": 9233,
  "Club.</w>": 9234,
  "Club;</w>": 9235,
  "Club</w>": 9236,
  "Clubs</w>": 9237,
  "Cly": 9238,
  "Clyde</w>": 9239,
  "Clydes": 9240,
  "Clydesdale</w>": 9241,
  "Co": 9242,
  "Co.,</w>": 9243,
  "Co.</w>": 9244,
  "Co</w>": 9245,
  "Coach": 9246,
  "Coach</w>": 9247,
  "Coaching</w>": 9248,
  "Coad,</w>": 9249,
  "Coad</w>": 9250,
  "Coast</w>": 9251,
  "Cob": 9252,
  "Cobb,</w>": 9253,
  "Cobb</w>": 9254,
  "Cobham</w>": 9255,
  "Cobra": 9256,
  "Cobras</w>": 9257,
  "Coburn,</w>": 9258,
  "Coburn</w>": 9259,
  "Coc": 9260,
  "Coca-": 9261,
  "Coca-Col": 9262,
  "Coca-Cola</w>": 9263,
  "Coch": 9264,
  "Cochra": 9265,
  "Cock": 9266,
  "Cock,</w>": 9267,
  "Cock</w>": 9268,
  "Cockb": 9269,
  "Cockbain,</w>": 9270,
  "Cockbain</w>": 9271,
  "Cod": 9272,
  "Codanda</w>": 9273,
  "Code": 9274,
  "Code</w>": 9275,
  "Codemast": 9276,
  "Codemasters</w>": 9277,
  "Codi</w>": 9278,
  "Codner,</w>": 9279,
  "Codner</w>": 9280,
  "Codrington,</w>": 9281,
  "Codrington</w>": 9282,
  "Cody": 9283,
  "Codyre,</w>": 9284,
  "Codyre</w>": 9285,
  "Coet": 9286,
  "Coetsee,</w>": 9287,
  "Coetsee</w>": 9288,
  "Coetz": 9289,
  "Coetzee,</w>": 9290,
  "Coetzee</w>": 9291,
  "Coetzer,</w>": 9292,
  "Coetzer</w>": 9293,
  "Coff": 9294,
  "Coh": 9295,
  "Cohen,</w>": 9296,
  "Cohen</w>": 9297,
  "Coker,</w>": 9298,
  "Coker</w>": 9299,
  "Col": 9300,
  "Col</w>": 9301,
  "Cold": 9302,
  "Coldwell</w>": 9303,
  "Cole</w>": 9304,
  "Coleman,</w>": 9305,
  "Coleman</w>": 9306,
  "Coles,</w>": 9307,
  "Coles</w>": 9308,
  "Colin</w>": 9309,
  "Coll": 9310,
  "Coll,</w>": 9311,
  "Coll</w>": 9312,
  "Collado,</w>": 9313,
  "Colle": 9314,
  "Colleg": 9315,
  "College,</w>": 9316,
  "College.</w>": 9317,
  "College</w>": 9318,
  "Colleges</w>": 9319,
  "Colli": 9320,
  "Colling": 9321,
  "Collingwood's</w>": 9322,
  "Collingwood,</w>": 9323,
  "Collingwood.</w>": 9324,
  "Collingwood</w>": 9325,
  "Collins": 9326,
  "Collins,</w>": 9327,
  "Collins.</w>": 9328,
  "Collins</w>": 9329,
  "Collis,</w>": 9330,
  "Colly": 9331,
  "Collyer</w>": 9332,
  "Collymore,</w>": 9333,
  "Collymore</w>": 9334,
  "Colomb": 9335,
  "Colombage,</w>": 9336,
  "Colombage</w>": 9337,
  "Colombo": 9338,
  "Colombo's</w>": 9339,
  "Colombo,</w>": 9340,
  "Colombo.</w>": 9341,
  "Colombo</w>": 9342,
  "Colon": 9343,
  "Colonel</w>": 9344,
  "Colonial</w>": 9345,
  "Colony</w>": 9346,
  "Colson,</w>": 9347,
  "Colson</w>": 9348,
  "Colts</w>": 9349,
  "Columb": 9350,
  "Colvin,</w>": 9351,
  "Colvin</w>": 9352,
  "Com": 9353,
  "Comb": 9354,
  "Comber": 9355,
  "Combined</w>": 9356,
  "Come</w>": 9357,
  "Comets</w>": 9358,
  "Comilla</w>": 9359,
  "Coming</w>": 9360,
  "Comm": 9361,
  "Commander</w>": 9362,
  "Commentators</w>": 9363,
  "Commer": 9364,
  "Commerce</w>": 9365,
  "Commins,</w>": 9366,
  "Commins</w>": 9367,
  "Commissi": 9368,
  "Commission</w>": 9369,
  "Commissioner</w>": 9370,
  "Commit": 9371,
  "Committ": 9372,
  "Committe": 9373,
  "Committee,</w>": 9374,
  "Committee.</w>": 9375,
  "Committee</w>": 9376,
  "Common": 9377,
  "Common</w>": 9378,
  "Commons</w>": 9379,
  "Commonwealth</w>": 9380,
  "Community</w>": 9381,
  "Comp": 9382,
  "Compagni": 9383,
  "Compagnie-": 9384,
  "Compagnie-Coker,</w>": 9385,
  "Company,</w>": 9386,
  "Company</w>": 9387,
  "Competi": 9388,
  "Competition,</w>": 9389,
  "Competition.</w>": 9390,
  "Competition</w>": 9391,
  "Comple": 9392,
  "Complete</w>": 9393,
  "Complying</w>": 9394,
  "Comprehen": 9395,
  "Compton's</w>": 9396,
  "Compton,</w>": 9397,
  "Compton.</w>": 9398,
  "Compton</w>": 9399,
  "Con": 9400,
  "Conduc": 9401,
  "Conduct</w>": 9402,
  "Conference</w>": 9403,
  "Cong": 9404,
  "Conn": 9405,
  "Connell,</w>": 9406,
  "Connell</w>": 9407,
  "Conners,</w>": 9408,
  "Conners</w>": 9409,
  "Conno": 9410,
  "Connoll": 9411,
  "Connolly,</w>": 9412,
  "Connolly</w>": 9413,
  "Connor,</w>": 9414,
  "Connor</w>": 9415,
  "Conra": 9416,
  "Conrad</w>": 9417,
  "Consequently,</w>": 9418,
  "Conserv": 9419,
  "Conservative</w>": 9420,
  "Consi": 9421,
  "Considered</w>": 9422,
  "Const": 9423,
  "Constable</w>": 9424,
  "Constan": 9425,
  "Constantin": 9426,
  "Constantine's</w>": 9427,
  "Constantine,</w>": 9428,
  "Constantine</w>": 9429,
  "Constanza</w>": 9430,
  "Conte": 9431,
  "Conteh,</w>": 9432,
  "Conteh</w>": 9433,
  "Contin": 9434,
  "Continental</w>": 9435,
  "Continu": 9436,
  "Continuing</w>": 9437,
  "Contra": 9438,
  "Contractor</w>": 9439,
  "Contro": 9440,
  "Control</w>": 9441,
  "Conver": 9442,
  "Conversely,</w>": 9443,
  "Conwa": 9444,
  "Conway,</w>": 9445,
  "Conway</w>": 9446,
  "Coo": 9447,
  "Cooch</w>": 9448,
  "Cook": 9449,
  "Cook's</w>": 9450,
  "Cook,</w>": 9451,
  "Cook.</w>": 9452,
  "Cook</w>": 9453,
  "Cooke,</w>": 9454,
  "Cooke</w>": 9455,
  "Coom": 9456,
  "Cooma": 9457,
  "Coomaras": 9458,
  "Coomaraswa": 9459,
  "Coomaraswamy</w>": 9460,
  "Coombe,</w>": 9461,
  "Coombe</w>": 9462,
  "Cooper,</w>": 9463,
  "Cooper</w>": 9464,
  "Cooray,</w>": 9465,
  "Cooray</w>": 9466,
  "Cope,</w>": 9467,
  "Cope</w>": 9468,
  "Copel": 9469,
  "Copeland,</w>": 9470,
  "Copeland</w>": 9471,
  "Copp": 9472,
  "Coppack,</w>": 9473,
  "Coppack</w>": 9474,
  "Cor": 9475,
  "Coraz": 9476,
  "Corazon,</w>": 9477,
  "Corazon</w>": 9478,
  "Corbin,</w>": 9479,
  "Corbin</w>": 9480,
  "Cord": 9481,
  "Corder</w>": 9482,
  "Cordes</w>": 9483,
  "Corey</w>": 9484,
  "Corin": 9485,
  "Corinthi": 9486,
  "Cork": 9487,
  "Cork's</w>": 9488,
  "Cork,</w>": 9489,
  "Cork</w>": 9490,
  "Corn": 9491,
  "Cornall,</w>": 9492,
  "Cornall</w>": 9493,
  "Corney,</w>": 9494,
  "Corney</w>": 9495,
  "Corns,</w>": 9496,
  "Corns</w>": 9497,
  "Cornwall": 9498,
  "Cornwall,</w>": 9499,
  "Cornwall.</w>": 9500,
  "Cornwall</w>": 9501,
  "Cornwallis</w>": 9502,
  "Cornwell,</w>": 9503,
  "Cornwell</w>": 9504,
  "Coron": 9505,
  "Corpora": 9506,
  "Corporation.</w>": 9507,
  "Corporation</w>": 9508,
  "Corps,</w>": 9509,
  "Corps.</w>": 9510,
  "Corps</w>": 9511,
  "Corra": 9512,
  "Corrall</w>": 9513,
  "Corruption</w>": 9514,
  "Corteen-": 9515,
  "Corteen-Coleman,</w>": 9516,
  "Corteen-Coleman</w>": 9517,
  "Cos": 9518,
  "Cosgrave,</w>": 9519,
  "Cosgro": 9520,
  "Cosgrove,</w>": 9521,
  "Cosgrove</w>": 9522,
  "Cosier</w>": 9523,
  "Cosker,</w>": 9524,
  "Cosker</w>": 9525,
  "Coss": 9526,
  "Cossa,</w>": 9527,
  "Cossa</w>": 9528,
  "Cossti": 9529,
  "Coster,</w>": 9530,
  "Cot": 9531,
  "Cotani,</w>": 9532,
  "Cotani</w>": 9533,
  "Cott": 9534,
  "Cotter": 9535,
  "Cotter,</w>": 9536,
  "Cotter</w>": 9537,
  "Cotterill</w>": 9538,
  "Cotto": 9539,
  "Cotton,</w>": 9540,
  "Cotton</w>": 9541,
  "Cottoy,</w>": 9542,
  "Cottoy</w>": 9543,
  "Cottrell,</w>": 9544,
  "Cottrell</w>": 9545,
  "Cou": 9546,
  "Couana,</w>": 9547,
  "Couana</w>": 9548,
  "Couch,</w>": 9549,
  "Couch</w>": 9550,
  "Cough": 9551,
  "Coughlin,</w>": 9552,
  "Coughlin</w>": 9553,
  "Coughtri": 9554,
  "Coughtrie</w>": 9555,
  "Coul": 9556,
  "Coulib": 9557,
  "Coulibaly,</w>": 9558,
  "Coulibaly</w>": 9559,
  "Coult": 9560,
  "Coulter,</w>": 9561,
  "Coulter-": 9562,
  "Coulter-Ni": 9563,
  "Coulter-Nile,</w>": 9564,
  "Coulter-Nile</w>": 9565,
  "Coulter</w>": 9566,
  "Coulthard's</w>": 9567,
  "Coulthard,</w>": 9568,
  "Coulthard</w>": 9569,
  "Coun": 9570,
  "Counc": 9571,
  "Council's</w>": 9572,
  "Council,</w>": 9573,
  "Council.</w>": 9574,
  "Council</w>": 9575,
  "Count": 9576,
  "Counti": 9577,
  "Counties,</w>": 9578,
  "Counties.</w>": 9579,
  "Counties</w>": 9580,
  "Country</w>": 9581,
  "County,</w>": 9582,
  "County.</w>": 9583,
  "County</w>": 9584,
  "Cour": 9585,
  "Court</w>": 9586,
  "Courtney</w>": 9587,
  "Covent": 9588,
  "Coventry,</w>": 9589,
  "Coventry</w>": 9590,
  "Cover": 9591,
  "Cow": 9592,
  "Cowan,</w>": 9593,
  "Cowan</w>": 9594,
  "Coward</w>": 9595,
  "Cowdre": 9596,
  "Cowdrey's</w>": 9597,
  "Cowdrey,</w>": 9598,
  "Cowdrey.</w>": 9599,
  "Cowdrey</w>": 9600,
  "Cowdri": 9601,
  "Cowdrill</w>": 9602,
  "Cowi": 9603,
  "Cowie</w>": 9604,
  "Cox,</w>": 9605,
  "Cox</w>": 9606,
  "Coy": 9607,
  "Coy,</w>": 9608,
  "Coy</w>": 9609,
  "Coyte,</w>": 9610,
  "Coyte</w>": 9611,
  "Cr": 9612,
  "Cra": 9613,
  "Crackn": 9614,
  "Cracknell,</w>": 9615,
  "Cracknell</w>": 9616,
  "Cradd": 9617,
  "Craddock</w>": 9618,
  "Craf": 9619,
  "Crafton,</w>": 9620,
  "Crafton</w>": 9621,
  "Crai": 9622,
  "Craig's</w>": 9623,
  "Craig,</w>": 9624,
  "Craig</w>": 9625,
  "Cran": 9626,
  "Crane,</w>": 9627,
  "Crane</w>": 9628,
  "Cranmer</w>": 9629,
  "Cranston</w>": 9630,
  "Cranstone,</w>": 9631,
  "Cranstone</w>": 9632,
  "Crap": 9633,
  "Crapp</w>": 9634,
  "Craw": 9635,
  "Crawford,</w>": 9636,
  "Crawford</w>": 9637,
  "Crawley,</w>": 9638,
  "Crawley</w>": 9639,
  "Crawshaw</w>": 9640,
  "Cre": 9641,
  "Creese</w>": 9642,
  "Crem": 9643,
  "Cremer,</w>": 9644,
  "Cremer</w>": 9645,
  "Cres": 9646,
  "Cress": 9647,
  "Cresswell</w>": 9648,
  "Cri": 9649,
  "Cric": 9650,
  "CricInf": 9651,
  "CricInfo": 9652,
  "CricInfo</w>": 9653,
  "Cricbu": 9654,
  "Cricbuzz": 9655,
  "Cricbuzz.</w>": 9656,
  "Cricinfo,</w>": 9657,
  "Cricinfo.</w>": 9658,
  "Cricinfo</w>": 9659,
  "Cricke": 9660,
  "Cricket": 9661,
  "Cricket\"</w>": 9662,
  "Cricket's</w>": 9663,
  "Cricket,</w>": 9664,
  "Cricket.</w>": 9665,
  "Cricket:</w>": 9666,
  "Cricket</w>": 9667,
  "CricketArchive.</w>": 9668,
  "CricketArchive</w>": 9669,
  "Cricketer": 9670,
  "Cricketer's</w>": 9671,
  "Cricketer,</w>": 9672,
  "Cricketer.</w>": 9673,
  "Cricketer</w>": 9674,
  "Cricketers'</w>": 9675,
  "Cricketers,</w>": 9676,
  "Cricketers.</w>": 9677,
  "Cricketers</w>": 9678,
  "Cricketing</w>": 9679,
  "Cripp": 9680,
  "Cripps</w>": 9681,
  "Crist</w>": 9682,
  "Critch": 9683,
  "Critchell,</w>": 9684,
  "Critchell</w>": 9685,
  "Critchley,</w>": 9686,
  "Critchley</w>": 9687,
  "Critics</w>": 9688,
  "Cro": 9689,
  "Crock": 9690,
  "Crockett</w>": 9691,
  "Crockwell,</w>": 9692,
  "Crockwell</w>": 9693,
  "Crocom": 9694,
  "Crocombe,</w>": 9695,
  "Crocombe</w>": 9696,
  "Croes,</w>": 9697,
  "Croes</w>": 9698,
  "Croft,</w>": 9699,
  "Croft</w>": 9700,
  "Cron": 9701,
  "Crone,</w>": 9702,
  "Crone</w>": 9703,
  "Cronj": 9704,
  "Cronje</w>": 9705,
  "Croo": 9706,
  "Crook,</w>": 9707,
  "Crook</w>": 9708,
  "Croosp": 9709,
  "Croospull": 9710,
  "Croospulle,</w>": 9711,
  "Croospulle</w>": 9712,
  "Cros": 9713,
  "Cross": 9714,
  "Cross,</w>": 9715,
  "Cross.</w>": 9716,
  "Cross</w>": 9717,
  "Crossley</w>": 9718,
  "Crosthwaite,</w>": 9719,
  "Crosthwaite</w>": 9720,
  "Crou": 9721,
  "Croudi": 9722,
  "Croudis,</w>": 9723,
  "Croudis</w>": 9724,
  "Crow": 9725,
  "Crowe,</w>": 9726,
  "Crowe.</w>": 9727,
  "Crowe</w>": 9728,
  "Crowi": 9729,
  "Crowie,</w>": 9730,
  "Crowie</w>": 9731,
  "Crowley,</w>": 9732,
[...]
